<unk>	0
<pad>	0
<s>	0
</s>	0
[CLS]	0
[SEP]	0
[MASK]	0
,	-2.98895
.	-3.23167
>	-3.49947
▁<	-3.49947
▁na	-4.02845
▁no	-4.17007
▁la	-4.20857
▁ni	-4.34258
▁ka	-4.34553
▁a	-4.40611
twi	-4.47366
ewe	-4.48237
i	-4.54366
▁ne	-4.58771
▁o	-4.60272
▁me	-4.76444
a	-4.88739
dagban	-4.88802
▁le	-4.90359
▁sɛ	-4.91366
▁daa	-4.98283
▁be	-5.00436
▁n	-5.0044
▁wo	-5.05753
▁eye	-5.09985
▁ɖe	-5.10377
▁yi	-5.16208
▁ƒe	-5.19957
▁ti	-5.2214
-	-5.24301
▁mu	-5.2454
e	-5.26124
▁wɔn	-5.26849
▁so	-5.28054
▁Na	-5.30333
▁maa	-5.30805
:	-5.36272
▁si	-5.37841
▁kple	-5.39346
;	-5.39757
▁bɛ	-5.41416
▁nu	-5.58544
▁wɔ	-5.59694
▁dzi	-5.66113
▁nye	-5.71774
▁di	-5.71844
▁ho	-5.75002
▁mo	-5.84009
▁ma	-5.86211
▁ame	-5.86864
▁ŋu	-5.88585
▁Ka	-5.91749
▁wò	-5.9233
?	-5.95318
ɛ	-5.96896
▁ba	-5.99681
▁bi	-6.10737
▁nyɛ	-6.11012
▁nyinaa	-6.12945
▁din	-6.14981
▁mi	-6.21308
▁	-6.22126
▁siwo	-6.241
▁zaŋ	-6.24669
▁eƒe	-6.26476
▁deɛ	-6.27335
▁zuɣu	-6.3047
▁ŋun	-6.30533
!	-6.30828
▁mini	-6.34019
▁yɛn	-6.34765
▁AWURADE	-6.36256
▁de	-6.37959
▁Yawɛ	-6.3918
▁Mawu	-6.40176
▁ŋɔ	-6.41066
wo	-6.41194
▁nya	-6.41465
▁zaa	-6.41844
▁Yehowa	-6.43978
▁m	-6.442
▁Naawuni	-6.45482
la	-6.48006
▁katã	-6.48033
▁yɛ	-6.48091
▁tso	-6.4849
m	-6.5034
▁bɛn	-6.50809
▁ta	-6.56294
▁sia	-6.56791
▁ku	-6.57087
▁Israel	-6.58111
▁chɛ	-6.58308
▁ɖo	-6.58557
▁shɛli	-6.586
▁yɛli	-6.59755
▁niŋ	-6.60143
▁ke	-6.64483
▁ene	-6.68658
▁Aƒetɔ	-6.70262
▁to	-6.72389
▁va	-6.73328
▁hɔ	-6.75698
▁hã	-6.7791
▁li	-6.78486
▁nso	-6.79047
▁abe	-6.80495
▁Awurade	-6.81777
▁kyerɛ	-6.82479
▁gblɔ	-6.82946
▁mali	-6.86776
ʼ	-6.86793
▁bena	-6.87583
▁N	-6.91693
▁nyɛla	-6.92249
▁asase	-6.92846
▁A	-6.93037
▁Yesu	-6.9308
▁mma	-6.93976
▁shɛm	-6.9535
▁ɖa	-6.95591
▁nam	-6.96147
▁ya	-6.96296
▁gbe	-6.96511
▁mia	-6.97153
▁woƒe	-6.98757
▁asi	-6.99777
▁Di	-6.99818
▁niriba	-7.0076
▁Onyankopɔn	-7.0083
▁gbɔ	-7.01788
▁Eye	-7.02381
▁lan	-7.03431
▁Ke	-7.03514
▁se	-7.04597
▁ara	-7.04916
▁da	-7.04992
na	-7.06874
▁anyigba	-7.08785
▁O	-7.08794
▁fia	-7.08986
▁nti	-7.09407
▁nɛ	-7.10589
▁aɖe	-7.10723
▁kɔ	-7.10952
▁esi	-7.15143
▁saha	-7.15381
▁sani	-7.17726
▁ale	-7.18102
▁chaŋ	-7.18207
man	-7.18986
vuɣ	-7.19131
▁ɛfiri	-7.20755
▁ɖeka	-7.2218
▁saa	-7.24871
▁Ne	-7.25708
▁Nyankopɔn	-7.25898
▁elabena	-7.26629
▁sɛdeɛ	-7.2676
▁nin	-7.30119
▁wɔde	-7.31422
▁kpe	-7.31745
▁shɛb	-7.3247
▁Bɛ	-7.33538
▁ano	-7.33866
▁te	-7.34131
▁vi	-7.35135
▁du	-7.35457
▁nkyɛn	-7.35669
▁dome	-7.36022
▁Mose	-7.36148
▁eŋu	-7.38094
▁do	-7.39178
▁ase	-7.40336
▁asɛm	-7.40512
▁kul	-7.40945
▁biara	-7.44581
▁Yerusalem	-7.44662
▁Sɛ	-7.45146
n	-7.45328
▁soɔ	-7.4559
▁Yuda	-7.45615
▁anyi	-7.45912
▁nnipa	-7.46071
▁anim	-7.46802
▁ɔ	-7.46869
▁ama	-7.47041
▁pam	-7.47089
▁gba	-7.48555
▁nsa	-7.48853
▁ɔde	-7.49221
▁dama	-7.50178
▁pa	-7.51164
▁bia	-7.51344
▁mía	-7.51869
foɔ	-7.52741
▁ɖi	-7.52948
▁anaa	-7.52949
▁Dawid	-7.53103
▁ko	-7.54064
▁bɔne	-7.54075
▁shɛŋa	-7.5454
▁nɔ	-7.54861
▁Ame	-7.55947
▁Esi	-7.56229
▁amaa	-7.56529
ni	-7.5703
▁fa	-7.58097
▁kpɔ	-7.58367
▁alo	-7.58583
▁afi	-7.59297
▁lee	-7.59402
▁Ale	-7.60573
▁dɔ	-7.60775
▁ŋutɔ	-7.61068
▁Wo	-7.61213
▁eya	-7.62678
▁mɔ	-7.63407
▁dukɔ	-7.63714
▁Me	-7.64978
▁ha	-7.65631
▁firi	-7.65678
▁zuliya	-7.65738
▁ɛyɛ	-7.6659
▁bee	-7.67337
▁yɛl	-7.67966
▁ayi	-7.6874
▁hal	-7.68951
▁Amaa	-7.69328
awo	-7.71391
▁Yisa	-7.71825
▁agbe	-7.72168
ya	-7.72461
▁Tete	-7.72568
▁ɔhene	-7.72995
▁ŋuti	-7.73613
▁mele	-7.74307
▁edzi	-7.74841
▁Kristo	-7.74916
▁polo	-7.75665
▁ɔyɛ	-7.76332
▁ƒo	-7.76942
▁yɛla	-7.76998
▁miaƒe	-7.7704
▁tsi	-7.77155
▁aba	-7.7727
▁ŋku	-7.77916
nyɛ	-7.77921
▁xɔ	-7.79707
▁mede	-7.80254
▁fie	-7.80458
▁min	-7.81156
▁aɖeke	-7.81342
▁tooi	-7.81625
▁dze	-7.81974
▁ani	-7.8214
▁Izraɛlnim	-7.82917
▁puuni	-7.82935
bu	-7.84213
▁kɔɔ	-7.84501
▁lala	-7.8454
▁enti	-7.8483
▁wu	-7.85448
▁sara	-7.8551
▁Yi	-7.8604
▁mí	-7.86177
▁firii	-7.86565
▁fam	-7.86609
▁eve	-7.86698
▁ŋkeke	-7.86733
▁siawo	-7.86866
▁eme	-7.87252
▁blibo	-7.8791
▁Le	-7.88425
▁ge	-7.89102
▁baako	-7.89289
▁dzo	-7.89716
▁tum	-7.90381
daa	-7.90598
▁tiŋgbɔŋ	-7.91601
▁nanso	-7.92324
tɔ	-7.93351
▁ye	-7.9411
▁ayɛ	-7.94497
▁menye	-7.95245
▁ŋkɔ	-7.95501
▁tɔ	-7.96182
▁bahi	-7.96786
▁Naa	-7.97225
▁afɔdeɛ	-7.9743
▁nni	-7.9804
▁wɔwɔ	-7.98902
li	-7.99357
▁afiri	-7.9937
▁baa	-7.99924
▁su	-8.00027
▁bio	-8.00067
▁w	-8.00134
▁bubu	-8.00818
▁aƒe	-8.01222
▁adi	-8.01248
▁M	-8.01301
▁doli	-8.01903
▁tsɔ	-8.03823
o	-8.04331
▁ɛwɔ	-8.05189
▁Enti	-8.05327
ri	-8.06013
▁ekema	-8.06421
▁tuma	-8.06556
▁akɔ	-8.06713
▁ɔman	-8.0685
u	-8.07104
▁bɔ	-8.0768
▁sika	-8.08531
to	-8.08597
▁wum	-8.08682
▁kam	-8.08699
▁ƒu	-8.08746
▁akpe	-8.08963
▁viwo	-8.09403
▁ɛ	-8.0973
▁Nu	-8.10182
▁adeɛ	-8.10516
▁nsɛm	-8.10663
▁vɔ	-8.10828
▁amewo	-8.11703
▁ade	-8.12018
▁nyaaŋa	-8.12707
▁amesi	-8.13218
▁nie	-8.13516
▁suhu	-8.13762
▁duu	-8.13898
▁shee	-8.13979
▁zali	-8.14039
▁Yakob	-8.14134
r	-8.14332
▁kwan	-8.15251
hunuu	-8.15345
▁Nanso	-8.15809
▁naa	-8.15927
ka	-8.16303
▁Ɔ	-8.16409
▁onipa	-8.16499
▁Ma	-8.16627
fia	-8.16892
▁esime	-8.17228
▁kuro	-8.17622
▁Duuma	-8.17914
▁kaa	-8.18461
▁elabe	-8.19758
▁tuhi	-8.20747
▁man	-8.21041
▁nkwa	-8.21242
▁mmienu	-8.21356
▁Ɛnn	-8.21553
▁obiara	-8.22491
me	-8.22543
▁jɛmbu	-8.22727
▁Dauda	-8.23349
▁David	-8.23985
▁Israelfoɔ	-8.24035
▁hyɛ	-8.24037
▁yɛtɔɣa	-8.24101
▁boŋ	-8.2412
▁teƒe	-8.24237
▁Ti	-8.24267
▁yuli	-8.24883
nu	-8.24983
▁mmara	-8.25244
▁pii	-8.25716
▁Dama	-8.25748
▁Elabena	-8.26198
▁Mi	-8.26433
▁Dinzuɣu	-8.26449
▁ŋutsu	-8.27045
▁ŋusẽ	-8.27085
▁vɔ̃	-8.27355
▁ɔno	-8.2738
▁buɣim	-8.28013
ti	-8.28487
▁esia	-8.28524
▁tooni	-8.28996
▁hwɛ	-8.29064
▁Yei	-8.29629
▁paai	-8.29692
hi	-8.29724
▁Afei	-8.29811
ra	-8.30278
▁wɔa	-8.30493
▁lu	-8.30535
nye	-8.30828
ma	-8.31056
▁nuu	-8.31563
▁kum	-8.31645
▁go	-8.31664
▁Azɔ	-8.32097
▁pahi	-8.32269
▁bo	-8.32312
▁Mo	-8.33039
▁dometɔ	-8.33086
▁amesiwo	-8.3314
▁nimaani	-8.33164
deɛ	-8.33362
mi	-8.33444
▁lo	-8.33526
▁daŋ	-8.33815
▁dua	-8.33851
ba	-8.3389
nya	-8.33971
si	-8.34013
▁Ɖe	-8.34569
▁aʋa	-8.34629
▁simdi	-8.35124
▁obi	-8.35388
ta	-8.35681
▁Misraim	-8.36068
▁megbe	-8.36393
▁hafi	-8.36469
eɛ	-8.36725
zaŋ	-8.36742
▁Egipte	-8.37734
▁luɣ	-8.37963
▁wotsɔ	-8.38426
▁zaɣ	-8.38548
▁yiɣisi	-8.38645
▁mmarima	-8.38762
▁ɖeke	-8.38902
▁nsuo	-8.39057
▁ga	-8.39089
da	-8.39282
nim	-8.39563
sa	-8.3995
▁anɔ	-8.40034
▁bɔri	-8.40231
▁pun	-8.40983
▁dunia	-8.41096
▁fu	-8.41586
▁gake	-8.4163
▁Wɔ	-8.41889
▁paɣ	-8.42025
yi	-8.42273
▁wode	-8.43388
▁kɛseɛ	-8.43674
▁wuhi	-8.4374
▁ɛberɛ	-8.44075
▁alafa	-8.44265
▁gã	-8.44567
▁ava	-8.44768
▁nna	-8.44861
▁wa	-8.44958
viwo	-8.4549
▁wɔyɛ	-8.46145
l	-8.46148
▁ŋkume	-8.46158
▁tiri	-8.46212
▁vɛ	-8.46364
▁Musa	-8.468
▁tiŋ	-8.46968
▁ɔka	-8.4701
▁kpakple	-8.47019
di	-8.47294
▁Eya	-8.4732
▁dii	-8.47457
▁lã	-8.4768
▁kpi	-8.47897
ne	-8.48071
▁akyi	-8.48721
▁wole	-8.48738
▁ɛnyɛ	-8.48849
▁ʋu	-8.49026
ɔ	-8.49028
▁enye	-8.49706
▁aseɛ	-8.49769
▁wògblɔ	-8.49802
▁baŋ	-8.50014
▁tim	-8.50485
▁ntam	-8.50495
ƒe	-8.50543
▁Yosef	-8.50811
▁kana	-8.50848
▁den	-8.51023
▁Izraɛl	-8.51084
▁nsam	-8.51371
▁aka	-8.51534
▁sa	-8.51601
▁ŋgɔ	-8.52249
te	-8.52303
▁dziƒo	-8.52813
▁Israelviwo	-8.52895
▁teɛ	-8.52973
▁Hwɛ	-8.53034
ku	-8.53073
▁berɛ	-8.53132
▁ʒi	-8.53294
▁zu	-8.53332
▁Abraham	-8.53422
▁gari	-8.53537
▁soli	-8.5361
▁Saa	-8.53833
▁Kpɔ	-8.5389
▁Nye	-8.54024
bɔŋɔ	-8.55424
▁E	-8.55455
▁sɔŋ	-8.55482
▁bɛyɛ	-8.55653
▁nka	-8.55905
▁dzidzɔ	-8.55923
▁pɛ	-8.56037
▁bihi	-8.56654
▁ɛtɔ	-8.56965
▁agu	-8.58202
▁azɔ	-8.58527
▁kronkron	-8.58658
▁nko	-8.59562
▁Fia	-8.59572
▁Deɛ	-8.59879
▁zaligu	-8.60081
▁kasi	-8.60094
▁hene	-8.60212
▁Salomo	-8.60263
▁kom	-8.603
▁akoma	-8.60307
▁fi	-8.60711
▁míaƒ	-8.60892
▁Wɔn	-8.61558
▁etɔ̃	-8.61822
▁mmom	-8.62036
▁gblɔe	-8.62175
▁aduane	-8.62413
▁foforɔ	-8.62458
nyigba	-8.62535
▁tu	-8.62619
▁biɛɣu	-8.62697
▁alesi	-8.62808
▁asafo	-8.62988
▁biɛhigu	-8.63308
▁he	-8.63313
▁ɔsoro	-8.63824
▁faa	-8.6385
▁sanna	-8.63929
▁nyui	-8.64462
▁wònye	-8.65059
▁seɛ	-8.65368
▁dɔla	-8.6539
▁yie	-8.65649
kɔ	-8.65664
▁ɔwɔ	-8.65686
▁tsitre	-8.65808
▁Esia	-8.65997
▁bɔhi	-8.66091
nom	-8.66508
▁ʒe	-8.66536
▁yini	-8.66688
▁animuonyam	-8.66732
▁nenema	-8.66932
▁eɖokui	-8.6707
▁Ŋun	-8.67207
▁Jɛrusalɛm	-8.67665
▁nyɔnu	-8.67781
▁nkuro	-8.67989
▁bebree	-8.68236
▁kpalim	-8.68318
▁maligu	-8.68375
▁Farao	-8.68416
▁yei	-8.68662
▁ŋunye	-8.68744
▁ɛda	-8.6881
tɔwo	-8.68885
▁awu	-8.69036
▁wowɔ	-8.69173
▁nir	-8.69578
▁bidibisi	-8.69683
▁yihi	-8.69884
▁ele	-8.70619
▁wòle	-8.70642
▁ɔbaa	-8.70862
▁noli	-8.70911
▁Saulo	-8.7101
▁niŋdi	-8.71119
▁wain	-8.71307
▁biɛri	-8.7157
▁adwuma	-8.7167
▁afei	-8.72311
▁bla	-8.72788
▁ɛsɛ	-8.73199
▁kpli	-8.73209
▁anka	-8.73348
▁gye	-8.7357
▁ɛho	-8.73651
▁amanaman	-8.73706
maa	-8.73919
▁mpo	-8.73995
▁Ba	-8.7401
▁zi	-8.7403
▁ɣe	-8.74412
▁woawo	-8.7458
▁ana	-8.74615
▁suhuri	-8.74624
hyɛɛ	-8.74784
▁nkɔ	-8.74791
▁bu	-8.74846
▁dzɔdzɔe	-8.754
▁nunɔla	-8.7543
▁Yosua	-8.75532
▁ŋmani	-8.75838
▁tiŋgban	-8.75855
t	-8.76079
▁nanim	-8.76426
▁zuɣusaa	-8.76443
▁daba	-8.76573
bɔɔ	-8.76812
gbɔ	-8.76825
ha	-8.76867
▁deei	-8.76891
▁ami	-8.76906
▁zo	-8.77097
▁nkurɔfoɔ	-8.77097
▁ahyɛ	-8.77306
▁ɔbarima	-8.77402
▁tumi	-8.77432
▁nyo	-8.77447
▁afɔrebukyia	-8.77503
▁mfiri	-8.77625
s	-8.77655
▁Masia	-8.77685
▁jilima	-8.77789
▁Saul	-8.77856
▁ɣi	-8.78131
▁kɔkɔe	-8.78159
▁babarima	-8.78524
gbe	-8.78586
▁mogya	-8.78807
▁tin	-8.79032
▁kasa	-8.79152
tu	-8.79165
▁laɣim	-8.79251
▁sɔ	-8.79299
▁Paulo	-8.79592
▁yɛda	-8.79925
▁ogya	-8.7999
▁geɖe	-8.80155
▁abɔ	-8.80198
▁dukɔwo	-8.8021
▁akpɔ	-8.80664
▁nokorɛ	-8.80761
▁sene	-8.80786
▁bua	-8.808
▁Wò	-8.80803
▁sii	-8.81969
▁yɔ	-8.82191
▁tumdi	-8.82266
▁asɔfoɔ	-8.82274
▁alahichi	-8.82464
▁Ao	-8.8268
▁bepɔ	-8.83143
▁akpa	-8.83268
▁shɛl	-8.83382
▁ɔne	-8.83547
▁ɣli	-8.83832
▁gu	-8.84125
▁ɔfiri	-8.84161
nɔ	-8.84388
▁Ijipti	-8.84669
▁dali	-8.84746
▁kɔsi	-8.84906
▁booni	-8.85213
▁akyerɛ	-8.85312
▁nyuie	-8.85419
▁lae	-8.85469
▁yino	-8.85762
▁taali	-8.86016
▁awɔ	-8.86036
▁gɔ̃	-8.86821
▁woɔ	-8.87137
▁nson	-8.87412
▁Elabe	-8.87502
▁zaŋdi	-8.87603
▁nyin	-8.87797
▁ɖu	-8.87897
▁gbɔgbɔ	-8.88008
▁ŋuwò	-8.88197
▁mfa	-8.88251
▁fɔ	-8.88361
▁yome	-8.88418
▁Juda	-8.88418
▁mfeɛ	-8.88479
miya	-8.88498
▁Petro	-8.88795
▁mmoa	-8.88912
fa	-8.89137
▁tɔbbihi	-8.89244
▁geɖewo	-8.89417
▁aɖewo	-8.89425
▁kra	-8.89739
g	-8.89861
▁zani	-8.89955
▁yoli	-8.89957
▁mani	-8.90282
▁agya	-8.903
d	-8.90449
▁ɖokui	-8.90958
▁wura	-8.91064
▁amea	-8.9159
▁yɛligu	-8.91833
▁zaɣisi	-8.92035
▁ata	-8.92553
▁shɛlikam	-8.92629
▁suhupiɛlli	-8.92866
▁dabiɛm	-8.92866
▁kpa	-8.92952
▁ate	-8.93165
lee	-8.93277
be	-8.93401
▁mmiɛnsa	-8.93451
▁Aron	-8.93802
ŋ	-8.94049
▁ŋmaligi	-8.9423
▁nyateƒe	-8.94358
▁nusi	-8.9442
▁atɔ̃	-8.94808
▁agbo	-8.9487
ɣi	-8.94952
▁miawo	-8.95012
▁gome	-8.95212
▁bɛba	-8.95487
▁akyiri	-8.95538
▁mpanimfoɔ	-8.9556
▁yɛri	-8.957
▁Aaron	-8.95912
▁kuku	-8.95933
▁Samaria	-8.9611
▁nkoa	-8.96434
vi	-8.96475
▁Ɔhene	-8.96648
▁nua	-8.96974
▁honhom	-8.96989
▁yuun	-8.97012
▁Ɛberɛ	-8.97111
▁ɛno	-8.97462
▁nne	-8.97624
wu	-8.97839
▁trɔ	-8.9801
▁tiŋgbani	-8.98191
▁gbedoxɔ	-8.9832
▁afɔ	-8.98464
▁atifi	-8.99007
▁ɔkaa	-8.99095
▁woatsɔ	-8.99179
▁ɔma	-8.9927
▁egbɔ	-8.99293
▁bɔɔ	-8.99354
▁e	-8.99368
▁lé	-8.99384
▁Yudafoɔ	-8.9955
▁mewɔ	-8.9989
▁zã	-9.00031
su	-9.00117
▁nan	-9.00168
duruu	-9.00244
▁mmammarima	-9.00541
▁aso	-9.00692
▁pumpɔŋɔ	-9.00788
▁wɔka	-9.00861
b	-9.01109
yɛ	-9.01145
▁wòwɔ	-9.01175
▁anye	-9.01344
▁ati	-9.01362
▁tee	-9.01416
▁vɔ̃ɖi	-9.01508
▁miele	-9.01549
▁kuli	-9.01709
▁vaseɖe	-9.02045
▁Yudatɔwo	-9.02046
▁afa	-9.02324
▁tenenee	-9.02372
▁re	-9.0239
▁vevie	-9.02397
dɔ	-9.02501
▁nuvɔ̃	-9.02504
▁mekpɔ	-9.0251
▁Benyamin	-9.03009
▁Yordan	-9.03063
le	-9.03119
▁yɛlimaŋli	-9.03319
▁dodoɔ	-9.03325
chɛ	-9.03373
▁ɣeyiɣi	-9.03412
▁ɔdi	-9.03443
▁garigi	-9.03555
▁yɛliya	-9.03578
▁dɔmedzoe	-9.037
▁yili	-9.03815
▁ɛbɛyɛ	-9.03846
▁dzɔ	-9.03903
▁yiko	-9.03934
▁taba	-9.03949
▁kpamba	-9.03974
▁Moab	-9.04154
lawo	-9.04183
▁vɔsamlekpui	-9.04326
▁tuun	-9.04333
▁afe	-9.04345
▁nuɖuɖu	-9.04523
▁boli	-9.0498
▁dɔɣi	-9.05166
ho	-9.05289
▁nyɛvili	-9.05385
▁nnoɔma	-9.05414
bɔ	-9.05504
▁yeinom	-9.05546
ani	-9.05821
▁gbegbe	-9.05913
▁asomdwoeɛ	-9.05915
▁sesẽ	-9.05932
▁salima	-9.06049
▁sahakam	-9.06249
▁wòtsɔ	-9.06381
▁dwetɛ	-9.06442
▁nnwan	-9.06843
▁Ɛfiri	-9.07243
▁nuanom	-9.073
▁wonye	-9.07378
▁alikauli	-9.0752
▁kani	-9.07548
▁aɖo	-9.07608
▁maligumaaniba	-9.07639
▁yina	-9.07873
▁gbaai	-9.07955
▁Ɛno	-9.08192
▁gɔme	-9.08199
▁ɔse	-9.08428
wa	-9.08506
▁yaha	-9.08708
▁ntomadan	-9.08989
▁Manase	-9.09031
pa	-9.09168
▁gbɔna	-9.09787
▁fukumsi	-9.09939
▁yim	-9.10178
▁tiligi	-9.10261
▁efie	-9.10394
no	-9.10902
▁ayopɔin	-9.1104
▁ɛkwan	-9.11044
▁wɔfiri	-9.11078
▁biribiara	-9.1118
▁emu	-9.11467
▁ɛdi	-9.11478
▁mate	-9.11646
▁mana	-9.11762
▁Ɛ	-9.11851
▁wɔm	-9.11946
▁Babel	-9.12014
▁hena	-9.12017
▁mmra	-9.12039
▁doo	-9.12152
▁Samuel	-9.12154
▁mɛ	-9.12398
▁yuri	-9.12461
▁Gbɔgbɔ	-9.12575
▁ngo	-9.12752
▁dɔm	-9.1284
▁ɛserɛ	-9.12856
▁aman	-9.13062
▁zɔri	-9.13072
▁alibarika	-9.13138
▁nini	-9.13167
▁Yoab	-9.13281
▁mahã	-9.13421
▁shiri	-9.13446
▁naneke	-9.1345
▁nwoma	-9.13569
▁dea	-9.13748
niŋ	-9.13761
▁koe	-9.14014
yɛɛ	-9.14175
▁via	-9.14315
▁gili	-9.14458
▁kari	-9.14518
▁bɛma	-9.14633
▁bɔh	-9.14775
▁ameawo	-9.14831
▁soro	-9.1487
▁baeɛ	-9.14944
▁nuwo	-9.14989
▁beni	-9.14998
▁mama	-9.15111
▁agbadɔ	-9.15124
▁egbe	-9.15178
▁oa	-9.15255
▁sunsuuni	-9.15281
▁ɔsɔfoɔ	-9.15291
kpe	-9.15294
ga	-9.15415
▁Baal	-9.15526
▁agyanom	-9.15641
▁dol	-9.15849
▁Sool	-9.16006
▁yere	-9.16034
▁futɔwo	-9.16252
▁see	-9.16297
▁dabisili	-9.16308
▁woɖo	-9.1665
se	-9.16958
▁nnua	-9.17235
bo	-9.17266
▁anadwo	-9.17324
▁aƒetɔ	-9.17579
wɔ	-9.17662
▁lab	-9.17849
▁ahennie	-9.1787
kam	-9.17902
▁kplɔ	-9.1797
▁mese	-9.18023
▁Nin	-9.18135
▁mawu	-9.18334
▁dziku	-9.1842
▁mmaa	-9.18686
▁bisa	-9.18709
▁yaannim	-9.18808
▁dada	-9.19355
▁eteƒe	-9.19415
▁yɛtɔɣ	-9.19423
▁wɔmfa	-9.19668
▁ahemfo	-9.1971
▁sane	-9.19728
▁ansa	-9.19786
nɛ	-9.19819
▁akyire	-9.19858
▁Isak	-9.19862
▁evelia	-9.20182
▁ado	-9.20273
vɔ	-9.2032
▁bubuwo	-9.20395
▁atam	-9.20461
▁Absalom	-9.20467
▁Yaakubu	-9.2062
▁To	-9.20752
▁binshɛɣukam	-9.20773
gu	-9.20919
▁atɛn	-9.20929
▁ɔte	-9.20972
▁wogblɔ	-9.21064
zi	-9.21185
▁ŋutilã	-9.2125
▁nunɔlawo	-9.21385
▁asaɖa	-9.21389
▁nɔewo	-9.21389
▁chani	-9.21409
▁yɛm	-9.21519
▁atsɔ	-9.21547
▁tre	-9.21587
▁nyɔri	-9.21698
▁kpɔm	-9.2183
▁Lewifoɔ	-9.2188
▁aɖu	-9.219
sɔ	-9.21918
▁pala	-9.21927
▁nanɔ	-9.22027
re	-9.22584
▁Adɛn	-9.2262
▁nà	-9.2264
▁too	-9.22655
▁Woa	-9.22969
nkam	-9.23012
▁baanu	-9.23189
▁guu	-9.23419
▁dzidzimeviwo	-9.23703
▁wodo	-9.23724
▁didi	-9.23897
▁Bet	-9.23956
▁woɖe	-9.24042
de	-9.24142
▁maligumaana	-9.24186
▁srɔ̃	-9.24434
▁tab	-9.24663
▁ahodoɔ	-9.24691
▁apam	-9.2487
▁nunya	-9.2491
▁ɔhyeɛ	-9.24988
▁wòna	-9.25322
▁Da	-9.25375
▁yaa	-9.25529
▁tibili	-9.25626
▁hwan	-9.25706
▁abusuakuo	-9.25801
anim	-9.25804
h	-9.2584
▁bɛdi	-9.25985
▁tame	-9.26129
▁Emegbe	-9.26262
▁teeku	-9.26446
▁ʋɔnu	-9.26488
▁po	-9.26507
▁adre	-9.26542
▁yin	-9.26627
k	-9.26657
▁loo	-9.26666
mu	-9.26707
▁nyawo	-9.26829
▁metsɔ	-9.27025
▁dabili	-9.27078
▁anaasɛ	-9.27246
too	-9.27352
▁ameha	-9.27531
bi	-9.276
▁nyansa	-9.27729
▁tegbee	-9.28049
▁aduonu	-9.28065
▁dimnim	-9.28133
▁frɛ	-9.28178
▁bindirigu	-9.28212
▁Onipa	-9.28212
▁kpiɔŋ	-9.28378
▁ʒini	-9.28421
do	-9.28428
▁mal	-9.28575
tumi	-9.28699
▁meɖo	-9.28713
ɖi	-9.28771
▁lihi	-9.28803
▁Yɛhudianim	-9.28945
▁daɣiri	-9.2907
▁aha	-9.29118
▁pali	-9.29194
yɛli	-9.29297
him	-9.29319
▁tete	-9.29422
▁tam	-9.29538
▁momfa	-9.29703
▁yea	-9.29845
▁nyaandoliba	-9.2987
▁zuŋɔ	-9.29881
▁kɔŋko	-9.3021
▁abolo	-9.3033
▁mɔɣu	-9.30402
▁kae	-9.30966
▁viŋutsuwo	-9.31044
▁Ekema	-9.31058
▁afima	-9.31184
▁Efraim	-9.31215
▁klosalo	-9.31854
▁wɔte	-9.31966
▁Bɔ	-9.32225
▁tena	-9.32228
▁wɔre	-9.32717
▁ɖoɖo	-9.32736
▁gyidie	-9.32751
▁nnɛ	-9.32804
▁Yonatan	-9.32924
▁afia	-9.3309
▁ɛpo	-9.33099
▁Gake	-9.331
▁woawɔ	-9.33101
▁Filistifoɔ	-9.33278
hene	-9.33311
▁sokam	-9.33354
▁diri	-9.33609
ge	-9.33723
▁Fa	-9.33741
▁ntɛm	-9.33964
▁siaa	-9.34069
▁gbahi	-9.34723
▁saɣim	-9.34754
▁yɛra	-9.34876
▁Asiria	-9.3489
▁nɛma	-9.34898
▁ŋutikɔkɔe	-9.35021
ko	-9.35082
▁tia	-9.35112
▁amegã	-9.35182
▁bene	-9.35764
▁Chɛ	-9.35788
▁mabihi	-9.35789
▁ŋ	-9.35865
▁wòɖe	-9.35899
▁tɔɣisi	-9.35925
▁ɛnneɛ	-9.35931
▁tariga	-9.36075
▁honam	-9.36111
▁agbalẽ	-9.3614
chaŋ	-9.3623
▁paɣiba	-9.36272
▁gbɔnye	-9.36504
▁saria	-9.36606
▁mode	-9.36697
▁biŋkɔbiri	-9.36966
▁yila	-9.37042
▁nyu	-9.37121
▁Gilead	-9.37165
▁dɔlawo	-9.37188
▁gbãtɔ	-9.37206
▁mita	-9.37207
▁mɛma	-9.37366
▁naai	-9.37422
▁miri	-9.37434
▁hwee	-9.37434
kpɔ	-9.3756
▁tahi	-9.37568
mali	-9.37586
▁werɛ	-9.37692
▁maani	-9.37796
▁So	-9.37833
▁ato	-9.37962
▁wɔdi	-9.38066
▁mpem	-9.38198
▁Aduna	-9.38229
▁tihi	-9.38237
▁nusrɔ̃lawo	-9.38274
▁binshɛli	-9.38433
▁wula	-9.38466
▁pah	-9.38511
▁wòdo	-9.38738
▁wui	-9.38873
▁kɔsii	-9.38961
▁niŋgbuŋ	-9.38976
xɔ	-9.3916
▁lɔlɔ̃	-9.39234
▁Ele	-9.39262
▁viŋutsu	-9.39404
▁viɛla	-9.39504
▁nyini	-9.3954
▁bimbini	-9.3959
▁nkaeɛ	-9.40143
▁galisi	-9.40236
▁Yɛ	-9.40412
▁amegbetɔ	-9.40424
▁hunu	-9.40462
nima	-9.40498
▁mmepɔ	-9.40814
▁dan	-9.40825
du	-9.40846
▁niŋbu	-9.40883
▁ŋutifafa	-9.41167
▁ɔre	-9.41258
▁atia	-9.4129
▁Honhom	-9.41366
▁aboɔ	-9.41399
▁baabi	-9.41404
▁nkyerɛ	-9.41573
▁yewo	-9.41824
▁Filistitɔwo	-9.41963
▁nè	-9.42093
▁aʋakɔ	-9.42154
▁shɛba	-9.42194
▁nagya	-9.42328
▁kplii	-9.42352
▁Ɛnyɛ	-9.42368
▁yuŋ	-9.42506
▁enu	-9.42581
▁daalahichi	-9.42687
hyira	-9.42794
hin	-9.42895
▁adaka	-9.42903
▁menya	-9.42922
▁tabili	-9.42984
▁Eyata	-9.43127
▁kalinli	-9.43134
▁susu	-9.43143
▁wuhiri	-9.4319
▁Eƒ	-9.43441
▁amenuveve	-9.43449
ke	-9.43858
taa	-9.43918
▁viɛnyɛliŋga	-9.44025
▁keke	-9.44033
▁ewo	-9.44091
▁anya	-9.44139
▁mavɔ	-9.44191
▁woŋlɔ	-9.44205
▁Babilɔn	-9.44388
▁yurilim	-9.44418
▁woma	-9.44541
hu	-9.44557
▁apono	-9.44682
▁mie	-9.44749
▁Dan	-9.44752
▁mpaeɛ	-9.448
▁kpuɣi	-9.44873
▁kpam	-9.44898
▁koraa	-9.44903
▁meli	-9.44922
▁wɔfrɛ	-9.45222
▁nyaŋ	-9.45224
▁anyame	-9.45492
▁ɖem	-9.45612
dzi	-9.45717
▁tɔbu	-9.45788
woo	-9.45835
ƒo	-9.4596
▁binshɛŋa	-9.45969
agya	-9.46148
▁ɔhyɛ	-9.46341
▁ɛhɔ	-9.46368
▁panin	-9.46376
▁nyi	-9.46452
▁asa	-9.46467
▁nifa	-9.46603
▁gyina	-9.46633
▁Agya	-9.46862
▁wɔbɛ	-9.46918
▁matsɔ	-9.47143
▁saɣi	-9.47276
▁neei	-9.47294
▁tɔwo	-9.47324
▁Hwan	-9.47552
▁bɛka	-9.47586
▁ɛso	-9.47635
▁woo	-9.47676
▁ŋutsuwo	-9.47762
▁anzinfa	-9.47849
▁ɛpono	-9.47971
▁godoo	-9.47975
▁ɖeɖe	-9.48337
▁wòanye	-9.48359
▁wòɖo	-9.48406
▁atso	-9.48483
bala	-9.48515
▁mmammaa	-9.48756
▁hu	-9.48764
▁nneɛma	-9.48789
▁avɔ	-9.48976
▁nyee	-9.49136
▁adiyifoɔ	-9.49167
▁nèle	-9.49205
▁adwene	-9.49261
▁ɣleti	-9.49333
▁abusua	-9.49334
▁Mele	-9.49429
▁megblɔ	-9.49439
▁ɛba	-9.49536
▁gbã	-9.49601
▁zoya	-9.49657
▁abu	-9.49701
▁amegãwo	-9.49726
▁kura	-9.49762
ɖo	-9.49896
▁sesĩe	-9.50178
▁Esau	-9.5018
▁ɔbɛ	-9.50186
▁dim	-9.50267
▁Mon	-9.50273
ag	-9.5034
▁fofoa	-9.50349
▁adze	-9.50534
▁ɣedzeƒe	-9.50543
▁fiaɖuƒe	-9.50648
▁wurim	-9.50651
▁reba	-9.50832
▁tɔɣisiri	-9.50896
▁wɔnni	-9.50945
▁Sulemaana	-9.51
▁nuhi	-9.51006
▁xɔse	-9.51013
▁ntadeɛ	-9.51014
▁wɔne	-9.5125
▁pia	-9.51553
▁nɔƒe	-9.516
▁egblɔ	-9.51688
▁wova	-9.51726
▁nɔvia	-9.51738
▁dindina	-9.5183
▁gbini	-9.52152
▁bɛsi	-9.52179
▁Egblɔ	-9.52255
▁tiŋgbɔn	-9.52323
▁è	-9.52371
sɛm	-9.52455
▁paɣa	-9.52635
▁anigyeɛ	-9.52771
▁Gbe	-9.52861
▁Edom	-9.52864
▁dɔni	-9.52872
▁meɖe	-9.52928
▁babaa	-9.52934
▁biribi	-9.5296
▁labi	-9.5302
▁Hal	-9.53052
▁korɔ	-9.53066
▁Dimbɔŋɔ	-9.53165
▁Ɛyɛ	-9.5325
▁ahoɔden	-9.53273
▁ɔha	-9.53335
▁nsraban	-9.53338
▁xoxo	-9.53457
▁Pa	-9.53577
▁ʒim	-9.53624
▁Shia	-9.53664
▁meka	-9.53691
▁Babilonia	-9.53855
▁Wɔde	-9.53961
▁towo	-9.53964
anyi	-9.54003
▁gbeƒã	-9.54075
zɔ	-9.54099
▁xlã	-9.54143
▁alizanda	-9.54145
▁nɔa	-9.542
fi	-9.54208
▁dom	-9.54334
▁Yeremia	-9.54358
▁ahyia	-9.54383
▁yuma	-9.54434
▁agyapadeɛ	-9.54631
▁yo	-9.54702
▁adanseɛ	-9.54796
▁agble	-9.5481
▁nani	-9.54824
▁nkrantɛ	-9.55001
▁nudirigu	-9.55001
▁dzesi	-9.5504
▁ɛne	-9.55089
▁agba	-9.55134
▁gli	-9.55159
▁Nya	-9.55212
▁ada	-9.55383
▁avi	-9.55463
▁nnum	-9.55524
▁amma	-9.56019
▁ŋm	-9.56074
▁Ibrahimma	-9.56081
▁duwo	-9.56084
▁gyee	-9.56266
▁kpo	-9.56273
▁mmusua	-9.56302
▁asɔredan	-9.5631
▁Kasi	-9.56434
▁Mɛ	-9.56464
▁wowu	-9.56552
▁eyae	-9.56635
▁Yisifu	-9.56954
▁suŋ	-9.57016
▁ve	-9.57047
▁naba	-9.57063
▁vɔ̃wo	-9.57107
▁nublanui	-9.57171
▁afã	-9.57172
▁aboa	-9.57194
▁mayɛ	-9.57228
▁ntoma	-9.57235
▁Asa	-9.57441
▁anantwie	-9.57485
▁wiase	-9.57619
tim	-9.57917
▁wanim	-9.58086
▁ƒome	-9.58272
x	-9.58338
▁vɔ̃ɖiwo	-9.5834
▁asefoɔ	-9.58366
▁moyɛ	-9.58674
▁Elisa	-9.58711
▁wome	-9.58831
▁apueeɛ	-9.58946
▁zaani	-9.59034
▁Yinim	-9.59306
▁Mɔɣili	-9.59393
▁tenabea	-9.59398
▁etsɔ	-9.59631
▁sab	-9.59639
▁nim	-9.59673
dua	-9.59816
▁ʒiri	-9.59937
▁yiŋa	-9.59954
ƒu	-9.60009
▁mete	-9.60265
▁pɔri	-9.6031
▁meyɛ	-9.60342
▁dari	-9.60424
▁Kanaan	-9.60449
▁Ɛdeɛn	-9.60521
▁Man	-9.60545
▁atwa	-9.60591
▁tiŋa	-9.60745
mmɔ	-9.60773
▁hyia	-9.60899
nsi	-9.61022
▁eveawo	-9.61035
hyɛ	-9.61088
▁zim	-9.61344
▁mawɔ	-9.6135
▁nɔvi	-9.61427
▁wòva	-9.61445
▁tsã	-9.61609
▁gbibi	-9.61713
▁dini	-9.61816
▁suhudoo	-9.61896
▁Vi	-9.61954
▁Adaka	-9.62129
▁gbɔgblɔm	-9.62163
▁nina	-9.6233
▁ŋukpe	-9.62365
▁yeye	-9.62432
▁woyi	-9.62478
▁buɣa	-9.62496
▁xexea	-9.62565
▁woaɖe	-9.62589
▁Nyama	-9.62686
▁wòe	-9.62707
▁sɔɣi	-9.6271
▁nyari	-9.62751
▁ɔmfa	-9.6279
▁awoɔ	-9.62838
zu	-9.62846
▁hann	-9.6305
▁mene	-9.6305
▁maɖe	-9.6307
▁alea	-9.63211
▁tuumbiɛri	-9.63253
▁ŋdi	-9.63338
▁vlo	-9.6338
▁ɛte	-9.63391
▁Kɔ	-9.6341
▁srɔ̃a	-9.63434
▁owuo	-9.63532
▁Lala	-9.63561
▁akɔsi	-9.63625
▁Se	-9.6374
ro	-9.63795
▁wokpɔ	-9.63964
▁gblẽ	-9.63985
▁tinsi	-9.64121
▁abufuo	-9.6451
▁míe	-9.64582
▁Mede	-9.64597
▁ɔkɔ	-9.64611
▁momma	-9.64625
▁Miri	-9.64721
▁tɔsisi	-9.64865
▁Mani	-9.64908
▁wahala	-9.6493
▁nnwuma	-9.65169
▁aku	-9.65306
▁ɖɔ	-9.65365
▁nte	-9.65394
▁gblɔm	-9.65556
▁aduasa	-9.65645
▁Amesi	-9.65821
▁wani	-9.65835
▁nnan	-9.6585
▁wònɔ	-9.66136
▁balibu	-9.66157
▁Bia	-9.66299
▁agblɔ	-9.66317
▁Firawuna	-9.66364
▁Tɔbbi	-9.66462
▁ɔdɔ	-9.66532
▁wuntaŋ	-9.66605
▁suɣili	-9.66648
▁Jɔ	-9.66667
ɖu	-9.66705
▁dzinye	-9.66726
▁sabi	-9.66845
▁viviti	-9.66863
▁viɛlli	-9.66867
▁jɛm	-9.66921
▁dwom	-9.67121
va	-9.67172
▁kan	-9.67208
▁sɔre	-9.67374
▁fe	-9.67385
▁Izraɛlnima	-9.67498
▁je	-9.67575
▁ninni	-9.67643
▁bipuɣiŋga	-9.67818
▁Judanim	-9.67843
▁luʋɔ	-9.67899
▁Ɔno	-9.67951
▁fofowo	-9.67957
▁Nso	-9.68115
▁eŋuti	-9.68161
▁nsase	-9.68203
safa	-9.6823
▁Obiara	-9.68309
▁wɔkɔ	-9.68341
▁mekɔ	-9.68421
▁dzoe	-9.6846
fɔ	-9.68481
dan	-9.68489
so	-9.68502
▁ɖokuiwò	-9.68561
▁dzɔdzɔenyenye	-9.68561
▁bosome	-9.68619
▁akɛseɛ	-9.68698
▁kpee	-9.68949
▁hyeɛ	-9.6895
gba	-9.69303
▁dinzuɣu	-9.69606
▁Gad	-9.69629
▁atamfoɔ	-9.69706
▁Eɖo	-9.69813
▁Wotsɔ	-9.69816
▁ɔnni	-9.69845
▁adom	-9.69925
▁Nyee	-9.69963
▁adrẽ	-9.7001
▁atsiaƒu	-9.70041
▁aduonum	-9.70093
▁Pool	-9.70291
▁wɔatwerɛ	-9.70333
▁titali	-9.70458
▁mfirinhyia	-9.70551
▁Lewi	-9.70688
tso	-9.707
tam	-9.70765
▁jɛmdi	-9.70785
mfiri	-9.70825
▁ŋkuwo	-9.70899
▁woyɛ	-9.70958
▁Zion	-9.71046
▁kɔŋ	-9.71111
▁fũu	-9.71309
▁wòkpɔ	-9.71351
▁ɔdii	-9.71367
▁suhi	-9.71426
he	-9.71554
▁kronkronbea	-9.71563
▁gbɔwò	-9.71598
▁ɛkɔm	-9.71599
ɖe	-9.71695
▁menɔ	-9.71733
▁dimbɔŋɔ	-9.71799
▁yinim	-9.71807
▁bin	-9.71982
▁nubabla	-9.72058
▁domenyinu	-9.72058
▁Sion	-9.72061
▁ɛnam	-9.72113
▁chɛliy	-9.72359
▁fiazikpui	-9.72576
▁bobe	-9.72599
▁malaika	-9.72795
▁Tso	-9.7283
▁nsɛnkyerɛnneɛ	-9.72835
▁manɔ	-9.73276
▁Galilea	-9.7334
▁nenye	-9.73373
▁ŋɔdzi	-9.73394
▁ŋugbe	-9.73532
▁oo	-9.73758
▁ƒom	-9.7378
▁puu	-9.73811
▁ɔko	-9.73879
▁amumuyɛ	-9.74064
▁negbe	-9.74099
▁goe	-9.74141
dze	-9.74293
▁mframa	-9.7438
▁Lɛvinim	-9.74412
▁bahigu	-9.74472
▁dzudzɔ	-9.74539
▁fɛ	-9.74575
▁vinyɔnu	-9.74738
▁ɔtɔ	-9.74853
▁Yɛn	-9.75063
▁nto	-9.75134
▁fifia	-9.75146
▁tulaale	-9.75163
▁wonɔ	-9.75353
▁yuya	-9.75468
▁gbegblẽ	-9.75506
▁kane	-9.75508
kum	-9.75589
▁teei	-9.75632
▁kuropɔn	-9.75699
▁míele	-9.75704
▁nanye	-9.75711
▁dzidzime	-9.75795
▁abɔfoɔ	-9.75822
▁wòatsɔ	-9.75957
puhil	-9.75959
ʋu	-9.76039
▁fiawo	-9.7615
▁nkwagyeɛ	-9.76225
▁nimdeɛ	-9.76258
tsi	-9.76475
▁suhuyiɣisili	-9.76486
▁Ɔde	-9.7653
▁mabia	-9.76847
▁tae	-9.76941
▁dzɔgbevɔ̃e	-9.7702
▁axɔ	-9.77135
▁Jɔshua	-9.77288
▁bra	-9.77631
▁ɛnnɛ	-9.77832
▁gbinni	-9.77833
▁yiŋ	-9.77886
▁anahi	-9.77966
▁kilo	-9.78097
▁Yohanes	-9.78112
nam	-9.78157
▁Etsɔ	-9.78194
f	-9.78362
▁ɔfa	-9.78605
▁biɛla	-9.78711
▁alɔ	-9.78881
▁Otumfoɔ	-9.78912
▁Nnipa	-9.78918
▁atu	-9.78968
▁lɔ̃	-9.79246
▁atɔ	-9.79249
we	-9.79309
▁ankasa	-9.79355
▁paɣi	-9.79384
▁Ɛda	-9.79434
▁aƒo	-9.79464
ŋɔ	-9.79515
▁zɔ	-9.79657
▁Ya	-9.79768
▁kekeli	-9.79805
▁wadi	-9.79817
▁papa	-9.79833
▁takɔbi	-9.79886
firi	-9.80035
▁nhyira	-9.80141
▁yadeɛ	-9.80142
▁yɔnko	-9.80272
▁monyɛ	-9.80332
▁ɖaa	-9.80426
▁brɛɛ	-9.80516
▁nava	-9.80563
▁ɛdeɛn	-9.80563
▁Levi	-9.80582
▁xa	-9.80592
▁medze	-9.80593
▁wulim	-9.80594
▁faako	-9.80599
▁doa	-9.80616
▁azu	-9.80728
▁Yohane	-9.80825
▁ntoatoasoɔ	-9.80845
▁zaligunim	-9.80996
▁Ruben	-9.81065
▁Tsɔ	-9.81123
ɖa	-9.81255
▁nkɔm	-9.81292
▁wòde	-9.81303
▁dummienu	-9.81399
▁pinaayi	-9.81399
▁yu	-9.81416
▁dam	-9.81517
▁chi	-9.81576
▁mayi	-9.81657
▁nuzaa	-9.81681
▁mmusuakuo	-9.81687
▁ɛsiane	-9.81704
▁medo	-9.82174
▁hlɔ̃	-9.82239
▁nteaseɛnam	-9.82242
▁Nenema	-9.82281
▁Momma	-9.82359
lɔ̃	-9.82394
▁kɔkɔeƒe	-9.82409
die	-9.82464
▁medi	-9.82567
▁Yehu	-9.82568
ganɔ	-9.82589
▁Afi	-9.82592
▁nnye	-9.82628
▁tɛha	-9.82809
▁wodze	-9.82898
▁kɔbere	-9.831
▁Filistianim	-9.83132
▁ŋutsuvi	-9.83221
ram	-9.83235
▁manim	-9.83279
▁piɛri	-9.83438
lo	-9.83441
▁shɛhira	-9.83629
▁vo	-9.83635
▁fofo	-9.83667
▁vɔvɔ̃	-9.83821
▁akwan	-9.8393
xe	-9.83936
▁Naftali	-9.83948
go	-9.83953
▁dɔbba	-9.83962
▁ɔba	-9.84018
▁mmɔ	-9.84124
▁yomyom	-9.84235
▁Du	-9.84303
▁Mia	-9.84453
rila	-9.84489
▁nasara	-9.84526
▁nèwɔ	-9.84539
▁Pita	-9.84826
▁dibu	-9.84874
▁owia	-9.84915
▁yam	-9.84983
dukɔ	-9.85047
sane	-9.85063
▁akplɔ	-9.85064
▁„	-9.85103
▁agye	-9.85124
▁emegbe	-9.85212
▁nyitsu	-9.85472
▁ɔn	-9.85531
▁mmɔbɔ	-9.85696
▁kɔka	-9.85835
▁omaŋmaŋ	-9.85895
drɔ̃	-9.85915
▁Mina	-9.86103
▁toa	-9.86169
▁lãwo	-9.86331
▁Kronkron	-9.86513
▁zahim	-9.86539
▁Yeroboam	-9.86565
▁Yɛlimaŋli	-9.86565
▁akyirikyiri	-9.86568
▁Ahab	-9.86575
▁dɛn	-9.8659
▁woɖu	-9.86666
▁ngu	-9.86715
▁nsia	-9.86727
▁ɖewo	-9.86782
po	-9.86809
pam	-9.86838
▁ɖoɖowo	-9.86843
▁Ga	-9.86943
▁enumake	-9.87161
▁asiwò	-9.87213
▁ahoni	-9.87247
▁nana	-9.87309
▁dziwò	-9.87372
▁Fofo	-9.87555
▁wotso	-9.8758
▁fiẽ	-9.87642
▁kanna	-9.87685
▁dzime	-9.87702
▁nambɔɣu	-9.8775
tuu	-9.87846
▁sapashin	-9.87887
z	-9.8792
▁kpɛm	-9.87987
▁godo	-9.88041
▁wɔkaa	-9.88373
▁kuhi	-9.88398
▁viawo	-9.88401
▁ɔnam	-9.88429
▁ɖevi	-9.88432
▁anammɔn	-9.88435
▁pono	-9.88436
kpa	-9.88485
▁eyata	-9.88567
▁kyɛfa	-9.88658
▁mɛyɛ	-9.88676
▁afɔrebɔdeɛ	-9.88706
▁wòdze	-9.88781
▁tututu	-9.88805
▁soma	-9.88843
▁tɛhi	-9.88853
▁Menye	-9.88876
▁maŋli	-9.88949
▁nantwie	-9.88985
▁liɣiri	-9.89022
▁kpɛhi	-9.89039
▁darigi	-9.89046
▁anafoɔ	-9.89131
bla	-9.89133
▁nunana	-9.89217
▁mawo	-9.89266
▁sewo	-9.89305
▁anabi	-9.89442
▁Anabi	-9.89464
▁mmerɛ	-9.89502
▁míawo	-9.89508
▁labisi	-9.89538
▁B	-9.89615
▁gbaŋ	-9.89699
▁ninsalinim	-9.89709
pahi	-9.8974
▁Pilato	-9.89858
▁chana	-9.8989
▁Ta	-9.90051
▁W	-9.90069
▁bɔrɔbɔro	-9.90163
▁woanɔ	-9.90176
▁Ŋutsu	-9.90177
▁gbib	-9.90194
▁esiwo	-9.90257
▁bɔbɔ	-9.90441
▁kuɣa	-9.90477
▁hegblɔ	-9.90481
▁ananmu	-9.90484
▁nuvɔ̃ɖi	-9.90519
▁nuku	-9.90525
bia	-9.90588
▁ahe	-9.9065
▁naan	-9.90807
▁awieeɛ	-9.90814
gblẽ	-9.90859
▁tiaa	-9.90885
▁Amon	-9.91006
▁atemmuo	-9.91009
▁amesiame	-9.91103
▁kukuwo	-9.91195
▁bindira	-9.91267
lã	-9.9134
▁natsɔ	-9.91358
▁liri	-9.91388
▁mmapɔmma	-9.91392
▁Abram	-9.91393
▁sikakɔkɔɔ	-9.91702
▁abɔfra	-9.91731
▁aƒu	-9.91802
▁nyagblɔɖila	-9.91874
▁odiyifoɔ	-9.91942
▁keŋkeŋ	-9.92012
▁egblɔm	-9.92233
▁bɛkɔ	-9.92283
▁aboyo	-9.92311
▁ɔbɔfoɔ	-9.92386
▁fo	-9.92504
yɔ	-9.92622
▁akyiwadeɛ	-9.92657
im	-9.92684
▁ɔsoma	-9.92875
▁anɔpa	-9.92998
▁zal	-9.93122
▁à	-9.93197
▁monni	-9.93285
▁wòzu	-9.93307
▁nyɔnuwo	-9.93545
▁wòaɖe	-9.93582
▁bipuɣinsi	-9.93669
▁nn	-9.93877
▁ʒiishee	-9.93915
▁wɔnam	-9.93941
xa	-9.94125
▁twa	-9.94153
subɔ	-9.94199
▁ɛdan	-9.94267
mee	-9.94303
▁kpɔa	-9.94544
▁hele	-9.94576
▁bol	-9.946
▁atsi	-9.94657
▁Alo	-9.94728
ve	-9.94805
▁makpɔ	-9.94841
▁Hesekia	-9.94851
▁mfrafraeɛ	-9.94851
ɔdɛn	-9.94852
▁neesim	-9.94853
siane	-9.94886
▁tahima	-9.94898
▁nyaa	-9.95065
▁adɛn	-9.95172
nyi	-9.95388
▁nira	-9.95451
ŋlɔ	-9.95491
▁kakra	-9.9563
▁woka	-9.957
▁Abner	-9.95816
▁eyome	-9.95816
▁bli	-9.95842
▁nane	-9.95862
▁ahyɛdeɛ	-9.96032
▁kɔkɔ	-9.96127
▁vie	-9.96383
▁maka	-9.96393
▁tuumba	-9.96464
▁egɔme	-9.96466
▁sradeɛ	-9.96474
guu	-9.96576
▁G	-9.9662
▁avu	-9.96643
▁anwummerɛ	-9.9679
▁anuanom	-9.96792
▁gbeɖe	-9.9694
gya	-9.97015
▁ɔseɛ	-9.97104
▁Bɛnjamin	-9.97117
▁nɔviawo	-9.97121
▁yewoa	-9.97316
▁bɛtena	-9.97317
▁sẽ	-9.97325
▁Simon	-9.97447
▁esiawo	-9.97448
▁ɛfa	-9.9754
▁awia	-9.97656
▁omaŋ	-9.97678
▁paanoo	-9.97773
▁enyi	-9.9783
▁kpaŋ	-9.97953
kyerɛ	-9.9797
▁ɔpɛ	-9.97987
fu	-9.9809
▁ɔfasuo	-9.98116
▁wɔayɛ	-9.98128
▁apɔnkɔ	-9.98136
▁asinye	-9.98254
vɔ̃	-9.9826
▁ƒomevi	-9.98291
▁kɔe	-9.98317
▁taɣi	-9.98351
▁anu	-9.98533
▁Si	-9.98584
▁mè	-9.98602
▁miewɔ	-9.99035
▁I	-9.99045
▁Hiob	-9.991
▁Momfa	-9.99101
▁blaetɔ̃	-9.99103
▁salo	-9.99124
▁tsyɔ	-9.99221
▁duli	-9.99283
▁—	-9.99458
▁nneyɛɛ	-9.99465
▁Elia	-9.99522
▁wuh	-9.99558
▁Wa	-9.99637
▁gya	-9.99638
▁asu	-9.99645
▁rekɔ	-9.99751
▁ɖom	-9.99791
▁kɔeɛ	-9.99794
▁ɔyii	-9.99803
tutu	-10.0009
▁etɔ̃lia	-10.0013
▁aɖi	-10.0027
▁Yehowae	-10.0041
▁Egiptetɔwo	-10.0056
▁susɔ	-10.0061
ano	-10.0062
fo	-10.0063
dzo	-10.0065
tali	-10.007
kplɔ	-10.0075
▁wɔdii	-10.0077
▁bubuawo	-10.0081
▁ɛnna	-10.0081
▁ɖokuinye	-10.0086
lia	-10.0104
▁mere	-10.0104
▁Maria	-10.011
▁mèga	-10.0113
▁pirigili	-10.0116
▁asɛmpa	-10.0129
▁som	-10.0145
▁amedzro	-10.0145
▁wòanɔ	-10.0147
▁Dina	-10.0152
nuwo	-10.0183
▁tɔ́a	-10.0188
tia	-10.0195
▁atitire	-10.0201
▁wayɛ	-10.0204
▁tumbu	-10.0213
pɛ	-10.0213
▁suhigu	-10.0217
▁Yudahene	-10.0227
▁alẽ	-10.0245
▁Efrayim	-10.025
▁Damasko	-10.025
▁mawudɔla	-10.0268
▁miawɔ	-10.027
▁Asafo	-10.0273
▁nyuitɔ	-10.0284
▁agyina	-10.0288
▁Tiro	-10.0288
▁awufoɔ	-10.0305
▁nnya	-10.0311
lɔ	-10.0319
▁mmaako	-10.0323
▁wiram	-10.0325
▁kɔn	-10.0327
▁alahiziba	-10.0337
▁woate	-10.0344
▁Siria	-10.0373
▁aseye	-10.0383
susu	-10.0385
▁Ismael	-10.0389
▁Zoli	-10.0389
▁kplim	-10.0391
gbugbɔ	-10.0396
bɔbɔ	-10.0396
▁akoa	-10.0402
▁ɖase	-10.0413
▁chuɣu	-10.0424
▁Betel	-10.0425
▁bae	-10.0438
▁pirigi	-10.0442
▁kpɛma	-10.0443
▁yiri	-10.0446
▁ɔnyɛ	-10.045
amfa	-10.0453
▁K	-10.0465
▁Ewɔ	-10.0466
▁wokɔ	-10.0476
▁akɔbli	-10.0477
▁Yehosafat	-10.0494
▁Niriba	-10.0495
▁Yoas	-10.0495
▁ɔsomfoɔ	-10.0498
▁vɔsa	-10.052
▁nubablaɖaka	-10.0531
tan	-10.0531
▁Mene	-10.0531
▁Mma	-10.0543
▁mon	-10.0549
▁Eli	-10.0562
▁bidibiga	-10.0565
▁asuafoɔ	-10.057
▁binyɛra	-10.0573
lim	-10.0586
▁mega	-10.0587
▁kwa	-10.06
ɛl	-10.0601
▁ɛbɛ	-10.0609
baa	-10.0615
nee	-10.0624
▁Woawo	-10.0631
▁mɔri	-10.0636
▁wɔnyɛ	-10.0636
▁aduanan	-10.0637
▁Laban	-10.0637
▁nènye	-10.0642
▁mmɛ	-10.0645
▁wote	-10.0659
▁ampa	-10.0663
gyina	-10.0665
▁Sinai	-10.0673
▁kɔbiga	-10.0676
▁wɔkɔɔ	-10.0676
▁fiaɖuɖu	-10.0676
▁futɔ	-10.0687
hwɛ	-10.0693
▁bɛfiri	-10.0695
▁wama	-10.07
▁hekpe	-10.0713
▁woƒo	-10.0714
▁Ɛsɛ	-10.0715
tɛ	-10.072
▁tom	-10.0735
▁mpa	-10.0744
▁hiã	-10.0751
sua	-10.0762
▁Gblɔ	-10.0765
▁dindali	-10.077
▁kara	-10.0773
▁suro	-10.0775
▁Simeon	-10.0782
▁Mana	-10.0791
▁wɔadi	-10.0798
▁wòana	-10.0822
nyo	-10.0838
▁ɖum	-10.0839
▁luhi	-10.0854
▁Lebanon	-10.0855
▁blave	-10.0857
lan	-10.0859
▁mawuwo	-10.0861
▁woyɔ	-10.0863
▁bɛto	-10.0879
▁home	-10.0881
▁Noa	-10.0883
▁ali	-10.0886
▁Balak	-10.0892
▁puri	-10.0893
▁palo	-10.09
▁Mèga	-10.092
▁Basan	-10.0928
▁buchi	-10.0928
▁esum	-10.0932
▁anyɛ	-10.0938
▁wòyi	-10.0948
▁gbedzi	-10.0949
nante	-10.095
▁wɔbɔ	-10.0963
▁mehunuu	-10.0967
▁miekpɔ	-10.0967
▁Eliya	-10.097
an	-10.0978
mate	-10.0988
▁kuɣ	-10.099
▁tsa	-10.0996
▁nirilim	-10.1004
▁liƒo	-10.1007
▁ɛma	-10.102
▁alɔ̃	-10.1034
▁Ijiptinim	-10.1041
▁dɔɔso	-10.1042
ase	-10.1045
▁wodzi	-10.1046
mma	-10.1046
▁akodɔm	-10.1047
▁legbawo	-10.1052
▁Aram	-10.1053
▁nsi	-10.1053
▁tɔb	-10.1056
▁bɛbɔ	-10.1075
el	-10.1075
▁Gideon	-10.1077
▁amanehunu	-10.1078
▁ebia	-10.1079
▁aɖa	-10.1081
boa	-10.1082
▁vuri	-10.1088
▁nhyɛ	-10.1092
▁dzodzro	-10.1101
▁wokplɔ	-10.1106
▁awuwo	-10.1108
▁fɔntinsi	-10.1128
kaka	-10.1128
▁brɛ	-10.1135
▁naani	-10.1139
▁Dabi	-10.114
ŋu	-10.1157
▁ɛka	-10.116
bea	-10.1163
▁wona	-10.1166
ndi	-10.1172
▁meyi	-10.1172
▁sum	-10.1175
▁zoli	-10.1176
za	-10.118
▁amegbetɔwo	-10.1186
see	-10.1186
▁ɔbɛyɛ	-10.1188
▁edze	-10.1194
ki	-10.1199
boɔ	-10.1204
▁aban	-10.1206
▁xe	-10.1222
▁twaa	-10.1225
▁adzo	-10.123
▁ɛkan	-10.1237
▁xɔa	-10.124
▁maɖo	-10.1246
lé	-10.1255
▁nɔnɔme	-10.1268
▁alé	-10.1271
▁ɔkwan	-10.1275
▁gaxɔ	-10.1279
▁gali	-10.1298
mɔ	-10.1299
▁Ena	-10.1302
▁Ha	-10.1307
siwo	-10.1309
▁míenye	-10.1309
▁yɛeɛ	-10.1321
▁ɖokuiwo	-10.1322
hunu	-10.1332
▁ekpɔ	-10.1342
▁homeda	-10.1346
▁baŋsim	-10.1348
▁dabisa	-10.1349
▁aduhwam	-10.1351
▁abi	-10.1353
▁kyɛ	-10.1354
▁viɛl	-10.1359
kɔɔ	-10.136
▁atɔeɛ	-10.1367
▁bɛhyɛ	-10.138
▁ahurisie	-10.1382
▁ŋkekewo	-10.1386
▁Woƒ	-10.1391
▁Dɔ	-10.1402
▁wose	-10.1407
▁guli	-10.1409
▁hwehwɛ	-10.1409
yɛn	-10.1421
▁sanyoo	-10.1421
▁abɔnefoɔ	-10.1421
▁zibisim	-10.1421
▁tuu	-10.1423
kuo	-10.1423
▁zuɣulaannim	-10.1425
▁sue	-10.1433
▁ansarisi	-10.146
▁blaatɔ̃	-10.146
▁ʒiɛmani	-10.1463
▁ɔsa	-10.1479
▁apem	-10.1481
▁tasiaɖam	-10.1484
▁Zi	-10.1486
▁ninsal	-10.1486
▁Daadam	-10.1492
korɔ	-10.1492
kan	-10.15
▁kunu	-10.1507
▁meva	-10.1513
▁nyagblɔɖilawo	-10.152
▁asafohene	-10.1525
▁ban	-10.1527
▁mina	-10.153
faa	-10.1535
▁Rama	-10.1546
▁nyeme	-10.1551
▁kesinɔnuwo	-10.1552
didi	-10.1555
▁edo	-10.1558
twa	-10.1571
▁litaafi	-10.1572
▁heyi	-10.1579
▁afahyɛ	-10.1581
▁bini	-10.1582
▁yerenom	-10.1582
▁tɔgbuiwo	-10.1583
▁lihiri	-10.16
▁ŋlɔ	-10.16
▁ahyiaeɛ	-10.1604
▁woaɖu	-10.1606
▁suhir	-10.1615
▁Dabisili	-10.1617
▁atorɔ	-10.1617
▁nkyerɛkyerɛ	-10.162
▁afie	-10.1621
▁wagya	-10.1622
▁nkonim	-10.1627
▁nɔviwò	-10.1628
▁vinye	-10.1635
▁dzra	-10.1639
gbã	-10.1649
▁Jɔn	-10.165
▁yɔdo	-10.1654
▁Sa	-10.1656
▁Ɣe	-10.1657
▁ɣetoɖoƒe	-10.1657
▁pɔhim	-10.1659
twe	-10.166
p	-10.1668
▁Daniel	-10.1697
▁binyara	-10.1699
▁tumtumdiba	-10.1702
▁nuwuwu	-10.1708
▁Ɔsɔfo	-10.1714
▁adan	-10.1717
▁ŋariŋ	-10.1737
▁pihinu	-10.1738
▁Wòe	-10.174
▁ahunu	-10.1741
trɔ	-10.1745
▁foro	-10.1771
▁mianɔ	-10.1771
▁wuieve	-10.1772
fe	-10.1772
▁Ðe	-10.1777
▁eta	-10.1778
▁tibisim	-10.1778
▁mɔwo	-10.1781
▁Eyae	-10.1781
am	-10.1793
▁He	-10.1805
lɔbo	-10.1807
▁seawo	-10.1813
▁Ben	-10.1814
▁Solomo	-10.1817
▁Manaasa	-10.1817
▁mɔkpɔkpɔ	-10.182
▁ntena	-10.1822
ŋe	-10.1831
▁labina	-10.1834
▁alẽwo	-10.1836
▁naɣ	-10.1841
▁eɖe	-10.1844
▁yɛde	-10.1855
▁Kɔkɔe	-10.1865
▁gbɔe	-10.1871
gaɖo	-10.1872
▁Esiawo	-10.1874
▁sisi	-10.1883
dzɔ	-10.1898
akoma	-10.1898
▁woakpɔ	-10.1899
▁gbagbe	-10.19
▁yubu	-10.1904
▁afisi	-10.1906
▁nuvɔ̃wo	-10.191
rɛ	-10.191
▁adie	-10.1919
▁vuhim	-10.193
▁ŋuni	-10.1939
▁mmirika	-10.1939
▁Haman	-10.1947
▁akofena	-10.1948
soɔ	-10.1949
▁yaɣ	-10.1953
▁anomu	-10.1959
▁mexɔ	-10.196
▁awerɛhoɔ	-10.1961
▁Miga	-10.1965
▁puhi	-10.1974
▁kplɔ̃	-10.1978
▁mfimfini	-10.198
▁Chɛliy	-10.198
▁lɔƒo	-10.1981
tsrɔ̃	-10.1981
▁Woɖo	-10.199
lu	-10.1995
▁daeɛ	-10.1995
▁magya	-10.1996
▁daanya	-10.1999
▁fiasã	-10.2005
▁zuɣuri	-10.2007
▁Amegbetɔ	-10.2017
▁nsã	-10.2021
▁Jɛrimia	-10.2021
▁ƒè	-10.2021
▁afii	-10.2026
▁Ɔka	-10.2036
▁maƒo	-10.2038
▁dɔme	-10.2041
▁ŋma	-10.2049
▁paɣiri	-10.2064
▁Odiyifoɔ	-10.2065
towo	-10.207
▁Wɔa	-10.2103
klugu	-10.2104
▁wakoa	-10.2105
▁hetsɔ	-10.2105
tua	-10.2114
▁anabinim	-10.2114
▁nyema	-10.2115
▁dimbɔŋɔnim	-10.2115
gbo	-10.2134
▁Jɔab	-10.2146
▁leeg	-10.2169
▁tiɣi	-10.2169
▁adzɔ	-10.2179
▁kee	-10.2183
▁Gibea	-10.2188
▁ŋubi	-10.2191
▁duri	-10.2198
▁ayɛyɛdeɛ	-10.2208
▁kɔkɔewo	-10.2214
▁magblɔ	-10.2215
▁tuui	-10.2219
▁Vu	-10.2229
▁Yisahaku	-10.223
▁baabiara	-10.223
▁nètsɔ	-10.223
▁Yɛlim	-10.2241
▁trɛ	-10.2243
▁fiefoɔ	-10.2248
▁dina	-10.2251
▁samli	-10.2274
▁È	-10.2277
▁shihi	-10.2283
▁nɔviwo	-10.2291
▁suma	-10.2294
dodo	-10.2297
▁wɔtete	-10.2306
▁ewiase	-10.2309
▁Ampa	-10.232
▁yayra	-10.2322
▁nyuri	-10.2328
▁ƒã	-10.2336
▁Midian	-10.2342
▁san	-10.2346
▁Mikpɔ	-10.2363
▁Anyigba	-10.2363
▁Ŋu	-10.2377
▁Amen	-10.2382
▁wuntizɔriba	-10.24
▁ɔhaw	-10.24
▁xexlẽme	-10.2401
tie	-10.2404
▁gãwo	-10.2411
▁Bi	-10.2416
ten	-10.2418
▁chirigi	-10.2422
▁gbeƒãɖela	-10.2426
▁S	-10.2432
▁Yeremya	-10.2442
▁seesei	-10.2442
▁shili	-10.2443
▁mfasoɔ	-10.2444
▁atsyɔ̃	-10.245
▁yuui	-10.2451
▁vavã	-10.2451
▁etɔ	-10.2456
▁Míe	-10.2459
▁wòxɔ	-10.246
▁adane	-10.2466
▁dzinu	-10.2474
gblɔ	-10.2477
▁woawu	-10.2477
▁asie	-10.2482
▁Ɛhɔ	-10.2486
▁woava	-10.2486
▁ɛnan	-10.2489
▁ɔbisa	-10.2499
▁mmu	-10.2502
▁aɖaŋu	-10.2504
▁xaxa	-10.2527
▁Abimelek	-10.2529
▁blaeve	-10.2529
▁duru	-10.2531
▁tutu	-10.2533
▁dadeɛ	-10.2544
▁wuhibu	-10.2552
▁zaŋm	-10.2561
dzra	-10.2566
▁nwanwa	-10.2572
▁kpiimba	-10.2572
▁kokoko	-10.2574
tuo	-10.2581
▁nàtsɔ	-10.2585
▁kluvi	-10.2599
ɣla	-10.2602
▁asuo	-10.2605
▁dana	-10.2606
▁enum	-10.2606
▁komm	-10.2609
▁kaeɛ	-10.2611
▁ɔbaako	-10.2615
▁wɔɣilim	-10.2616
▁Sodom	-10.2616
pɔ	-10.2623
▁Asɛm	-10.2628
▁bɛmaŋmaŋ	-10.263
▁aga	-10.2632
▁ɔbu	-10.2632
▁gooni	-10.2637
▁lahibal	-10.264
▁ɖoa	-10.2648
▁Sara	-10.2656
▁yuuni	-10.2657
▁tiliginsim	-10.2662
▁dodo	-10.2674
▁ɔtoo	-10.2677
▁xɔxɔnu	-10.2689
▁boɔ	-10.2697
▁doya	-10.2698
▁klo	-10.2706
▁ɔbɛtumi	-10.2708
▁maame	-10.2709
▁koro	-10.2714
▁vɔe	-10.2714
▁Ifriim	-10.2729
▁dabisi	-10.2746
▁Asɔredan	-10.2748
▁akyɛdeɛ	-10.2751
▁ɛbɛba	-10.2751
▁anwanwadeɛ	-10.2757
▁wotsi	-10.2761
▁Yudatɔ	-10.2764
▁eɖo	-10.2772
▁Nunɔla	-10.2776
▁ɖekakpui	-10.2777
▁Via	-10.2786
rɔ	-10.2793
▁mununkum	-10.2794
▁Tsi	-10.28
▁nnanson	-10.2802
▁viwò	-10.2811
▁asɔ	-10.2818
▁guui	-10.2829
▁ɔgye	-10.2829
▁biŋkɔb	-10.2837
akyi	-10.2838
▁veve	-10.2838
▁Nyamiya	-10.284
▁woana	-10.2851
▁mmɛn	-10.287
▁kpahi	-10.2874
▁Samuɛl	-10.2882
▁nnomaa	-10.2882
▁titina	-10.2882
▁wòtso	-10.2883
▁anidasoɔ	-10.2886
▁wɔbu	-10.2891
tɔe	-10.2893
▁nusiawo	-10.2904
▁hame	-10.2913
yra	-10.2918
▁wɔbɛka	-10.2919
▁afena	-10.2925
▁Balaam	-10.2927
▁Yudea	-10.2927
▁nnompe	-10.2927
▁birigi	-10.293
▁nananom	-10.2931
▁miatsɔ	-10.2936
gari	-10.2947
▁Natan	-10.2947
ntumi	-10.2953
▁anyiehe	-10.2972
▁nyaɣisim	-10.2975
▁dunoli	-10.298
dzudzɔ	-10.2988
▁aglã	-10.2994
▁wodi	-10.2997
▁tsia	-10.3
▁mena	-10.3
▁gol	-10.3004
▁ɔnya	-10.3014
▁Hɛzɛkia	-10.3018
▁baɣa	-10.3018
▁abɛn	-10.3023
▁alaafee	-10.3024
▁ʒii	-10.3028
▁sɔɣ	-10.305
▁adɔeɛ	-10.3075
▁kpuɣ	-10.3089
▁woda	-10.3089
▁kaba	-10.3098
▁Mie	-10.3103
▁bara	-10.3108
▁Ziɔn	-10.3109
som	-10.3109
▁Bileam	-10.3109
▁sizuura	-10.3109
▁eyama	-10.311
▁Fiagã	-10.311
▁aduɔson	-10.3115
▁pahir	-10.313
wɔwɔ	-10.313
▁tsrɔ̃	-10.3131
▁Seba	-10.3136
▁vodada	-10.3139
▁afasuo	-10.3141
▁bem	-10.3152
mlɔ	-10.3155
▁dziehe	-10.3156
ɖɔ	-10.3157
▁wobu	-10.3157
▁wala	-10.3175
▁an	-10.318
siesie	-10.3182
▁soya	-10.3186
▁tirim	-10.3187
▁dolibu	-10.3195
▁Hebron	-10.3202
▁alakpa	-10.3205
▁biae	-10.3206
▁dilan	-10.3215
▁bɛgye	-10.323
▁gbedodoɖa	-10.3232
▁Farisifoɔ	-10.3248
▁H	-10.3252
▁mpanin	-10.3253
▁afoforɔ	-10.3263
▁niŋgbuna	-10.3265
▁tinzun	-10.3268
▁evɔ	-10.327
▁alẽvi	-10.3276
▁kumm	-10.3276
▁ɔhwɛ	-10.3276
▁Sela	-10.3278
▁makɔmakɔ	-10.3278
▁Zadok	-10.3295
▁Wogblɔ	-10.33
▁mava	-10.3301
▁henɔ	-10.3302
▁nakpɔ	-10.3305
▁sesẽwo	-10.3306
▁asraafoɔ	-10.3308
▁Nyini	-10.3309
▁situra	-10.331
▁nyɛviya	-10.3313
▁Nyin	-10.332
▁Mía	-10.332
tsɔ	-10.333
bil	-10.333
▁piligi	-10.3331
▁tedzi	-10.3337
▁atena	-10.3338
▁ɔtena	-10.3357
▁asiba	-10.3361
▁shia	-10.3363
▁anni	-10.3364
▁kesinɔnu	-10.3373
wò	-10.3373
▁pini	-10.3374
▁Y	-10.3376
▁bindir	-10.3382
▁wòawɔ	-10.339
sɔɔ	-10.339
▁waazu	-10.3391
▁nukunu	-10.3394
kyere	-10.3395
▁viɖe	-10.3401
▁ɔbɛma	-10.3403
▁Aser	-10.3404
▁atadeɛ	-10.3408
ɣiri	-10.3408
▁dunɔdali	-10.3409
▁lãme	-10.3411
▁gbugbɔ	-10.3415
▁kɔma	-10.3436
▁Betlehem	-10.3436
▁Xizkiya	-10.3436
▁Dziƒoʋakɔ	-10.3436
▁Simei	-10.3436
▁biŋkɔbigu	-10.3436
▁woayɛ	-10.3438
hyiaeɛ	-10.3448
nti	-10.3453
▁Asaf	-10.3482
▁taa	-10.3483
▁chihiri	-10.3486
▁boo	-10.3503
▁ŋunyɔnu	-10.3506
▁woyɔn	-10.3514
▁Gat	-10.3515
▁buɣisi	-10.3516
▁kariti	-10.3517
pae	-10.3529
▁Pumpɔŋɔ	-10.3532
▁denden	-10.3533
▁dunoya	-10.3533
us	-10.3535
▁woxɔ	-10.3542
hwie	-10.3543
▁naɖo	-10.3552
toto	-10.3555
▁lita	-10.3568
▁ake	-10.357
▁Misraimfoɔ	-10.3571
kpo	-10.3572
▁Aʋakɔwokplɔla	-10.358
▁pɛpɛpɛ	-10.358
▁meta	-10.3582
▁wuo	-10.3582
▁ŋuna	-10.3586
▁yɛyɛ	-10.3586
▁manya	-10.3595
bitali	-10.3596
▁Yeriko	-10.3628
▁Zebaot	-10.3628
▁montie	-10.3629
▁kuruwa	-10.363
▁more	-10.3632
▁naɣila	-10.3633
▁wɔba	-10.3637
▁ahennwa	-10.3637
ndali	-10.3644
▁ewɔ	-10.3658
▁ɔteneneeni	-10.3677
kyɛ	-10.368
▁womekpɔ	-10.368
▁Abe	-10.3685
▁kpɔe	-10.3688
tsyɔ	-10.3689
▁lɔlɔ̃nu	-10.3698
▁amumuyɛfoɔ	-10.3701
▁mado	-10.3707
▁Yakobo	-10.3707
▁ɖoɖoe	-10.3727
azu	-10.3728
▁wɔaka	-10.3732
▁akofoɔ	-10.3733
▁bemi	-10.3738
▁afɔwo	-10.3742
▁nadze	-10.3748
▁monn	-10.3754
▁zuɣulana	-10.3755
▁wòlé	-10.3759
▁ŋkɔwo	-10.376
▁alizin	-10.3772
▁Jɔnatan	-10.3775
▁Eleasa	-10.3775
▁woanye	-10.3778
▁adihɔ	-10.3785
▁megale	-10.3789
▁toawo	-10.379
▁ahohora	-10.3792
▁vevi	-10.3795
▁dee	-10.3802
▁piligu	-10.3825
▁Monhwɛ	-10.3826
▁aho	-10.3839
▁wɔse	-10.3846
kyeree	-10.3848
▁ʒiɛm	-10.3853
▁sɔwo	-10.3853
▁dzɔdzɔewo	-10.3857
▁wɔma	-10.3865
▁nipa	-10.3866
▁dunol	-10.3866
▁Sekem	-10.3868
sɔre	-10.387
▁ɛre	-10.3872
▁vudo	-10.3873
▁Nebukadnessar	-10.3873
▁twerɛ	-10.3874
▁wɔpɛ	-10.3874
▁mmeranteɛ	-10.3874
▁adidibea	-10.3875
▁ebinom	-10.3875
ɣu	-10.3877
▁mienya	-10.3878
▁sɛn	-10.3892
▁ɖeko	-10.3893
▁vava	-10.3897
wie	-10.39
▁Do	-10.3903
▁Zaŋmiy	-10.3908
▁tinim	-10.3911
▁ɛnni	-10.3911
▁Ntomadan	-10.3923
▁dɔwuame	-10.3923
▁woaɖo	-10.3924
▁sagbana	-10.3925
▁wakoma	-10.3927
▁nnansa	-10.3929
▁palli	-10.3929
on	-10.3939
▁miriya	-10.3941
▁yab	-10.3949
kul	-10.3949
▁mowɔ	-10.3969
▁ewiem	-10.3973
▁chandi	-10.3973
nkumm	-10.3976
▁suhiri	-10.3983
▁woado	-10.3983
▁Bee	-10.3986
▁aɖaka	-10.3999
nnwa	-10.4011
kura	-10.4013
▁ɔda	-10.4014
▁Adam	-10.4019
▁nnyinasoɔ	-10.4024
▁nimdi	-10.4024
▁mieɖo	-10.4025
fiawo	-10.4027
▁drɔ̃e	-10.4041
▁nhwɛ	-10.4043
▁ɔsane	-10.4051
▁ɔbɔ	-10.4056
sɛe	-10.4063
▁nnommum	-10.4067
▁kuri	-10.4069
▁g	-10.4069
▁dzea	-10.407
▁Va	-10.4074
▁nwɔtwe	-10.4074
▁ŋutega	-10.4074
▁hyehyɛ	-10.4084
▁nasuafoɔ	-10.4089
▁zaawuni	-10.409
▁dziɖuɖu	-10.4092
▁legba	-10.4106
▁aƒedo	-10.411
▁nol	-10.4111
▁pili	-10.4112
▁nunye	-10.4122
▁Amorifoɔ	-10.4125
▁kpambaliba	-10.4125
▁wulinluhili	-10.4125
▁metsi	-10.4129
frɛ	-10.413
▁Amonfoɔ	-10.4133
▁Aleke	-10.4138
▁Wode	-10.414
▁zan	-10.415
▁tahiri	-10.4156
▁luri	-10.4157
▁nawɔ	-10.4157
▁amaneɛ	-10.4158
▁naɖe	-10.4164
▁ɔfrɛ	-10.4171
▁nuɖusi	-10.4173
▁Matsɔ	-10.4179
▁mmrɛ	-10.418
▁ŋkuwò	-10.4183
▁gale	-10.4185
▁afiase	-10.4186
▁mepɛ	-10.4192
▁xexe	-10.4195
tsa	-10.4204
▁yinsi	-10.4212
▁mahe	-10.4216
▁kahigi	-10.4216
▁atrɔ	-10.4221
kye	-10.4223
▁ɛtwa	-10.4226
▁ʋɔnudɔdrɔ̃	-10.4227
▁gbɔ̃tsu	-10.4227
▁pisi	-10.4228
▁edin	-10.4233
▁agakpe	-10.4237
▁bɔhyɛ	-10.4238
▁Wome	-10.424
▁nandaamba	-10.424
▁nakyi	-10.4241
▁mawunya	-10.4242
fom	-10.4252
▁ɔyɛeɛ	-10.4262
▁ahanu	-10.4272
xlẽ	-10.4273
ili	-10.4274
▁atsrɔ̃	-10.4275
▁luɣilikam	-10.4279
▁adzɔge	-10.428
▁wuntia	-10.428
▁nuabaa	-10.4281
▁Seir	-10.4283
rimi	-10.4286
▁metso	-10.4292
▁lolo	-10.4293
▁dahewo	-10.4293
▁Pi	-10.4293
▁niɣi	-10.4296
▁duhi	-10.4305
▁aduru	-10.4311
▁Israelhene	-10.432
▁aƒea	-10.4325
▁Ilaija	-10.433
▁wɔfaa	-10.4332
▁ahemfie	-10.4334
▁vovovowo	-10.4334
ze	-10.4336
▁ʒili	-10.434
▁mlɔ	-10.4347
▁nano	-10.4351
▁enelia	-10.4352
▁baasa	-10.4357
▁asene	-10.4358
▁wobɛ	-10.4361
▁maŋmaŋ	-10.4366
▁mekaa	-10.4367
▁kafukafu	-10.4381
▁Asiriahene	-10.4385
▁ʒiɛman	-10.4389
▁mamlɛawo	-10.439
sẽ	-10.4399
gatrɔ	-10.4405
▁dzata	-10.4411
▁wɔayi	-10.4416
▁ŋkunye	-10.4417
▁wein	-10.4421
ankasa	-10.4431
▁Gilgal	-10.4435
▁laɣiŋgu	-10.4435
▁tintariga	-10.4435
▁Kaleb	-10.4435
▁Bɔzuɣu	-10.4435
▁mfuturo	-10.4435
▁agbagba	-10.4436
▁ayɔbu	-10.4437
▁axa	-10.4441
▁mienye	-10.4442
▁ankɔ	-10.4444
▁ɛtene	-10.4445
▁kpẽ	-10.4469
▁tan	-10.4479
▁ren	-10.4479
▁dzre	-10.4487
▁Nyagblɔɖila	-10.4487
▁ɔbɔnefoɔ	-10.4487
▁ntaban	-10.4487
▁Yosia	-10.4487
▁ƒoa	-10.4487
▁xlẽ	-10.4493
▁nyabu	-10.4493
▁fetu	-10.4495
▁wɔlawo	-10.4499
▁deeri	-10.4501
▁adwa	-10.452
▁nunɔlagã	-10.4525
naa	-10.4527
ƒle	-10.4535
lana	-10.4536
▁Lɛvi	-10.4537
▁kilɔgiram	-10.454
▁ɔhɔhoɔ	-10.4541
kumm	-10.4543
▁kɔre	-10.4543
hyia	-10.4556
▁ze	-10.4561
▁ɖiɖi	-10.4567
▁wòtrɔ	-10.4574
sí	-10.4579
▁melɔ̃	-10.4582
▁Mordekai	-10.4593
▁Mitsɔ	-10.4597
▁nàwɔ	-10.4597
▁ɔsɛeɛ	-10.4604
nyaa	-10.461
▁nakoma	-10.4614
riti	-10.4615
keke	-10.462
▁nado	-10.4628
▁Zaŋm	-10.4628
▁Baba	-10.463
▁nyam	-10.4632
▁wuna	-10.4634
▁amfiri	-10.4635
▁mman	-10.4639
▁benkum	-10.464
▁nuɖuvɔsa	-10.4647
▁piɛla	-10.4647
▁mietsɔ	-10.4648
▁kɔtena	-10.4648
▁gbedadaƒo	-10.465
▁asɔrefie	-10.465
▁Silo	-10.4651
▁dɔteɛ	-10.4652
▁haɖe	-10.4657
▁wɔbɛyɛ	-10.4665
▁mɔnu	-10.4668
kyi	-10.467
▁Ameka	-10.4677
▁nayili	-10.4682
▁tɔxɛ	-10.4684
▁Bɛn	-10.4688
▁Nyɔnu	-10.47
wetɛbena	-10.4701
▁Lot	-10.4701
▁dihi	-10.4701
▁woagblɔ	-10.4701
▁Eɖe	-10.4705
▁Asase	-10.4705
▁Jɛ	-10.4718
▁lɔ	-10.4726
▁Rebeka	-10.4755
▁pihinahi	-10.4755
▁Sɔre	-10.4755
▁daadam	-10.4758
▁poma	-10.4763
▁nhunu	-10.4765
▁pɛɛ	-10.4766
▁pina	-10.4767
▁dukɔa	-10.4778
▁nɛli	-10.4782
nka	-10.4799
▁Ilaisha	-10.4809
▁akatua	-10.4812
▁dza	-10.4813
▁mpoano	-10.4814
▁gyaa	-10.4815
▁adegbe	-10.4827
▁ɛn	-10.4839
▁bɛnya	-10.4847
▁dedie	-10.4847
▁numevɔsa	-10.4849
nyenye	-10.485
▁subɔla	-10.486
▁dadaa	-10.4862
▁sorɔnsorɔmmea	-10.4864
▁tɛkyerɛma	-10.4864
▁mpaebɔ	-10.4864
▁gyata	-10.4867
▁keŋ	-10.4869
▁yaɣi	-10.4874
▁kpɛri	-10.4877
▁míawɔ	-10.4883
▁mekyerɛ	-10.4885
▁bɔfoɔ	-10.4886
▁mitsɔ	-10.4886
▁woade	-10.489
▁kutsetse	-10.4891
▁twe	-10.4893
▁niŋmi	-10.4909
▁bɛtumi	-10.4913
▁hia	-10.4915
▁Rehoboam	-10.4919
▁asɛnnua	-10.4919
▁yaaŋa	-10.4919
▁bɛhunu	-10.492
▁siane	-10.492
▁nenɔ	-10.4926
▁kpihim	-10.4928
▁Wɔbɛ	-10.494
▁ɔbɛdi	-10.496
▁Ɖo	-10.4973
▁nnɔbaeɛ	-10.4974
▁wogblẽ	-10.4975
▁gil	-10.4976
▁tarili	-10.4976
▁tua	-10.4977
▁deeg	-10.4977
▁kɔba	-10.4978
▁Levitɔwo	-10.4984
▁woadi	-10.4985
▁yɛlli	-10.4986
▁sidzedze	-10.4992
▁adum	-10.5005
▁chɛchɛbunsi	-10.503
▁nake	-10.5033
▁amane	-10.5047
▁mema	-10.5047
▁wɔatwa	-10.5049
teɛ	-10.5072
▁kurom	-10.5073
saa	-10.5077
▁Nebukadnezar	-10.5085
▁tatɔ	-10.5086
▁wòava	-10.5086
▁ateasefoɔ	-10.5086
▁Twam	-10.5087
▁galimi	-10.5089
▁ɛnsɛ	-10.509
▁zom	-10.5091
▁sea	-10.5095
▁wogbe	-10.5095
▁Mekpɔ	-10.51
▁À	-10.5104
▁wòkplɔ	-10.5104
▁kluviwo	-10.5106
▁xlãe	-10.511
▁ɔhunu	-10.5113
▁wotrɔ	-10.5114
▁eɖa	-10.5116
▁bɛkaa	-10.5133
▁woku	-10.5137
▁miɖo	-10.5139
▁srɛ	-10.5141
▁tibidarigibo	-10.5141
▁ayuo	-10.5141
▁tatabo	-10.5142
▁bonhwa	-10.5142
▁Gomna	-10.5142
▁Filipo	-10.5143
▁Ana	-10.5144
▁kukua	-10.5144
▁paligi	-10.5146
▁tsitsiwo	-10.5154
▁woaka	-10.5162
tɔsisi	-10.5182
▁ave	-10.5182
▁kukoli	-10.5185
▁ahiafoɔ	-10.5198
▁Amoritɔwo	-10.52
▁eva	-10.5201
▁gindi	-10.5203
pu	-10.521
▁omaŋa	-10.5215
▁agbowo	-10.522
▁aleke	-10.522
▁atua	-10.5224
sie	-10.5227
ble	-10.5231
▁Xa	-10.5238
▁eneawo	-10.5239
▁akum	-10.5242
dome	-10.5245
▁asɛe	-10.5251
▁vivi	-10.5253
▁nnebɔneyɛfoɔ	-10.5255
▁Miɖo	-10.5262
▁mfuo	-10.5264
twaa	-10.5266
▁wɔtu	-10.5268
▁ahɔhoɔ	-10.5268
twerɛfoɔ	-10.5269
▁vu	-10.5271
▁Monka	-10.5272
sisi	-10.5272
▁Ku	-10.5279
▁wotu	-10.5288
▁alilikpo	-10.5311
ã	-10.5313
▁atenaeɛ	-10.5319
▁konyi	-10.5321
▁fiae	-10.5324
▁miaɖu	-10.5328
▁menim	-10.5335
▁goli	-10.5343
▁dwane	-10.535
▁wore	-10.5351
▁ewolia	-10.5354
▁Beer	-10.5356
▁bɛmaŋ	-10.5357
y	-10.5362
▁maga	-10.5365
nyɔ	-10.5367
▁yonyeme	-10.5369
▁Merari	-10.5369
▁sɔŋsim	-10.5371
▁woaxɔ	-10.5376
▁ete	-10.5382
boaboa	-10.5392
▁Ɛli	-10.5398
tete	-10.5409
▁nenem	-10.5411
▁nkɔsi	-10.5412
▁tiŋgbana	-10.5412
▁dɔwɔwɔ	-10.5421
▁tiŋkpansi	-10.5428
▁fofonye	-10.5432
sra	-10.5438
▁Meɖe	-10.5438
▁monhwɛ	-10.544
▁tie	-10.5441
▁tasiaɖamwo	-10.5451
▁yɛliŋ	-10.5452
▁siɣi	-10.5456
ɣili	-10.5456
▁turo	-10.5475
▁mahunu	-10.5475
ham	-10.5478
▁fifi	-10.5479
▁biɛɣ	-10.5482
ŋutsuwo	-10.5483
▁Eleazar	-10.5486
▁Yoram	-10.5486
▁woatso	-10.5487
▁odwennini	-10.5489
▁buyi	-10.5493
▁lém	-10.5497
▁melé	-10.5497
▁xɔname	-10.5501
▁Be	-10.5504
▁asomfoɔ	-10.5506
▁wòku	-10.5507
dura	-10.5538
▁Yerobeam	-10.5544
▁Ŋkeke	-10.5544
▁woatsrɔ̃	-10.5545
▁dahe	-10.5547
▁dziƒowo	-10.555
foro	-10.5551
▁mahyɛ	-10.5551
▁wɔsane	-10.5557
▁yihiri	-10.5557
▁dabari	-10.5562
▁Mewɔ	-10.5562
hwehwɛ	-10.5565
berɛ	-10.5579
▁gbolo	-10.5586
sɛ	-10.5588
▁Dukɔ	-10.559
dwane	-10.5591
▁nyuiwo	-10.5595
asuafoɔ	-10.5596
▁Hamat	-10.5603
▁yɛwɔ	-10.5603
▁muɣisigu	-10.5604
▁Nukaŋuti	-10.5608
ʋuʋu	-10.5609
▁galisiya	-10.5617
▁meƒo	-10.5617
▁wòƒo	-10.5622
bɛma	-10.5622
▁léa	-10.5624
̃	-10.5633
▁ŋɔli	-10.5636
▁bɛgyina	-10.5648
▁wumdi	-10.5652
▁bɛyi	-10.5657
trɛ	-10.5659
▁mfomsoɔ	-10.5662
▁tohehe	-10.5662
▁Dzudzɔgbe	-10.5662
▁woayi	-10.5666
▁tɔbutuhiri	-10.5668
▁nhunumu	-10.5669
▁Hadad	-10.567
▁makoma	-10.567
▁nyɔnuvi	-10.5677
▁ŋutsua	-10.568
▁wummiya	-10.568
▁tɔbbi	-10.5682
▁abrɛ	-10.5686
▁wɔahunu	-10.5687
▁makɔ	-10.5691
agyanom	-10.5693
pɛn	-10.5694
▁Israelvi	-10.5696
▁blema	-10.5698
▁makyerɛ	-10.5704
▁bometsila	-10.5705
▁Roma	-10.5706
▁wolé	-10.5706
▁Ye	-10.5711
▁suɣa	-10.5721
hye	-10.5724
limiya	-10.5741
kunkum	-10.5742
▁nnyina	-10.5747
▁awɛmfoɔ	-10.5756
twerɛ	-10.5772
▁Ja	-10.5777
▁menni	-10.5778
tse	-10.5779
▁Babilon	-10.578
▁Cham	-10.5781
▁yil	-10.5782
▁gɔmesese	-10.5782
▁ŋugbedodo	-10.5782
▁aʋatso	-10.5786
▁fitaa	-10.5787
▁dumegãwo	-10.5787
▁kyeeɛ	-10.5789
▁Giliad	-10.5806
▁kar	-10.5814
▁nsu	-10.5822
▁fukpekpe	-10.5825
ɛdɔm	-10.5825
▁cham	-10.5841
▁Ahas	-10.5843
▁miese	-10.5844
▁ɖetugbi	-10.5848
▁Obi	-10.5853
▁zuɣulan	-10.5857
▁ɖagblɔ	-10.5861
yo	-10.5888
▁numevɔ	-10.59
▁Rahel	-10.5902
▁Naomi	-10.5902
ware	-10.5905
▁Evɔ	-10.5905
▁edu	-10.5906
▁suhukpeeni	-10.5908
▁mfunumu	-10.5924
▁yra	-10.5927
▁waka	-10.5934
▁ɛde	-10.5935
▁nɔlawo	-10.5938
tɔn	-10.5939
▁malibu	-10.5945
▁wone	-10.5948
▁adɔ	-10.5949
▁nuwɔna	-10.5952
▁Ai	-10.5962
▁binyɛrigu	-10.5963
▁wuntitali	-10.5963
▁zahindi	-10.5963
▁kaka	-10.5964
▁woaƒo	-10.5965
▁dzro	-10.597
▁nyɔnua	-10.597
srɔ̃	-10.5981
bɔfoɔ	-10.5982
▁Keenan	-10.5987
▁ɔkra	-10.5994
bɛyɛ	-10.5995
▁aƒewo	-10.5996
▁Bɛna	-10.601
dɔm	-10.6014
▁Gibeon	-10.6017
gaɖe	-10.6019
▁Tɔ́	-10.6022
▁ʋuʋu	-10.6025
▁nipadua	-10.6025
▁aʋawɔwɔ	-10.6028
▁nnaadaa	-10.6029
tre	-10.6039
▁asiwo	-10.6039
▁bɛmaŋa	-10.6044
▁bali	-10.6047
▁neen	-10.6048
▁ŋutɔe	-10.605
vo	-10.6053
▁ɔbɛka	-10.6054
dza	-10.606
biri	-10.6067
▁zaligunima	-10.6074
▁Vinye	-10.6076
▁xɔxɔ	-10.6083
▁afɔrebɔ	-10.6085
▁Ester	-10.6086
▁Sintani	-10.6086
▁Obed	-10.6086
▁akuakuo	-10.6086
▁nkokoɔ	-10.6086
▁wòakpɔ	-10.6088
▁pihita	-10.6088
▁dzigbeme	-10.609
▁wɔabɔ	-10.6099
▁ahye	-10.6109
kari	-10.6111
▁nnome	-10.6112
▁yɔri	-10.6131
remfa	-10.6138
▁Jɛrɔbɔam	-10.6148
▁kɔtomsi	-10.6148
▁ɔsom	-10.6149
▁yɔɣu	-10.615
▁Xɔ	-10.6159
▁ɖua	-10.6165
▁miakpɔ	-10.619
buo	-10.6197
▁Dzi	-10.6201
▁ahwɛfoɔ	-10.6205
▁Asubɔnten	-10.6211
▁atokoɔ	-10.6211
▁nsoromma	-10.6211
▁Aane	-10.6211
▁Montie	-10.6212
▁moayɛ	-10.6212
▁hyira	-10.6213
▁Iso	-10.6214
▁diiɛ	-10.6217
▁Kanaanfoɔ	-10.6226
nnane	-10.6227
asɛm	-10.6228
▁Ɔyɛ	-10.6231
▁yɛre	-10.6231
▁animtia	-10.6251
▁ɔsii	-10.6253
hiã	-10.6258
▁binyɛr	-10.6262
▁wòtsi	-10.6272
▁Persia	-10.6274
▁ɔbabarima	-10.6274
▁buɣili	-10.6278
gatsɔ	-10.6279
▁èle	-10.628
▁asadeɛ	-10.6282
▁wɔhyɛ	-10.6286
mita	-10.6301
▁Ɛn	-10.6301
▁ahwɛ	-10.6307
tiwo	-10.6315
▁fofowò	-10.6321
▁aƒeme	-10.6327
▁mobɛ	-10.6328
▁Meka	-10.6332
▁Barnaba	-10.6337
▁Eyome	-10.6337
▁Gerson	-10.6337
▁mmɔfra	-10.6337
▁Asur	-10.6339
▁Ɛhe	-10.634
▁nàgblɔ	-10.6343
▁ƒometɔwo	-10.6353
▁ɔgyina	-10.636
▁ako	-10.6367
kasa	-10.6375
▁sɔɔ	-10.6377
▁wopɛ	-10.6386
▁xɔasi	-10.6389
▁afuo	-10.6395
▁ʒiɛ	-10.6399
▁nkron	-10.6401
▁ketewa	-10.6402
▁mmarato	-10.6403
kora	-10.6403
▁oyi	-10.6407
▁ɔboɔ	-10.641
▁adzɔgbe	-10.6411
kyerɛkyerɛ	-10.6419
▁kplɔlawo	-10.6422
▁anyansafoɔ	-10.6434
hoahoa	-10.6444
▁bɛsane	-10.6448
▁wɔgye	-10.6455
▁niŋm	-10.6456
▁ŋkekenyui	-10.6463
▁Samson	-10.6465
tum	-10.6465
▁nyanyanya	-10.6466
▁afunumu	-10.6469
▁woanya	-10.647
▁wɔyii	-10.647
▁Mɛma	-10.6472
▁yiyim	-10.6473
▁moka	-10.6473
▁Nyeme	-10.6478
▁eƒo	-10.6484
▁suh	-10.6488
▁monka	-10.6493
▁biri	-10.6497
▁nunanawo	-10.6499
▁osuo	-10.6501
▁wɔahyɛ	-10.6504
▁wɔsuro	-10.6517
▁kplɔla	-10.6527
▁ɔbotan	-10.6529
▁míewɔ	-10.6532
▁Din	-10.6533
sene	-10.6539
▁yidan	-10.654
▁Mɔabnim	-10.6543
▁ehu	-10.6544
▁ahanum	-10.6548
▁Wowɔ	-10.6551
himiya	-10.6553
▁ʋua	-10.6557
ban	-10.6567
▁sisii	-10.6576
▁dɛ	-10.6577
▁sɔree	-10.6578
▁petee	-10.6582
▁wɔkan	-10.659
▁Sedekia	-10.6594
▁vinvamli	-10.6594
▁taŋkpaɣu	-10.6594
▁yeatsɔ	-10.6596
▁mawutsi	-10.6596
▁mommma	-10.6597
▁tuuba	-10.6598
▁kplu	-10.6601
▁abura	-10.6603
▁miexɔ	-10.661
▁nuxaxa	-10.6611
▁asomafoɔ	-10.6616
yem	-10.6619
▁Te	-10.6619
▁rema	-10.6621
▁hye	-10.6628
▁kyerɛkyerɛ	-10.6634
srɛ	-10.664
▁nunyala	-10.6642
▁Za	-10.6642
mpɛ	-10.6643
▁yɛlim	-10.6644
▁wɔrekɔ	-10.6644
▁Oo	-10.6646
bubu	-10.6655
▁daalibarika	-10.666
▁daazichi	-10.666
▁ananafoɔ	-10.666
▁awadeɛ	-10.666
▁Tamar	-10.6662
▁pin	-10.6665
▁míakpɔ	-10.6679
▁akronkronneɛ	-10.6679
▁tɔgbe	-10.6682
▁boaboa	-10.6682
▁ɔgyaa	-10.6684
▁ebi	-10.6687
▁asubɔ	-10.6696
▁dabi	-10.6698
gagblɔ	-10.6704
▁nusrɔ̃la	-10.6705
▁ɛkyerɛ	-10.6705
▁lãnyiƒe	-10.6709
rentumi	-10.6712
▁guni	-10.6715
▁ɔnim	-10.672
▁naɖu	-10.6721
▁puhiri	-10.6723
▁mmusuo	-10.6725
asomfoɔ	-10.6726
▁nantwinini	-10.6728
barima	-10.6729
adwene	-10.6743
▁dɔwɔwɔwo	-10.6744
▁ɔgyee	-10.6756
▁hwɛɛ	-10.6756
▁ŋutinya	-10.6763
▁wan	-10.6764
susɔ	-10.6772
▁Ɛdom	-10.6773
▁ŋgɔgbevi	-10.6776
▁zaŋmiya	-10.6778
▁Wul	-10.6781
▁Yona	-10.6791
▁totorobɛnto	-10.6791
▁nnim	-10.6793
▁yih	-10.6799
▁Woɖe	-10.6804
▁buta	-10.6808
▁ɔbɛnya	-10.681
▁woazu	-10.6815
▁amu	-10.6819
▁ɛsi	-10.6822
▁Po	-10.6838
▁gliwo	-10.6842
▁mewò	-10.6844
▁wòɖu	-10.6846
▁dem	-10.6846
▁ena	-10.6851
▁yiŋnim	-10.6855
▁Yu	-10.6858
▁fiƒode	-10.6858
▁asaawa	-10.6858
▁Yɔdan	-10.6859
▁heva	-10.6863
▁monkɔ	-10.6865
▁manye	-10.6871
▁mesrɛ	-10.6877
▁karibu	-10.6877
▁suli	-10.6884
▁ketɔwo	-10.6893
nan	-10.6897
ƒã	-10.6898
▁Ami	-10.6899
▁Monkɔ	-10.6902
▁nwi	-10.6903
▁biɛrim	-10.6904
likauli	-10.691
▁aduosia	-10.6925
▁pɛpɛɛpɛ	-10.6925
▁Axab	-10.6925
▁Anaasɛ	-10.6925
▁amena	-10.6928
▁Ammɔnnim	-10.6928
▁ntonto	-10.6928
▁beaeɛ	-10.6931
▁Metsɔ	-10.6932
▁adwaman	-10.6935
▁gbi	-10.6935
▁made	-10.6942
▁wonim	-10.6943
▁ʋuu	-10.6955
▁Bu	-10.696
ʋã	-10.6966
▁mote	-10.6967
▁wɔfa	-10.6969
▁Ebia	-10.6975
▁akpoxɔnu	-10.6976
dzro	-10.6979
▁subɔ	-10.698
▁yɛka	-10.6981
▁mefiri	-10.6988
alikauli	-10.6989
kyea	-10.699
▁ʋɛ	-10.6993
▁ɖeviwo	-10.6995
▁yeawɔ	-10.6997
▁wòbia	-10.6999
▁daalikauli	-10.7004
▁danee	-10.701
▁Mere	-10.7011
▁badwa	-10.7014
▁menyɛ	-10.7027
▁miga	-10.7029
nyane	-10.7043
▁gar	-10.7043
▁Miaƒ	-10.7054
▁hyiae	-10.7054
▁Rut	-10.7061
▁Teeku	-10.7061
▁blaadre	-10.7061
▁barina	-10.7067
gye	-10.7067
▁Elam	-10.7078
▁mpan	-10.708
▁odwan	-10.7081
▁atike	-10.7089
▁nayi	-10.709
▁Lea	-10.7092
lli	-10.7094
▁tɔ́	-10.7096
▁ameka	-10.7101
▁Ah	-10.7106
▁memee	-10.7108
▁dzogoe	-10.7112
itɔwo	-10.7113
▁Mɔab	-10.7115
gado	-10.7121
hunta	-10.7126
▁prɛko	-10.713
▁Ɛhab	-10.713
▁blaene	-10.713
▁yafunu	-10.7131
▁srɔ̃wo	-10.7131
▁woakɔ	-10.7133
▁anidie	-10.7139
▁Jɛrusalɛmnim	-10.714
nini	-10.714
pem	-10.7143
▁wòdzi	-10.7152
▁rentumi	-10.7154
▁tentene	-10.7154
▁agbɔ	-10.7158
▁koko	-10.7158
▁ƒua	-10.7158
▁ƒle	-10.7159
▁amedzrowo	-10.7162
ran	-10.7165
▁mano	-10.7166
wi	-10.7171
▁cheechi	-10.7171
▁ŋutinye	-10.7177
▁noya	-10.7184
▁ahasi	-10.7191
▁anyigbeme	-10.7198
▁Yosafat	-10.7198
▁vɔvɔli	-10.7198
▁atwene	-10.72
▁nohoa	-10.7205
zali	-10.7208
▁abosom	-10.7209
▁basa	-10.7209
▁vodadawo	-10.7223
gawɔ	-10.7227
▁wɔbɛtumi	-10.7228
▁anab	-10.7236
toɔ	-10.725
▁wɔtwa	-10.7253
▁dane	-10.7255
▁fiam	-10.7268
▁Kpe	-10.7268
▁kɔbisiyi	-10.7268
iya	-10.7271
▁ʒiɛyimtali	-10.7271
▁ɛha	-10.7273
▁mɛbu	-10.7283
▁aʋawɔlawo	-10.7285
▁meda	-10.7295
atamfoɔ	-10.7305
▁subɔsubɔ	-10.7305
▁dziwo	-10.7317
▁wɔmma	-10.7333
▁abla	-10.7334
▁fũ	-10.7335
▁Vavã	-10.7338
▁zooi	-10.7338
▁míekpɔ	-10.734
▁nkurɔfokuo	-10.7341
adze	-10.7342
▁tuuli	-10.7344
▁abakan	-10.7344
▁wòyɔ	-10.7348
▁Nir	-10.7352
▁mefrɛ	-10.737
▁amfa	-10.7371
▁lɔri	-10.7373
▁Nuka	-10.7378
▁Miawo	-10.7379
▁wòwu	-10.7384
▁pu	-10.7389
▁tɔe	-10.7395
▁katiŋ	-10.7403
▁yimaŋ	-10.7403
▁Yotam	-10.7408
▁nnuhwam	-10.7408
▁ntuanofoɔ	-10.7408
▁teaseɛnam	-10.7408
▁ƒuƒlu	-10.7408
▁nandahima	-10.7408
▁ɔtamfoɔ	-10.7408
▁nufiafia	-10.7409
▁dapul	-10.7409
▁adagya	-10.741
▁mpata	-10.7411
▁Enyo	-10.7415
▁ede	-10.7417
▁tɛhiya	-10.7419
▁sol	-10.742
▁anyitsi	-10.7423
mdi	-10.7427
▁nkuraa	-10.743
▁didim	-10.7433
▁Zal	-10.7438
▁nade	-10.7442
▁yɛnkɔ	-10.7443
▁wɔhunu	-10.7446
▁Filistia	-10.7455
riba	-10.7459
▁ʋlaya	-10.7463
▁wɔbɛdi	-10.7469
▁ahome	-10.7469
klɔ	-10.7475
▁nazu	-10.7476
numake	-10.7478
▁Rubin	-10.7479
▁asɔfotadeɛ	-10.7479
▁burodo	-10.7479
▁Nabal	-10.7479
▁ahonhommɔne	-10.7483
▁yɛne	-10.7483
▁nnwankuo	-10.7484
▁ahosɛpɛ	-10.7492
zo	-10.7494
▁reyɛ	-10.7495
▁woama	-10.7498
▁bom	-10.7501
mo	-10.7506
▁Tɔ	-10.7513
▁tuhili	-10.7521
ɖiɖi	-10.7533
▁Menya	-10.7541
▁Sidon	-10.7543
bobɔ	-10.7544
▁pal	-10.7548
▁Afahyɛ	-10.7551
▁nkasɛɛ	-10.7551
▁Gaad	-10.7551
▁Ɛliɛza	-10.7551
▁nwera	-10.7551
▁fabili	-10.7551
▁adwo	-10.7553
▁naŋgbankpeeni	-10.7554
▁woayɔ	-10.7556
▁kɔhi	-10.7556
ƒome	-10.7563
tra	-10.7565
▁pɔi	-10.7569
▁monim	-10.757
▁nyɔ	-10.7573
▁wɔsom	-10.7577
▁sí	-10.7577
iba	-10.7594
▁miadze	-10.7597
▁mɛka	-10.76
▁anyigbawo	-10.7609
▁Sakaria	-10.7622
▁bidib	-10.7623
hiri	-10.7623
▁Farisiinim	-10.7623
▁nàkpɔ	-10.7627
▁hɔ̃	-10.7635
▁aʋafia	-10.7638
▁moahunu	-10.7643
▁wieeɛ	-10.7644
▁Mika	-10.7644
▁nunɔlagãwo	-10.7645
▁viɛli	-10.7645
gyaa	-10.766
▁bɛbu	-10.7668
▁ɖekae	-10.7679
agyapadeɛ	-10.768
▁wɔama	-10.7681
▁nyiwo	-10.7683
duru	-10.7684
▁Kis	-10.7685
fira	-10.7691
▁Yehoiada	-10.7695
▁Yesaia	-10.7695
▁Yesaya	-10.7695
▁Atwerɛsɛm	-10.7697
▁metrɔ	-10.7697
▁ŋub	-10.7698
▁Kaldeafoɔ	-10.7698
▁Ɛns	-10.7698
▁tɔŋ	-10.7699
▁adrelia	-10.7699
▁Fofonye	-10.7701
▁Miɖe	-10.7702
▁atɛntenenee	-10.7703
▁ɔmma	-10.7706
▁mido	-10.771
▁serɛ	-10.771
▁wɔnnim	-10.7711
▁ŋutɔwo	-10.7713
▁asane	-10.7715
▁medɔ	-10.773
fra	-10.7737
▁vɔ̃a	-10.7744
▁nuka	-10.7749
▁matrɔ	-10.7749
▁wɔkum	-10.7758
▁sagban	-10.7766
▁Yefta	-10.7768
▁De	-10.7768
▁Ɛwom	-10.7768
bisa	-10.7769
▁dumienu	-10.7769
▁ntwa	-10.7771
▁mufoɔ	-10.7783
▁bɛda	-10.7784
mpa	-10.7786
▁T	-10.7787
kuku	-10.7789
▁akane	-10.779
▁wòadze	-10.7798
kuli	-10.7798
▁didiƒe	-10.7801
▁xexeame	-10.7809
▁yur	-10.781
tiligi	-10.7824
▁tizo	-10.7824
▁ɔto	-10.7825
▁dzudzɔgbe	-10.7829
▁wuwu	-10.7831
mewo	-10.7837
▁anwea	-10.7841
▁Karmel	-10.7841
▁Sadok	-10.7841
▁ɖekaɖeka	-10.7841
▁gaƒoƒo	-10.7843
▁Salum	-10.7844
▁amamfo	-10.7844
▁mɔ̃	-10.785
▁nakpe	-10.7858
▁Ar	-10.786
▁dɔro	-10.786
▁nteɛ	-10.7861
kel	-10.7863
▁zabiri	-10.7864
▁Miyi	-10.7869
▁tsitsi	-10.7877
▁bimbin	-10.7882
wia	-10.7888
▁aʋawɔla	-10.7904
▁yiyi	-10.7905
▁nkontompo	-10.791
▁Jɛhɔshafat	-10.7916
▁Timoteo	-10.7916
▁gudugudu	-10.7916
▁Adoniya	-10.7917
▁ohiani	-10.7917
▁jɛra	-10.7917
▁kwata	-10.7921
▁pasaa	-10.7923
▁mobɛhunu	-10.7926
▁Ho	-10.7926
yiyi	-10.7929
▁amehawo	-10.7932
▁Asera	-10.7943
▁gbeƒãɖelawo	-10.7944
▁adzoe	-10.7945
▁yiya	-10.7948
▁Ɛnneɛ	-10.7948
▁tir	-10.7956
▁kalẽtɔ	-10.7976
bihi	-10.7984
▁toɔ	-10.7986
▁Ramot	-10.799
▁shihirili	-10.799
▁nuteƒewɔwɔ	-10.799
▁xɔlɔ̃	-10.7991
▁mfitiaseɛ	-10.7991
▁megali	-10.7999
kafu	-10.8002
koto	-10.8002
▁woakplɔ	-10.8007
▁nuteƒe	-10.8015
▁afu	-10.8031
ig	-10.8032
▁dɔr	-10.8044
▁dwuma	-10.806
▁borɔdɔma	-10.8065
▁Sebulon	-10.8065
▁Safan	-10.8065
▁samban	-10.8066
▁wòado	-10.8066
bɛsane	-10.8068
▁enyo	-10.8068
▁atɔ̃lia	-10.8069
▁nnwom	-10.8069
▁tibi	-10.807
▁madzɔmadzɔ	-10.8071
daadaa	-10.8072
▁wosi	-10.8073
▁mmaŋmaŋ	-10.8074
▁fasuo	-10.8076
▁Woŋlɔ	-10.8077
asefoɔ	-10.8079
▁piɛ	-10.8079
ame	-10.808
mon	-10.8081
▁yee	-10.8082
▁buni	-10.8084
kamfo	-10.8086
▁Paɣimiy	-10.8091
▁nase	-10.8094
▁egbea	-10.8095
gakpɔ	-10.8097
▁Ɔba	-10.8099
▁amaŋ	-10.8102
▁Wɔka	-10.8102
▁wodzo	-10.8105
▁Eny	-10.8117
duwo	-10.8118
hyerɛn	-10.8118
▁tatɔwo	-10.813
▁aʋakɔwo	-10.8131
▁biɛ	-10.8131
▁mebu	-10.8135
▁wòkɔ	-10.8136
▁ahantan	-10.8137
▁tumd	-10.8139
▁Mbusim	-10.8141
▁suhugarigu	-10.8141
▁vovo	-10.8141
▁abotire	-10.8141
▁asieke	-10.8142
▁akɔnnɔ	-10.8145
▁ɛbɛn	-10.815
▁wɔto	-10.8163
▁akpata	-10.8163
▁nyanyui	-10.8165
▁nunyalawo	-10.8166
▁kakraa	-10.8168
▁adwumayɛfoɔ	-10.8169
▁madi	-10.8171
▁sitsoƒe	-10.8172
▁ahanan	-10.8176
ɔkɔɔ	-10.818
▁lɔ̃a	-10.8181
▁ɛkɔ	-10.8181
▁Nun	-10.8186
bosome	-10.8192
▁akaɖi	-10.82
akpe	-10.82
▁dziɖula	-10.8201
▁ɖaseɖiɖi	-10.8202
▁aseda	-10.8209
ɣisi	-10.8209
▁metee	-10.8212
▁Galili	-10.8217
▁dzadzɛ	-10.8217
▁ntentensoɔ	-10.8217
▁nufosuo	-10.8217
▁yinoyino	-10.8217
▁kwaeɛ	-10.8223
▁mà	-10.8223
▁Megblɔ	-10.8226
▁ɔkum	-10.823
▁eyi	-10.8231
▁ƒeme	-10.8237
▁modi	-10.824
▁sansani	-10.824
▁kali	-10.8245
▁zaɣis	-10.8247
▁tuhiri	-10.8252
▁nyom	-10.8253
▁mianya	-10.8253
▁maxɔ	-10.8257
▁wɔhwɛ	-10.8266
▁Woma	-10.8268
▁kplɔe	-10.8273
tiatia	-10.8279
▁nyame	-10.828
▁tsɔa	-10.8285
▁wotia	-10.8289
hyiaa	-10.8291
ɖeɖe	-10.8291
▁Baruk	-10.8294
▁Nɛbukadnɛza	-10.8294
▁dundɔŋ	-10.8294
▁twetia	-10.8295
▁bɔhim	-10.8295
▁Ɛ̃	-10.8296
▁eŋkume	-10.8296
▁takɔbiri	-10.8303
▁bɛhyia	-10.8303
▁Naaman	-10.8304
hennie	-10.8307
▁ɛhyeɛ	-10.8307
▁nyuli	-10.8309
▁aniwa	-10.8318
▁woɖii	-10.832
▁miwɔ	-10.832
▁woabu	-10.834
rehwehwɛ	-10.8342
twitwa	-10.8347
home	-10.8353
▁mihi	-10.836
toa	-10.8364
▁ɔrekɔ	-10.8366
▁menyae	-10.8369
▁Samsin	-10.8372
▁dwoodwoo	-10.8372
▁ɣemaɣi	-10.8372
▁kɔkuti	-10.8372
▁tampiŋ	-10.8372
▁ɛwoɔ	-10.8374
▁gɔhi	-10.8374
▁mieva	-10.8375
▁Mikafu	-10.8375
▁Jɛhu	-10.8377
▁yimaŋa	-10.8377
▁goma	-10.8378
▁hedo	-10.838
▁malaikanim	-10.838
▁Saha	-10.8383
▁ƒuwo	-10.8391
hwɛɛ	-10.8395
▁ʋeʋẽe	-10.84
livi	-10.8403
adeɛ	-10.8411
▁notsi	-10.8415
▁Wone	-10.8426
▁moli	-10.8429
nkum	-10.8434
▁meyɔ	-10.8438
▁Yabes	-10.845
▁vevesese	-10.845
▁Ŋusẽkatãtɔ	-10.845
▁Kades	-10.845
nyà	-10.8451
▁tɔgbi	-10.8452
▁Doo	-10.8455
▁wotɔ	-10.8456
▁puhibu	-10.8457
▁nwunu	-10.8459
▁hlẽ	-10.846
▁kuɣili	-10.8471
▁tɔhi	-10.8474
▁Su	-10.8487
▁binom	-10.849
▁pahiri	-10.8493
▁wuiɛ	-10.8497
▁kyekyeree	-10.8497
▁zina	-10.85
▁dunianim	-10.8501
▁ɛsɔ	-10.8505
▁ayɔ	-10.8509
▁ɖeɖi	-10.8518
▁gban	-10.8522
▁bie	-10.8526
▁Saimɔn	-10.8529
▁azichi	-10.8529
▁gbedeasi	-10.8529
▁pintinn	-10.8529
▁Nadab	-10.8529
▁biɛhiŋ	-10.8529
▁Amɔrinim	-10.8529
▁nègblɔ	-10.853
▁wɔbɛgye	-10.8532
▁yɛnnim	-10.8533
▁ɔmanfoɔ	-10.8537
▁Edo	-10.8537
▁ɛteɛ	-10.8541
san	-10.8541
▁Monn	-10.8544
▁blane	-10.8547
▁ƒomeawo	-10.8558
▁tɔwò	-10.8561
▁Wodo	-10.8566
▁wòto	-10.8567
▁vinyɔnuwo	-10.858
▁tɔnye	-10.8583
▁wɔtee	-10.8588
▁míayi	-10.8589
▁miɖe	-10.859
inim	-10.8604
▁Asamando	-10.8608
▁Xebron	-10.8608
▁Kohat	-10.8608
▁Abisai	-10.8608
nsane	-10.8609
▁Ɔbɛ	-10.8611
▁mawuxɔ	-10.8614
▁nèdo	-10.8615
▁gyinagyina	-10.8617
▁nàyi	-10.8619
▁abufuhyeɛ	-10.8622
▁aʋala	-10.8622
▁ŋmari	-10.8625
afa	-10.8626
▁ɖuɖu	-10.8629
▁kɔkɔɔ	-10.863
▁ɖoe	-10.8631
▁ʋe	-10.8641
▁ŋmɛri	-10.8643
▁wohe	-10.8644
▁Aai	-10.8649
▁kuhiri	-10.8661
▁rebɛ	-10.8665
▁wira	-10.8674
wɛn	-10.8675
▁makplɔ	-10.8675
▁wòaɖu	-10.8676
▁nteaseɛ	-10.8688
▁Zɛdɛkia	-10.8688
▁kekeake	-10.8688
▁agbenɔnɔ	-10.869
▁kodoɔ	-10.8692
sum	-10.8693
▁mɔɣili	-10.8695
nyɔnu	-10.87
gã	-10.8701
▁Meɖo	-10.8706
▁yaɣili	-10.8707
▁nasase	-10.8707
▁moan	-10.8707
▁tanye	-10.8708
▁pea	-10.8712
▁paa	-10.8713
▁wayi	-10.8714
▁gãa	-10.8714
▁ɖusi	-10.8715
▁wɔtwe	-10.8715
▁wòda	-10.8736
▁nsane	-10.8736
▁ɣaɣla	-10.8747
bali	-10.8749
▁Medi	-10.875
▁ƒomewo	-10.8752
▁Ɔma	-10.8754
▁ahosi	-10.8756
▁Amnon	-10.8769
▁tɛtrɛtɛ	-10.8769
▁kurimbuni	-10.8769
▁wòayi	-10.8771
▁kanea	-10.8771
siee	-10.8773
▁jɛmd	-10.8773
▁fapem	-10.8775
▁ɖiɖim	-10.8778
▁lãhawo	-10.8778
▁Yaa	-10.8779
▁bɛfa	-10.879
▁hwa	-10.8793
gadze	-10.8796
▁kɔfa	-10.8797
▁sra	-10.8798
▁yoma	-10.88
▁bah	-10.8801
▁bɛgu	-10.8811
▁twee	-10.8813
▁wɔgyaa	-10.8813
▁La	-10.8814
vɔsa	-10.8815
▁atim	-10.8835
gavɔ̃	-10.8842
▁turi	-10.8845
▁gul	-10.8846
▁ɛhia	-10.8847
▁Anuanom	-10.885
▁ntweneduro	-10.885
▁dɔɣiriba	-10.8852
aɣigari	-10.8854
▁dɔvɔ̃	-10.8862
▁nɔvinyɔnu	-10.8862
▁paɣibu	-10.8862
▁akodeɛ	-10.8864
▁Herode	-10.8868
▁subɔlawo	-10.888
▁yɛbɛ	-10.8889
▁woligi	-10.8891
nyã	-10.8903
A	-10.8911
▁nàɖe	-10.892
toaa	-10.8923
aso	-10.8924
▁taŋ	-10.8927
▁ablɔɖe	-10.8929
▁maku	-10.893
▁Hesbon	-10.8932
▁nusianu	-10.8934
▁kɔnnua	-10.8937
▁teeg	-10.8943
▁zaashee	-10.8944
dzidze	-10.8956
▁yimaŋmaŋ	-10.8966
▁Og	-10.8972
▁pihi	-10.8983
▁matsrɔ̃	-10.8989
▁mmɔborɔhunu	-10.9009
▁menkɔ	-10.9011
kyekyere	-10.9012
▁Makedonia	-10.9015
▁ateneneefoɔ	-10.9015
▁fabila	-10.9015
▁aberanteɛ	-10.9017
▁ŋutsuawo	-10.9018
▁Eva	-10.9021
▁ŋuta	-10.9021
▁kpekpeme	-10.9023
▁kuna	-10.9029
▁ʋĩi	-10.903
▁kalẽtɔwo	-10.9033
ye	-10.9034
▁nuƒoƒo	-10.9037
rigi	-10.9042
▁Mɔ	-10.9044
▁awie	-10.9046
▁mohunu	-10.9048
bɛsɛe	-10.9052
▁Nna	-10.9055
pɔn	-10.9056
▁ŋubiri	-10.9057
▁tra	-10.9058
doli	-10.9063
▁wɔnya	-10.9066
▁lifi	-10.9066
ru	-10.9069
yim	-10.9083
▁anan	-10.9089
sim	-10.909
▁balime	-10.9093
▁Hiburɔn	-10.9098
▁gahinda	-10.9098
▁ɔkwasea	-10.9098
▁dwanekɔbea	-10.9098
▁Zebulon	-10.9098
▁biɛtali	-10.9099
▁mpanimf	-10.9099
▁teeɛ	-10.9104
▁woɖi	-10.9107
ayra	-10.9108
▁exɔ	-10.9119
▁kpui	-10.9133
w	-10.9137
zuɣu	-10.9144
▁nuto	-10.9151
▁ɔtwe	-10.9153
ɖoɖo	-10.9158
soa	-10.916
▁wumbu	-10.9163
▁nɔvinye	-10.9164
▁womega	-10.9166
oo	-10.9173
▁Mesulam	-10.9182
▁biŋkɔbbaligu	-10.9182
▁ehavi	-10.9182
▁kɔbisinahi	-10.9182
▁ohoni	-10.9182
▁nturo	-10.9183
▁miegblɔ	-10.9184
▁Mmara	-10.9185
▁teaa	-10.9188
▁hiãtɔwo	-10.9194
▁ɔdane	-10.9197
▁siae	-10.9206
▁naxɔ	-10.921
nsa	-10.9214
▁wɔtena	-10.9222
▁dzidzi	-10.9222
▁naɣilaa	-10.9229
▁tɔɔ	-10.9241
▁Zaŋ	-10.9247
il	-10.9248
▁dum	-10.925
tene	-10.9251
laku	-10.9258
▁afisia	-10.9259
▁Lɛbanɔn	-10.9267
▁Tarsis	-10.9267
▁tegbetegbe	-10.9267
▁vuui	-10.9267
▁mawufiaɖuƒe	-10.9267
▁suɣilo	-10.9267
fire	-10.9269
▁gbɔgblɔ	-10.927
sigbe	-10.927
▁alali	-10.927
▁Mido	-10.9281
▁ɔbrɛ	-10.9282
▁nkyɛ	-10.9286
▁Maaka	-10.9292
ɔn	-10.9293
▁agyan	-10.9299
▁Nyateƒe	-10.93
▁hyɛeɛ	-10.9303
▁viwoe	-10.9304
▁Uria	-10.9305
▁lɔlɔ̃tɔ	-10.9307
woso	-10.9312
dwa	-10.9316
▁kɔri	-10.9316
▁asrafo	-10.9319
▁nhyia	-10.9322
▁dab	-10.9324
sesẽ	-10.9324
▁wɔnkɔ	-10.9326
▁natso	-10.9331
wum	-10.934
▁dzidzimevi	-10.9351
▁ɔbonsam	-10.9352
▁mmɔden	-10.9353
▁blaade	-10.9353
▁Woatsɔ	-10.9354
▁masi	-10.9354
▁paŋ	-10.9355
bɛkum	-10.9357
▁nhini	-10.9359
▁ahotefoɔ	-10.9361
▁wɔbɛhunu	-10.9361
▁Miva	-10.9361
▁Nil	-10.9364
▁pɔ	-10.9365
▁siawoe	-10.9366
▁togbɛwo	-10.9368
▁nuwɔnawo	-10.9375
▁meɖi	-10.9376
▁ɔtee	-10.9377
▁ɖevia	-10.9384
▁Alea	-10.9388
nyawo	-10.94
▁gbarigi	-10.9401
nku	-10.9405
▁tadua	-10.9407
▁chɛri	-10.941
afiri	-10.9411
gble	-10.9412
▁nadɔeɛ	-10.9415
dum	-10.9418
▁woho	-10.9421
▁ŋudzɔ	-10.9433
▁tsiẽƒe	-10.9438
▁wisie	-10.9439
▁wedeɛ	-10.9439
▁kɛseyɛ	-10.944
▁pɛn	-10.9442
▁ʒiɛya	-10.9446
▁dunan	-10.9447
▁jaaŋgbee	-10.9448
▁xevi	-10.9453
▁mɛba	-10.9453
▁daadamnim	-10.9458
▁mehe	-10.9462
pono	-10.9467
team	-10.947
ot	-10.9471
▁amapa	-10.9475
▁aɖabɛ	-10.9475
▁Kus	-10.9485
▁dansi	-10.9486
▁kɔhyia	-10.949
kplɔe	-10.9492
▁suetɔ	-10.9496
▁Ɛbɛy	-10.9496
hwete	-10.95
twam	-10.9501
▁wɔbɛfa	-10.9504
▁hoo	-10.9507
▁agblẽ	-10.9511
▁yɛlimi	-10.9512
▁ƒuƒu	-10.9516
▁kpem	-10.9524
▁Ahaz	-10.9525
▁Hezekia	-10.9525
▁nnɔmmarima	-10.9525
▁Nyanyui	-10.9525
▁tene	-10.9526
▁kpiŋkpama	-10.9526
▁Haran	-10.9526
ara	-10.9529
▁nagblɔ	-10.9534
▁atwerɛ	-10.9535
▁ahum	-10.9535
▁ankyerɛ	-10.9535
▁wɔan	-10.9552
▁ɔsɔre	-10.9552
▁menyo	-10.9553
▁Ɔbaa	-10.9559
▁D	-10.956
▁natsi	-10.956
pamo	-10.9566
▁fali	-10.9566
▁mafa	-10.9567
ŋa	-10.9567
▁adwamammɔ	-10.957
mm	-10.9571
▁nugbe	-10.9572
▁Ela	-10.9573
▁wogbã	-10.9577
▁kɔbili	-10.9581
▁kɛse	-10.9586
▁teti	-10.9587
▁Satana	-10.9591
▁gɔ	-10.9591
gayi	-10.9591
▁kanya	-10.9597
sia	-10.9598
▁nenemae	-10.96
▁mehunu	-10.9602
shi	-10.9606
▁Hɛrɔd	-10.9613
▁Ibram	-10.9613
▁Vinvamli	-10.9613
▁Yesreel	-10.9613
▁ŋuʋaʋã	-10.9613
▁woasubɔ	-10.9614
▁asubɔnten	-10.9615
▁kamina	-10.9616
▁aniwuo	-10.9618
▁ayeyie	-10.9619
▁adwennini	-10.9619
▁matso	-10.9621
▁afebɔɔ	-10.9624
▁biabia	-10.963
▁ahonyadeɛ	-10.9645
▁Mese	-10.9645
▁bɛwu	-10.9646
▁sɔŋdi	-10.9659
hohoro	-10.9659
gyee	-10.966
▁wɔato	-10.966
brɛ	-10.9662
▁anibereɛ	-10.9672
▁tuhibu	-10.9674
▁woƒu	-10.9682
▁togbɛ	-10.969
▁ŋahi	-10.97
▁Bɛtɛl	-10.9702
▁nambɔzɔbo	-10.9702
▁Arnon	-10.9702
▁nnwammaa	-10.9702
lũ	-10.9702
▁Omri	-10.9702
▁kulibɔŋ	-10.9702
▁Dzo	-10.9702
▁kosi	-10.9702
▁molo	-10.9703
▁nuabarima	-10.9704
▁drɔ̃	-10.9708
▁kuhigu	-10.9711
▁Gbeɖe	-10.9713
▁Susa	-10.9721
dede	-10.9725
▁zilima	-10.9726
▁woatɔ	-10.975
▁metia	-10.9751
▁bɔr	-10.9755
▁kpekpe	-10.9768
j	-10.9773
gatsi	-10.9779
▁Abi	-10.9786
▁Ẽ	-10.9791
▁Aminadab	-10.9791
▁Ekron	-10.9791
▁Baasa	-10.9791
▁Mawudɔla	-10.9792
▁anisoadehunu	-10.9793
▁mpomma	-10.9795
▁fewu	-10.9795
▁gbogboawo	-10.9795
▁èwɔ	-10.9795
▁toe	-10.9797
mmoa	-10.9798
▁baalim	-10.98
▁monnyɛ	-10.9803
▁wòɖi	-10.9809
▁nanomu	-10.981
▁mmakan	-10.9813
▁Nɔvi	-10.9821
▁binnyura	-10.9825
▁ʒiya	-10.9842
▁ɔkasa	-10.9843
▁yuu	-10.9847
▁wɔhwehwɛ	-10.9851
▁nuwɔwɔ	-10.9855
▁ahohiahia	-10.9855
gbalẽ	-10.9866
▁asisi	-10.9867
▁gblɔna	-10.9871
▁wamma	-10.9878
hyɛn	-10.9879
▁sua	-10.9879
▁Pailɛt	-10.9881
▁Sisera	-10.9881
▁blɔtɔ	-10.9881
▁wɔantie	-10.9881
▁Chamiya	-10.9881
▁Barak	-10.9882
▁woalé	-10.9882
▁nkwaseafoɔ	-10.9882
▁piri	-10.9882
▁bimbina	-10.9883
▁nèɖe	-10.9884
▁mpia	-10.9888
▁Farisitɔwo	-10.9888
hyeɛ	-10.989
▁makoa	-10.9892
▁alɔme	-10.9895
pra	-10.9904
▁amrado	-10.9906
▁nahindi	-10.9914
▁ɛbɛm	-10.9915
mfoɔ	-10.9926
▁woaku	-10.993
▁tinzunnim	-10.9932
▁wɔnnya	-10.994
▁ɔbua	-10.9948
▁kɔƒe	-10.996
▁Gomora	-10.9972
dwerɛ	-10.9972
▁Ayuba	-10.9972
▁ahuhudeɛ	-10.9972
▁Leeban	-10.9972
▁Elkana	-10.9972
▁Kundi	-10.9973
▁nhyehyɛeɛ	-10.9973
▁asotwe	-10.9979
▁tɔʋu	-10.9983
▁onua	-10.9983
▁tari	-10.9984
▁woatsi	-10.9987
abufuo	-10.9992
▁Kɔkɔeƒe	-10.9994
▁ahansia	-10.9995
▁ŋari	-10.9999
▁tamdi	-11.0002
▁kpaŋsi	-11.0006
▁monhunu	-11.0008
hyɛne	-11.0017
▁abɔdeɛ	-11.0024
▁abia	-11.0032
▁ɔnnim	-11.0033
twɛn	-11.0035
▁woada	-11.0039
kenkan	-11.0044
▁kesinɔtɔ	-11.0047
▁Nokorɛ	-11.0049
▁waingble	-11.0049
vuvu	-11.005
▁bɛdane	-11.0054
▁Ham	-11.0056
▁mɛyi	-11.0056
erɛ	-11.0061
▁Kul	-11.0063
▁ɔkyena	-11.0064
▁dziŋgɔli	-11.0064
▁nhwiren	-11.0064
▁saamba	-11.0064
▁kamaata	-11.0064
▁akodie	-11.0064
▁wòate	-11.0066
wuo	-11.0067
▁yeaɖe	-11.0067
▁nèkpɔ	-11.0068
▁trɔ̃subɔlawo	-11.0068
▁yeakpɔ	-11.0068
▁Mixa	-11.0069
▁memfa	-11.0071
tiri	-11.0073
▁Kain	-11.0073
▁Maɖe	-11.0074
▁aane	-11.0077
▁kpoo	-11.0078
▁pampam	-11.0083
▁adekyeeɛ	-11.0085
▁kikaa	-11.0088
▁were	-11.0093
▁tanti	-11.0096
▁funu	-11.0103
▁wòdi	-11.0113
▁alɔwo	-11.0119
noa	-11.0125
bɛduru	-11.0135
▁ƒuƒoƒe	-11.0136
▁ʋɔnudrɔ̃la	-11.014
▁wuɣi	-11.0143
▁adzi	-11.0149
▁Amazia	-11.0156
▁Efeso	-11.0156
▁nublanuikpɔkpɔ	-11.0157
▁mato	-11.016
▁binshɛlikam	-11.0162
▁Owura	-11.0163
▁ɛfata	-11.0164
▁Bra	-11.0164
▁rekorɔ	-11.0166
▁rekasa	-11.0166
▁nyivi	-11.0166
▁atemmufoɔ	-11.0171
▁ʋɔnudrɔ̃lawo	-11.0173
▁meɖu	-11.0186
▁naɣilahi	-11.0201
▁kuŋ	-11.0206
▁sida	-11.0211
adɔeɛ	-11.0211
▁woaga	-11.022
▁Sem	-11.022
▁gbana	-11.022
▁karim	-11.0222
▁wɔafa	-11.0225
asase	-11.0232
▁aŋutrɔ	-11.0233
▁amaŋmaŋ	-11.0238
▁Abimelex	-11.025
▁Gidiɔn	-11.025
▁Asaria	-11.025
▁Agyenkwa	-11.0251
▁ayitoma	-11.0252
▁alaka	-11.0253
▁ahwe	-11.0255
▁Mariama	-11.0257
▁nsusuiɛ	-11.0258
▁womete	-11.0258
tɔɔ	-11.0258
▁omununkum	-11.0264
▁ènya	-11.0265
▁yidana	-11.0268
▁ɛbɔ	-11.0275
▁glia	-11.0282
▁ɖekakpuiwo	-11.0284
akwan	-11.0284
ganye	-11.0287
▁meto	-11.0288
tosoɔ	-11.0296
▁duŋ	-11.0301
▁wofa	-11.0306
ligi	-11.0307
▁ʋee	-11.0311
tena	-11.0314
▁wɔagye	-11.0316
▁moany	-11.0324
▁nɔviŋutsu	-11.0328
▁laara	-11.0328
ebat	-11.0331
▁wonya	-11.0331
▁ahom	-11.0331
▁keka	-11.0341
abu	-11.0342
▁aklala	-11.0343
▁Lã	-11.0344
▁Yerixo	-11.0344
▁sarika	-11.0344
▁suntidua	-11.0344
▁Jɛriko	-11.0344
▁Biɛhi	-11.0344
▁Jɔsia	-11.0345
▁ʋɔtru	-11.0345
▁zilinli	-11.0345
▁dɛde	-11.0345
▁ahohia	-11.0349
▁Mesrɛ	-11.0351
▁En	-11.0351
▁Filisti	-11.0351
▁nnepa	-11.0353
lisi	-11.0354
▁ɔbɛgye	-11.0355
▁akpanya	-11.0365
ada	-11.0366
▁wiee	-11.037
▁wòka	-11.0372
▁wohunu	-11.0373
▁daantalisi	-11.0373
▁ɔsuro	-11.038
▁Sei	-11.0383
▁nuawo	-11.0386
▁womaga	-11.0393
sakyera	-11.0394
▁bibi	-11.0396
▁kumaa	-11.0399
mmisa	-11.0399
▁efa	-11.04
▁esiam	-11.041
▁No	-11.0412
▁As	-11.0413
▁miena	-11.0426
▁Azaria	-11.0439
▁Damaskus	-11.0439
▁Hilkia	-11.0439
▁nachimbil	-11.0439
▁pefee	-11.0439
▁Benaia	-11.0439
▁sɔhira	-11.0439
▁Nufiala	-11.0439
▁Araba	-11.0441
▁Isakar	-11.0442
▁tiee	-11.0444
▁heɖo	-11.0447
▁eku	-11.0461
▁ɔtua	-11.0462
▁mmasoɔ	-11.0462
gade	-11.0463
▁daliri	-11.0471
▁paɣir	-11.0471
pan	-11.048
▁asɔre	-11.0483
▁ɔnkɔ	-11.0484
kpi	-11.0491
▁wɔabu	-11.0496
▁metu	-11.0497
▁wòtu	-11.0505
tsu	-11.0513
▁wie	-11.0515
tà	-11.0519
▁pari	-11.0524
animuonyam	-11.0525
▁bahiri	-11.0526
▁Nyema	-11.0526
▁gbogbo	-11.0531
▁Zu	-11.0531
▁atwam	-11.0532
▁Asdod	-11.0535
▁atitsoga	-11.0535
▁nokwafoɔ	-11.0535
▁tarimba	-11.0535
▁Ahazia	-11.0536
▁wòaɖo	-11.0536
▁Hagar	-11.0537
▁Mommma	-11.0538
▁yaansi	-11.054
▁Nsuro	-11.0544
▁ntotorobɛnto	-11.0548
▁ɖusime	-11.0549
▁Siriafoɔ	-11.055
▁wɔanhunu	-11.0552
▁wanya	-11.0562
ree	-11.0564
▁kuriti	-11.0565
▁ʋɔ	-11.0567
▁Meyɛ	-11.0568
▁gagblɔ	-11.057
▁Mawue	-11.057
nyini	-11.0576
▁tiba	-11.0577
▁nàna	-11.0581
▁mɔɣ	-11.0583
▁miaxɔ	-11.0585
ʋli	-11.0588
mɔn	-11.059
ŋma	-11.0591
▁Ɛnnɛ	-11.0591
▁Ko	-11.0592
▁keme	-11.0594
▁woahunu	-11.0595
▁wɔnte	-11.0606
▁mebia	-11.0613
▁ntɔ	-11.0615
klẽ	-11.0616
imaani	-11.0617
▁Amasa	-11.0622
rebɔ	-11.0625
▁alahichinim	-11.0628
▁bɛsɔre	-11.0629
▁Isaka	-11.0629
▁Gedalia	-11.0633
▁Benaya	-11.0633
▁Hiram	-11.0634
▁madze	-11.0635
▁maʋamaʋã	-11.0635
▁apete	-11.0636
▁wasase	-11.0637
▁gbemelãwo	-11.0638
▁fidie	-11.0639
▁tsɔtsrɔ̃	-11.064
▁akumaa	-11.064
▁dziŋɔ	-11.0642
▁yɔhim	-11.0644
▁xexeme	-11.0644
▁wòsi	-11.0645
▁sededewo	-11.0648
nna	-11.0654
▁wòaga	-11.0673
▁wɔla	-11.0679
▁nadeɛ	-11.0682
▁zana	-11.0684
▁sem	-11.0697
▁ɔyi	-11.07
▁zɔnim	-11.0703
aba	-11.0703
▁lɔn	-11.0709
▁mopɛ	-11.0709
▁Aho	-11.0719
ɖuɖu	-11.0719
▁dwa	-11.0719
▁asrafowo	-11.0721
▁tilig	-11.0721
kyiri	-11.0722
yam	-11.0726
▁numemevɔsa	-11.0727
har	-11.0728
▁ashilɔni	-11.0731
▁eŋkɔ	-11.0731
▁tɔdziʋu	-11.0731
▁ahwiesa	-11.0731
▁siliga	-11.0731
▁gbuɣinli	-11.0732
dwene	-11.0732
▁kpɔtɔ	-11.0735
▁Yerusalemfoɔ	-11.0735
eve	-11.0737
▁bɔkɔɔ	-11.0739
▁chihi	-11.0741
▁ɔkura	-11.0742
▁atwe	-11.0745
▁akyɛ	-11.0751
▁jɛndi	-11.0761
▁sam	-11.0767
lon	-11.0767
▁tire	-11.0768
▁amama	-11.077
▁boro	-11.077
▁matu	-11.0772
▁Re	-11.0773
▁gɔmedzedzea	-11.0774
▁subɔsubɔdɔ	-11.078
▁mɛto	-11.0781
▁milé	-11.0782
▁wɔsii	-11.0783
gava	-11.0783
▁Ameawo	-11.0796
▁wozu	-11.0801
▁abo	-11.0802
▁mekpe	-11.0814
▁Gaw	-11.0824
egale	-11.0828
▁El	-11.0828
mia	-11.0828
▁gbãtɔwo	-11.0828
▁ble	-11.0828
▁Agbadɔ	-11.083
▁Mizpa	-11.083
▁Yehoram	-11.083
▁Zakaria	-11.083
▁ntwamutam	-11.083
▁Ɔsoro	-11.083
▁binnɛma	-11.083
▁nhoma	-11.083
▁aburoo	-11.083
▁blukɔ	-11.083
▁pisopɔin	-11.0831
▁nkyɛmu	-11.0831
dada	-11.0832
▁womeɖo	-11.0833
▁Eliab	-11.0833
▁sukɔm	-11.0836
▁onipadua	-11.0842
▁wahyɛ	-11.0855
tri	-11.0861
▁Hanania	-11.0866
▁buri	-11.0866
▁didime	-11.0869
kwan	-11.0873
▁wɔbisa	-11.0874
▁woto	-11.0878
▁nyama	-11.0883
▁menhunu	-11.0886
▁bliboa	-11.0891
rema	-11.09
▁yɔm	-11.0902
▁ŋusẽtɔ	-11.0905
▁Timna	-11.0914
▁tipawumli	-11.0926
sodie	-11.0927
▁kɔbisiyɔbu	-11.093
▁tuɣindi	-11.093
▁Mispa	-11.093
▁Semaia	-11.093
▁Bepɔ	-11.093
▁dabindi	-11.093
▁teƒea	-11.093
▁karimbaani	-11.093
▁Wummiya	-11.0931
▁fɔɖiɖi	-11.0931
▁Semaya	-11.0932
▁dunum	-11.0933
▁mise	-11.0934
▁Kerubim	-11.0935
▁zaligubaŋdib	-11.0937
▁adesoa	-11.0937
▁bunsi	-11.0938
▁ahasa	-11.0944
▁wodɔ	-11.0945
▁woatu	-11.0946
▁womenya	-11.0948
▁Enɔ	-11.0949
▁nsɔ	-11.0949
boro	-11.0951
▁anom	-11.0956
▁nànɔ	-11.0958
▁nukunuwo	-11.0966
▁onyansafoɔ	-11.0973
▁kɔrigi	-11.0974
▁firila	-11.0974
▁mpoma	-11.0975
▁wotsrɔ̃	-11.0983
▁wabu	-11.0994
▁wòdzo	-11.0996
▁meku	-11.0996
▁boaa	-11.1001
bɛtumi	-11.1024
xlɔ̃	-11.1024
▁tital	-11.1026
▁awɛi	-11.1031
▁mfɛfoɔ	-11.1031
▁fɛfɛ	-11.1031
▁laasabu	-11.1031
▁bɔbili	-11.1031
▁dzikpɔla	-11.1032
▁aɖatsi	-11.1032
▁nèɖo	-11.1034
▁Babiloniahene	-11.1035
▁Monyi	-11.1036
suro	-11.1042
▁Haf	-11.1046
▁bɛkyɛ	-11.1057
▁Satan	-11.1058
▁wobɛyɛ	-11.1058
▁kpaŋa	-11.1062
▁amiti	-11.1063
▁onyame	-11.1066
▁viwòwo	-11.1068
▁adɔɔso	-11.1068
▁nanima	-11.1068
▁kumsi	-11.1069
▁minɔ	-11.107
▁tɔn	-11.1072
▁mawudɔlawo	-11.1078
▁shihira	-11.1081
▁Míaƒ	-11.1085
▁kumdi	-11.1092
▁mesu	-11.1107
▁ɖim	-11.1109
sesa	-11.111
▁nabi	-11.1112
▁adidi	-11.1115
▁tɔgbuiyɔvi	-11.1116
▁wòtɔ	-11.1123
▁sedede	-11.1126
▁tɔɣis	-11.1128
▁tsɔe	-11.1129
▁Abimilɛk	-11.1133
▁dubaako	-11.1133
▁nnwinneɛ	-11.1133
▁Ŋutifafa	-11.1133
▁ɔsrane	-11.1133
▁triakɔ	-11.1133
▁noonsi	-11.1133
▁Nnome	-11.1133
nsuro	-11.1133
▁Itamar	-11.1133
▁adaŋu	-11.1134
▁fui	-11.1135
▁ɛreba	-11.1137
▁akoradeɛ	-11.1139
▁sãa	-11.1141
▁Keenannim	-11.1142
▁bɔnhwa	-11.1144
▁tsɔtsɔ	-11.1144
▁hewɔ	-11.1145
▁agbadɔwo	-11.1146
▁aye	-11.115
▁dzɔlawo	-11.1155
▁yiini	-11.1158
▁memma	-11.1166
▁Nwom	-11.1168
▁ŋe	-11.1174
▁xɔwo	-11.1176
▁ware	-11.1176
▁wɔagya	-11.1179
▁atsyɔ	-11.1181
itɔ	-11.1189
▁sofoɔ	-11.1192
dad	-11.1196
▁vari	-11.12
▁Shi	-11.1201
▁nyanyuie	-11.1203
▁Menim	-11.1205
lahi	-11.121
▁wɔate	-11.121
▁Yɛa	-11.121
▁kpaai	-11.121
▁ji	-11.1212
▁nuwò	-11.1214
lɔeba	-11.122
▁xɔe	-11.1221
▁hyee	-11.1223
▁gɔmee	-11.1224
▁Monyɛ	-11.1225
▁toɖoɖo	-11.1236
▁Amasia	-11.1236
▁boasetɔ	-11.1236
▁biɛyanim	-11.1236
▁takpekpe	-11.1236
▁Yosiya	-11.1236
▁mɛdi	-11.1237
▁fom	-11.1237
▁mmuaeɛ	-11.1237
▁baason	-11.1238
▁matsi	-11.1239
▁pakoli	-11.124
▁etsi	-11.1241
▁klosaloga	-11.1242
lolo	-11.1243
▁botan	-11.1243
▁wòfɔ	-11.1247
▁ɔbɛtena	-11.1247
▁pil	-11.1248
▁Sirianim	-11.1259
▁Niŋmiy	-11.1261
▁kɔƒewo	-11.1262
▁kata	-11.1263
▁ɔren	-11.1264
▁yɛligi	-11.1266
▁zɔzɔme	-11.1277
▁tsikɔ	-11.1283
▁kɔkɔeawo	-11.1284
▁sɛee	-11.1284
lɔn	-11.1288
▁dubu	-11.1299
▁abɛ	-11.1299
▁miase	-11.13
léle	-11.1309
▁ɔbɛyi	-11.1314
▁Ade	-11.1318
nsom	-11.1321
▁nuteƒewɔla	-11.1324
▁Filistitɔ	-11.1328
▁biɛli	-11.133
▁wabɔ	-11.133
▁ganɔ	-11.1331
▁pi	-11.1334
▁Paɣ	-11.1337
▁Amegã	-11.1338
▁Kiriat	-11.134
▁wɔgyina	-11.134
▁Asomdwoeɛ	-11.134
▁Etiopia	-11.134
▁Zedekiya	-11.134
▁abususɛm	-11.134
▁nkyekyɛmu	-11.134
▁Ahikam	-11.134
▁mprɛnsa	-11.134
▁sankuo	-11.1341
▁Kora	-11.1341
▁Gaza	-11.1341
▁Wu	-11.1343
▁ɛboro	-11.1343
▁naŋgban	-11.1343
▁miegbe	-11.1349
▁fiakuku	-11.1352
▁ɛhe	-11.1353
▁nuxeƒewo	-11.1353
mfrɛ	-11.136
▁Har	-11.1361
▁ɔsɔfo	-11.1361
▁wɔannya	-11.1367
▁wɔanya	-11.1369
▁Raba	-11.1372
▁dɔɣ	-11.1374
▁Tu	-11.1376
▁wòdɔ	-11.1377
▁dɔn	-11.1382
▁bari	-11.1382
▁wɔnhunu	-11.1384
▁nèna	-11.139
▁aɖee	-11.1402
▁Asia	-11.1409
nana	-11.141
▁wɔyi	-11.1413
▁nisuo	-11.1416
▁keli	-11.1424
▁Is	-11.1426
▁mabɔ	-11.1433
▁Ada	-11.1434
E	-11.1436
▁keklẽ	-11.1437
▁Gye	-11.144
▁Aizaia	-11.1445
▁Obadia	-11.1445
▁Yoel	-11.1445
▁klalo	-11.1445
▁laɣibaligu	-11.1445
▁Kpiɔŋlan	-11.1445
▁abɔsoɔ	-11.1449
▁tovo	-11.1449
▁ponkɛseɛ	-11.1449
▁Bani	-11.145
▁enɔƒe	-11.145
▁wasefoɔ	-11.1452
abusuafoɔ	-11.1455
▁tɛhiri	-11.1463
▁yoya	-11.1467
▁dɛm	-11.1469
▁ʒin	-11.1471
▁kpari	-11.1472
▁adreawo	-11.1475
wuhi	-11.1482
▁renka	-11.1485
▁woawui	-11.1496
lima	-11.1497
▁vihi	-11.1498
ɔt	-11.1507
▁abɔwo	-11.1511
▁míenya	-11.1511
▁kpuie	-11.1511
▁mereka	-11.1512
▁etɔ̃awo	-11.1512
▁nnie	-11.1527
hɛ	-11.1528
▁Amalek	-11.1546
▁Sihon	-11.1552
▁Zuliya	-11.1552
▁saŋmarisi	-11.1552
▁jɛrigu	-11.1552
▁kabi	-11.1553
▁galim	-11.1553
▁woatrɔ	-11.1553
▁woahe	-11.1554
▁Herodes	-11.1554
▁Boas	-11.1554
▁nuyiwo	-11.1555
▁Eden	-11.1557
▁miedo	-11.1557
tane	-11.1557
▁netsɔ	-11.1559
at	-11.156
▁Mommra	-11.1562
▁kɔbiri	-11.1566
▁kekeme	-11.1567
▁bɔhiri	-11.1567
tire	-11.1568
▁ablɔ	-11.1568
▁atɔfoɔ	-11.1575
▁abɔta	-11.1577
▁afunu	-11.1578
▁xɔasiwo	-11.158
▁dzaa	-11.1593
keka	-11.1593
wòm	-11.1594
▁vuhi	-11.1595
▁yihibu	-11.1597
atadeɛ	-11.1599
▁sɛeɛ	-11.1601
▁Sarai	-11.1607
▁wɔnim	-11.1613
nsɛe	-11.1623
▁mmma	-11.1627
▁nahennie	-11.1635
fuo	-11.1638
▁dwo	-11.1642
▁balim	-11.1645
▁deɛn	-11.1653
▁Pɛ	-11.1654
▁akɔfa	-11.1655
▁atemmudeɛ	-11.1659
▁nahiŋgu	-11.1659
▁Dario	-11.1659
▁napɔŋ	-11.1659
▁jɛrilim	-11.1659
▁ŋutasesẽ	-11.1659
▁kikahi	-11.166
▁sulinsi	-11.166
▁merehyɛ	-11.1661
▁mmɔborɔni	-11.1661
▁dapuhi	-11.1662
▁Nkuro	-11.1666
▁bɔɣili	-11.1667
▁kabii	-11.167
▁muɣisi	-11.1672
▁remma	-11.1674
▁miedi	-11.1675
▁tsu	-11.1679
▁yɛmfa	-11.1684
▁hyɛne	-11.169
▁paag	-11.1691
▁wɔbɛtwa	-11.1692
zani	-11.1695
▁Ze	-11.1701
▁wodzra	-11.1704
▁koŋ	-11.1708
nyu	-11.1712
▁míanɔ	-11.1712
ntwa	-11.1714
▁wɔbɛsɛe	-11.1715
▁nalé	-11.1724
tuhi	-11.1724
▁dimnima	-11.1729
▁akra	-11.1731
▁mobɛyɛ	-11.1733
metɔwo	-11.1743
v	-11.1747
akodɔm	-11.1748
nnwene	-11.1749
▁kɔr	-11.1752
▁hyiaeɛ	-11.1757
▁wɔsoma	-11.1763
▁bɛna	-11.1763
nnue	-11.1764
▁Abosam	-11.1768
▁Ahemfo	-11.1768
▁Bɛtilihɛm	-11.1768
▁Zaxarya	-11.1768
▁pagɔrisigu	-11.1768
▁mesɔ	-11.1768
▁Yohanan	-11.1768
▁biinsi	-11.1769
▁mɔ́	-11.1769
▁Fɔ	-11.1769
▁watamfo	-11.177
▁hatsotso	-11.1771
▁Midiantɔwo	-11.1772
▁dɔléle	-11.1773
▁nufiame	-11.1774
▁atikplɔ	-11.1775
▁agbalẽfialawo	-11.1775
▁pua	-11.1775
▁laɣindi	-11.1776
gyegye	-11.1779
▁tiatia	-11.1784
▁wasɛm	-11.1785
▁Nusi	-11.1785
▁teaam	-11.1787
▁wano	-11.1788
ur	-11.1788
▁vuvu	-11.1792
▁dira	-11.1793
▁tɔɣisibu	-11.1794
▁nkra	-11.1795
▁bahindi	-11.1795
▁hyerɛn	-11.1797
▁nkanea	-11.1797
▁hwe	-11.1799
▁anyo	-11.1802
▁akaɖiti	-11.1802
▁pooi	-11.1807
▁ɔnka	-11.1808
iribiara	-11.181
▁ɣla	-11.1817
▁kafu	-11.1822
▁vɔvɔ̃m	-11.1836
nnya	-11.1836
▁gom	-11.1836
▁Kplɔ	-11.1839
▁wofɔ	-11.1839
klã	-11.1845
▁yera	-11.1846
akafu	-11.1856
ahyɛdeɛ	-11.1857
▁pateesa	-11.1859
▁ninsala	-11.1871
▁monyi	-11.1873
▁Pe	-11.1874
nkyerɛ	-11.1877
▁kɔbisita	-11.1878
▁tsiɖitsiɖi	-11.1878
▁eŋgɔ	-11.1878
▁kɔmewu	-11.1882
▁mewu	-11.1883
▁kawana	-11.1884
▁heɖe	-11.1885
▁asetena	-11.1889
▁Elisama	-11.189
▁chira	-11.1892
▁èkpɔ	-11.1892
▁ŋmahi	-11.1893
▁tuh	-11.1893
▁reka	-11.1894
▁afrɛ	-11.1894
dane	-11.1894
▁nàdo	-11.1895
▁baanan	-11.1897
nwono	-11.1907
▁bometsilawo	-11.1908
▁piɛma	-11.191
▁tedziwo	-11.1916
▁b	-11.1917
▁kuni	-11.1921
▁sodifoɔ	-11.1925
▁Mè	-11.1925
nɔlawo	-11.1928
▁nnam	-11.1935
bɔri	-11.1939
▁yɛr	-11.1943
▁ema	-11.1947
▁kye	-11.1949
▁wɔkunkum	-11.1952
▁kukuawo	-11.1953
▁ŋkekenyuie	-11.1968
▁tumo	-11.1969
as	-11.197
▁Egbe	-11.1971
▁aʋakplɔla	-11.1972
▁mabu	-11.1985
▁lalam	-11.1988
▁Xe	-11.1988
▁Lé	-11.1989
▁Pinehas	-11.1989
▁asamando	-11.1989
▁mpena	-11.1989
▁tumtumda	-11.1989
▁wumpaɣibo	-11.1989
▁Hosea	-11.1989
▁palɔni	-11.1989
▁Atalia	-11.1989
▁ese	-11.1989
▁Yehoiakim	-11.199
▁bometsitsi	-11.199
▁fononoo	-11.199
▁maɖi	-11.1991
▁Teƒe	-11.1992
▁amanneɛ	-11.1992
▁nkaa	-11.1994
▁Ɛnam	-11.1994
▁nketewa	-11.1994
▁woso	-11.1997
▁ago	-11.1997
▁ahonya	-11.1998
▁mɔa	-11.2
teƒe	-11.2004
▁buŋ	-11.2006
▁bibim	-11.2006
▁nsra	-11.201
▁pɛyɛ	-11.2017
hina	-11.2022
mele	-11.2024
▁ekem	-11.2024
▁Abiya	-11.2025
▁tuuni	-11.2033
▁Sika	-11.2048
▁banbɔ	-11.205
▁bahira	-11.2052
▁afra	-11.2054
▁wobia	-11.2054
▁Ƒo	-11.2059
pue	-11.2068
▁fofoe	-11.2081
chani	-11.2081
▁maɖifɔ	-11.2085
▁Ekpɔ	-11.209
nyina	-11.2096
▁fɔntin	-11.2097
▁tuumbiɛ	-11.2097
▁Abinɛr	-11.2101
▁fesre	-11.2101
▁nkotosrɛ	-11.2101
▁ɛkorɔn	-11.2102
▁mpaboa	-11.2102
▁Ahasia	-11.2103
▁mamlɛa	-11.2104
▁ɣlidodo	-11.2105
▁kplɔm	-11.2108
▁amaŋa	-11.2109
▁katiŋa	-11.2109
▁nsene	-11.211
▁wɔsɔre	-11.2111
▁okunafoɔ	-11.2112
▁hede	-11.2113
▁talima	-11.2117
▁mekplɔ	-11.212
▁ƒometɔ	-11.2121
▁ɛhyɛ	-11.2123
▁buhi	-11.213
▁anii	-11.2133
▁Ɛdomnim	-11.2134
▁dziɖulawo	-11.2135
▁tawò	-11.2141
▁piɛlah	-11.2144
▁nakoa	-11.2162
▁kɔduru	-11.2166
▁etso	-11.2172
▁damdi	-11.2173
▁ɔbɛhunu	-11.2175
hɔ	-11.2177
biga	-11.2178
▁adu	-11.2182
ashee	-11.2191
▁susuwo	-11.2198
▁suu	-11.2198
▁xam	-11.22
pene	-11.2207
▁Libna	-11.2215
▁ɔpapo	-11.2215
▁abotan	-11.2215
▁wòagblɔ	-11.2215
▁Silas	-11.2215
▁nkuropɔn	-11.2217
▁srɔ̃wò	-11.2217
nko	-11.2218
kɔduru	-11.2219
▁Tɔ́nye	-11.2219
▁dzidadawo	-11.2221
▁lɔbu	-11.2223
▁adelia	-11.2226
▁nsateaa	-11.2228
bom	-11.223
▁krataa	-11.223
▁nnkɔ	-11.2234
▁ahanson	-11.2234
▁Miwɔ	-11.2235
▁kemɛ	-11.2235
▁lãnyiƒewo	-11.2243
▁nyemenya	-11.2248
▁dɔwo	-11.2253
▁ʋã	-11.2256
▁ahyɛn	-11.2266
flu	-11.227
▁ŋmaai	-11.2274
▁hyiaa	-11.2279
▁miado	-11.228
▁moma	-11.2286
▁megblẽ	-11.2297
▁ayra	-11.2302
dzikpɔla	-11.2303
woɔ	-11.2306
poo	-11.2309
kyekyɛ	-11.2313
▁akata	-11.2315
▁mmorɔno	-11.2327
▁Mmarima	-11.233
▁agbɔsɔsɔ	-11.233
▁agbalẽŋlɔla	-11.233
▁dɔmenyo	-11.233
▁mmobɔeɛ	-11.2331
▁honhommɔne	-11.2331
▁ɔfoforɔ	-11.2331
▁nnommumfa	-11.2333
▁etrɔ	-11.2334
▁filim	-11.2336
▁mɛbɔ	-11.2339
▁nnwanhwɛfoɔ	-11.2339
abufuhyeɛ	-11.2341
bahi	-11.2351
bɛtwe	-11.2354
▁vɔsamlekpuiwo	-11.2359
▁atsu	-11.236
▁ɛnte	-11.2361
gaxɔ	-11.2361
▁Yiɣisim	-11.2369
▁miayi	-11.2369
▁renyɛ	-11.2371
▁miaɖe	-11.2372
▁Wowu	-11.2374
sɛn	-11.2377
▁abusuafoɔ	-11.2383
▁kɔm	-11.2385
▁nakwan	-11.2389
▁Wɔyɛ	-11.2393
kli	-11.2394
▁saɣisi	-11.2398
▁bɔbɔe	-11.2412
▁xɔnametɔ	-11.2418
▁asoma	-11.2424
▁nyateƒetɔ	-11.2424
▁vɔsamlekpuia	-11.2437
▁mase	-11.2441
▁Sixem	-11.2444
▁neva	-11.2446
▁Asahel	-11.2446
▁Eufrate	-11.2446
▁mprenu	-11.2446
▁mɔzɔzɔ	-11.2446
▁nachimba	-11.2446
▁suhusaɣiŋgu	-11.2446
▁ɖesiaɖe	-11.2446
▁amiliya	-11.2446
▁dzidzɔkpɔkpɔ	-11.2448
▁tɔtɔ	-11.2449
▁yɔe	-11.2449
▁Yisai	-11.2449
▁wòhe	-11.245
▁bili	-11.2453
▁Migblɔ	-11.2453
▁enɔ	-11.2454
▁wakyi	-11.2455
tɔʋu	-11.2455
▁mpataa	-11.2457
▁safohene	-11.2457
▁lɔɣu	-11.2458
▁ababaa	-11.2459
▁akunafoɔ	-11.246
▁asra	-11.246
▁akasa	-11.246
ukaŋuti	-11.2461
dɔɣi	-11.2467
▁nsie	-11.2468
▁dilana	-11.2479
▁biam	-11.248
ene	-11.2483
▁korɔn	-11.2485
▁awe	-11.2487
▁gota	-11.2492
▁aboyonu	-11.2492
▁wun	-11.2493
▁sɔti	-11.2496
▁gbɔ̃	-11.2503
▁menka	-11.2504
mene	-11.2504
▁akorɔ	-11.2504
▁ɔsɔ	-11.2505
▁bɛtwa	-11.2518
▁Yezreel	-11.252
▁twitwa	-11.2527
▁Media	-11.2528
▁afo	-11.2529
▁aware	-11.2529
▁nabufuo	-11.2533
▁adwane	-11.2533
▁mennya	-11.2534
▁wono	-11.2535
wura	-11.2536
▁ɖanɔ	-11.2554
▁zuɣulaannima	-11.2558
▁ɔware	-11.2561
▁Abigail	-11.2564
▁Jɛhɔiada	-11.2564
▁Rexabeam	-11.2564
▁Yufretiiz	-11.2564
▁anifirafoɔ	-11.2564
▁filiŋ	-11.2564
▁gbaliŋ	-11.2564
▁talent	-11.2564
▁mmɔntene	-11.2564
sɛmpa	-11.2564
▁Bashan	-11.2564
▁yewoawɔ	-11.2567
▁Rimon	-11.2567
▁monnye	-11.2569
▁Edze	-11.2572
▁wɔantumi	-11.2572
nyinsɛn	-11.2576
▁ɔreba	-11.2578
▁yɛnam	-11.2584
tab	-11.2586
▁ɣletiviwo	-11.2587
nhwehwɛ	-11.2595
▁ʒiɛri	-11.2599
▁niŋmiya	-11.2601
guo	-11.2602
▁duɣi	-11.2602
▁nyemele	-11.2603
▁ɔsusu	-11.2614
▁nabihi	-11.2616
▁miaɖo	-11.2617
▁yɛnni	-11.2623
▁abooboo	-11.2631
▁kɔdi	-11.2636
▁wɔmmɔ	-11.2642
▁naƒo	-11.2644
ŋkeke	-11.2648
kpɔkpɔ	-11.2648
mã	-11.2652
▁wɔsie	-11.2653
▁ayera	-11.2664
sraa	-11.2669
blu	-11.267
bɛtena	-11.2675
▁kun	-11.2676
bɛsom	-11.2681
ƒewo	-11.2682
▁nsubɔntene	-11.2683
▁Nabot	-11.2683
▁Matania	-11.2683
▁kalinsi	-11.2684
▁Eber	-11.2685
▁adrẽlia	-11.2685
▁chɛrubinim	-11.2686
▁Kehat	-11.2687
▁ŋubbu	-11.2689
▁afɔre	-11.2691
▁míatsɔ	-11.2696
▁Babilɔnnim	-11.2697
▁hedze	-11.2698
▁damena	-11.2698
▁kusi	-11.2699
ahennwa	-11.2705
▁dzɔa	-11.2709
▁nyinɔ	-11.2714
▁rebɔ	-11.2719
▁tiwala	-11.272
▁apiti	-11.2721
▁redi	-11.2723
▁wokpe	-11.2726
▁dona	-11.2726
▁monnya	-11.2727
▁dodom	-11.2729
▁piɛlaa	-11.2732
▁kpila	-11.2734
▁Daa	-11.2738
gli	-11.2738
▁Uzia	-11.2739
▁viɛlim	-11.2739
▁akyekyere	-11.2741
▁kubu	-11.2743
▁wali	-11.275
kɔn	-11.2757
▁azɔli	-11.2763
▁makyi	-11.2764
▁bɛbisa	-11.2765
▁akafu	-11.2768
àte	-11.2769
▁ŋman	-11.277
▁dɔfoɔ	-11.2773
▁Mali	-11.2779
▁kɔgyina	-11.278
nwiinwii	-11.2783
Seba	-11.2783
▁Tie	-11.2794
rɔn	-11.28
▁yɛnim	-11.2801
▁dàda	-11.2802
▁paɣisar	-11.2803
▁Karimba	-11.2803
▁Mefiboset	-11.2803
▁gyegyeegye	-11.2803
▁Negeb	-11.2803
▁nnebɔne	-11.2804
▁ntwemu	-11.2804
▁hwɛfoɔ	-11.2805
▁Amalekitɔwo	-11.2806
▁wòaku	-11.2806
▁piɛlli	-11.2807
▁pue	-11.2808
▁ahemman	-11.2808
▁sunsum	-11.2811
▁wɔnnye	-11.2815
shɛ	-11.2817
▁bɔhigu	-11.2819
▁neebu	-11.2819
bɛn	-11.2823
▁ɔkyerɛ	-11.2823
▁ŋudɔ	-11.2829
▁miagblɔ	-11.283
▁woxlẽ	-11.2831
▁birili	-11.2834
▁Hur	-11.2835
bɛbɔ	-11.284
▁ɔnnya	-11.2841
apam	-11.2846
▁hwie	-11.2852
▁bɛhye	-11.2852
▁nasɛm	-11.2858
▁mianye	-11.2866
▁ɔtu	-11.2866
▁kɔto	-11.2868
▁sapashinnim	-11.2869
klo	-11.287
▁yeawu	-11.2872
▁piɛl	-11.2872
ŋutsu	-11.2878
paa	-11.288
hwere	-11.2884
▁dinn	-11.2886
▁Alesi	-11.2898
▁ahlẽ	-11.2899
▁mada	-11.2903
▁bobɔ	-11.2903
ahunu	-11.2905
▁mɛgye	-11.2909
▁bina	-11.2911
▁paɣimiy	-11.2918
dom	-11.2925
▁Simiɔn	-11.2925
▁pradada	-11.2925
▁suhuyubu	-11.2925
▁Yebusifoɔ	-11.2925
▁Zɛbulɔn	-11.2925
▁yɛayɛ	-11.2926
▁aduɔwɔtwe	-11.2926
▁ɔyaredɔm	-11.2927
▁nse	-11.2928
▁Ɛpo	-11.2929
▁ŋahili	-11.293
▁mpapo	-11.293
▁Abel	-11.2931
▁suban	-11.2931
▁nokorɛdie	-11.2932
▁bɛsɛe	-11.2932
▁kurili	-11.2933
▁Jɛsi	-11.2935
▁ɛboɔ	-11.2935
diyifoɔ	-11.2935
nat	-11.2935
▁bobesa	-11.2936
▁woato	-11.2937
▁zaɣim	-11.2937
▁homa	-11.2937
▁zahimbu	-11.2941
▁bidibis	-11.2942
▁wosubɔ	-11.2943
▁wagye	-11.2943
▁Nuhu	-11.2944
▁apɔnkɔsotefoɔ	-11.2946
▁kɔkɔetɔ	-11.2947
▁ntwe	-11.2948
▁mahyɛdeɛ	-11.2955
▁ewu	-11.2955
▁mennim	-11.2956
▁Dukɔwo	-11.2959
rib	-11.2961
▁wolɔ̃	-11.2962
▁yɛbɛyɛ	-11.2971
▁tonyigba	-11.2984
▁Yesua	-11.2985
▁yɛte	-11.2993
▁menam	-11.2997
▁buɣ	-11.3006
torɔ	-11.3007
yu	-11.3021
nnom	-11.3029
▁nudzraɖoƒe	-11.3032
▁Hebri	-11.3033
▁kafukafuha	-11.3036
▁wowɔna	-11.3039
▁ɔyare	-11.3047
▁Jɛhɔ	-11.3048
▁Dziƒoʋĩtɔ	-11.3049
▁Ishimail	-11.3049
▁Kapernaum	-11.3049
▁Mizipa	-11.3049
▁Rɛhɔbɔam	-11.3049
▁bidibbina	-11.3049
▁dɔɣirikpamba	-11.3049
▁kɔnyuri	-11.3049
▁subonhwa	-11.3049
▁Trɔ	-11.3049
▁monnsuro	-11.3049
▁Kaldeatɔwo	-11.305
▁Huram	-11.305
▁kotokuo	-11.3051
▁Mikal	-11.3052
▁Aʋa	-11.3053
▁ayeforɔ	-11.3053
▁agbã	-11.3054
toawo	-11.3054
▁mmɔreka	-11.3055
▁aƒekɔwo	-11.3056
▁Milé	-11.3057
▁ŋdɔ	-11.3057
▁sɔdolawo	-11.3059
▁bibire	-11.3061
▁nyɛvil	-11.3062
▁Wobɛ	-11.3066
▁wɔakum	-11.3067
▁fiɛb	-11.3067
▁Aka	-11.307
▁afidie	-11.3071
▁wofiri	-11.3071
▁Hanan	-11.3074
▁boa	-11.3075
▁ahosiwo	-11.3075
▁wɔbɛfrɛ	-11.3079
▁piti	-11.308
meeɛ	-11.3081
▁ƒomea	-11.3085
▁aʋalawo	-11.3097
▁wummi	-11.3107
▁sɔfoɔ	-11.3115
▁wɔsu	-11.3119
difoɔ	-11.3123
▁wobɛdi	-11.3125
▁zaŋmi	-11.3129
▁bala	-11.313
▁she	-11.313
▁Sif	-11.3143
dwiri	-11.3149
fie	-11.315
▁Ofir	-11.3154
shiri	-11.3161
▁taɣ	-11.3165
▁Geba	-11.317
▁eto	-11.3173
▁pihiyɔbu	-11.3174
▁Mbaye	-11.3174
▁dunɔdaya	-11.3174
▁kpɔɖeŋu	-11.3174
▁sɛsɛɛ	-11.3174
▁fɛw	-11.3174
▁saɣisigu	-11.3175
▁wòaxɔ	-11.3175
▁mmuada	-11.3175
▁zabili	-11.3177
▁mpap	-11.3178
▁maliya	-11.3178
▁nunɔamesiwo	-11.3179
▁gbadzaƒe	-11.318
▁toondana	-11.3181
▁mpaeɛbɔ	-11.3181
▁amanamanmufoɔ	-11.3184
▁ŋutiwò	-11.3185
▁bula	-11.3187
pira	-11.3188
▁meganɔ	-11.3188
▁waree	-11.3188
▁ɛyi	-11.3189
▁akee	-11.319
▁Bɛmbɔŋɔnim	-11.3191
mè	-11.3194
▁sei	-11.3204
▁Lɔt	-11.3204
▁axe	-11.3204
fiã	-11.3207
▁atiwo	-11.3207
sɛee	-11.3209
▁Medo	-11.3209
▁merekɔ	-11.3213
▁pipia	-11.3214
▁bɛduru	-11.3219
▁wɔdɔ	-11.3224
kafoɔ	-11.3225
bis	-11.3226
danedane	-11.3229
▁duh	-11.3231
▁maeɛ	-11.3234
▁Kɔkɔetɔ	-11.3246
▁biɛr	-11.325
▁natadeɛ	-11.3254
▁sena	-11.3267
▁Asha	-11.3272
▁okum	-11.3277
▁tɔgbui	-11.3277
▁Dze	-11.3277
▁siɣim	-11.328
saɣim	-11.3282
▁mlɔenu	-11.3284
kɔtena	-11.3288
▁Yudani	-11.3292
▁akwaa	-11.3292
▁Kaldea	-11.3293
▁asoɔden	-11.3295
▁Lakis	-11.3298
rilim	-11.3298
▁frankaa	-11.33
▁Gibia	-11.33
▁tsatsam	-11.33
▁ayowa	-11.33
▁Nusrɔ̃la	-11.33
▁piɛɣu	-11.3301
▁Amos	-11.3301
▁kɔbiliga	-11.3302
▁apa	-11.3304
▁Aramtɔwo	-11.3306
▁Sama	-11.3308
nhunu	-11.3308
▁busunya	-11.3313
▁Akis	-11.3315
▁mewɔa	-11.3318
▁nasɔ	-11.3319
▁yɛahunu	-11.3319
seɛ	-11.3322
▁guhiri	-11.3323
▁nante	-11.3325
▁mmaŋ	-11.3329
▁ɣie	-11.333
▁guiɛ	-11.3331
▁Eyi	-11.3334
▁Egiptenyigba	-11.3335
▁wobɛhunu	-11.3336
▁Mega	-11.3341
▁bansi	-11.3343
bakan	-11.335
▁dwirii	-11.3351
▁Wonɔ	-11.3358
▁nnyɛ	-11.3362
diini	-11.3364
▁nyɔnuviwo	-11.3366
▁nakɔ	-11.3382
▁nsom	-11.3383
▁bɛhwɛ	-11.3385
tɔtɔ	-11.3387
▁Hana	-11.3389
El	-11.3394
▁siɣisi	-11.3397
asane	-11.3398
ɛm	-11.3401
sere	-11.3403
▁hyɛn	-11.3405
▁Teman	-11.3412
wan	-11.3412
deei	-11.3413
▁lilikpo	-11.3418
▁nufoɔ	-11.342
▁fofoawo	-11.3422
koko	-11.3424
▁Axaz	-11.3424
▁nyaandol	-11.3428
▁kɔsɔkɔsɔ	-11.3428
▁Baptaizira	-11.3428
▁Frat	-11.3428
▁aflaga	-11.3428
▁chinchin	-11.3428
▁kpekpeɖeŋu	-11.3428
▁mpofirim	-11.3428
▁Abinadab	-11.3428
▁asɛmmɔne	-11.3428
▁Anatot	-11.3429
▁Kɔhat	-11.3429
▁tɔ́wò	-11.3429
▁tsitretsitsi	-11.3429
▁nyemekpɔ	-11.3431
▁Abiatar	-11.3431
▁Yebusitɔwo	-11.3433
▁saɣindi	-11.3433
▁gãnyenye	-11.3433
▁shini	-11.3434
▁mienyae	-11.3435
▁tɔnn	-11.3436
▁aƒewò	-11.3437
▁Wɔfiri	-11.3438
▁Woyɛ	-11.344
▁somm	-11.3442
▁Oyi	-11.3451
▁dihiri	-11.3452
▁Mawɔ	-11.3452
wuwu	-11.3453
▁Ab	-11.3453
▁wòade	-11.3455
hawo	-11.346
▁nkasa	-11.3461
▁agboa	-11.3465
roo	-11.3466
wɔla	-11.3467
▁yinima	-11.3474
▁bɛte	-11.3475
▁dura	-11.3476
▁ɔkaeɛ	-11.3476
▁ŋunyɔnuwo	-11.3488
▁gaɖo	-11.3506
den	-11.3511
▁gãtɔ	-11.3511
▁kɔkyere	-11.3512
bɛhwehwɛ	-11.3514
▁tɔsisiwo	-11.3517
▁asiane	-11.3526
▁fiaɖuƒewo	-11.3531
▁Sɔ	-11.3531
anni	-11.3536
▁yaɣa	-11.3538
▁Shɛkɛm	-11.3539
▁ŋkuagbãtɔ	-11.3542
▁alẽha	-11.3548
▁Abiata	-11.3558
▁abirekyie	-11.3558
▁biɛrisuŋ	-11.3558
▁koogyan	-11.3558
▁pasapasa	-11.3558
▁tsidzadza	-11.3558
▁Simson	-11.3558
▁Kores	-11.3559
▁nneduafoɔ	-11.356
▁nuɖuɖuvɔsa	-11.3561
lĩ	-11.3563
▁mobɛnya	-11.3563
▁wadɔeɛ	-11.3563
▁annye	-11.3565
▁hebia	-11.3566
▁kaneadua	-11.3566
▁seƒoƒo	-11.3566
▁susɔeawo	-11.357
▁bubumewo	-11.3572
▁Mereka	-11.3573
▁Maɖo	-11.3576
▁Ekplɔ	-11.3581
▁Makir	-11.3581
▁akɔkoraa	-11.3584
▁mumu	-11.3584
▁aprannaa	-11.3587
▁wɔso	-11.3591
▁pene	-11.3595
▁ntu	-11.3598
▁F	-11.3606
▁Ava	-11.3609
▁mobɛdi	-11.3619
▁ŋutete	-11.3621
▁ƒuta	-11.3621
▁otitire	-11.3621
▁Fi	-11.3632
▁nɔnɔ	-11.3632
▁yiɣisim	-11.3633
▁titire	-11.3638
▁Monni	-11.3642
▁miana	-11.3648
ɣisiri	-11.3657
gbɔdzɔ	-11.366
▁dzodzom	-11.3661
blɔwo	-11.3669
wɔlawo	-11.3671
▁míese	-11.3673
ligim	-11.3684
▁wòlɔ̃	-11.3684
▁ɔsorosoro	-11.3685
gagblẽ	-11.3685
▁numemevɔ	-11.3688
▁Raxel	-11.369
▁Reechɛl	-11.369
▁godoƒegbadɔ	-11.369
▁Judia	-11.369
▁Yuun	-11.369
▁dwumadie	-11.3691
▁Ɔsɔfopanin	-11.3691
brɛɛ	-11.3691
▁míegblɔ	-11.3692
▁ɔsetie	-11.3693
ligu	-11.3695
▁nyitsuvi	-11.3696
▁wɔbobɔ	-11.3697
▁Levitɔ	-11.3698
▁mmirekyie	-11.3699
pepa	-11.3705
▁fra	-11.3706
▁medzi	-11.3715
▁Jɛrusalɛmnima	-11.3716
▁woase	-11.3716
▁dɔe	-11.3717
▁dalim	-11.3722
dwira	-11.3726
▁gbɔdzɔe	-11.3728
▁Mfa	-11.3729
▁tse	-11.3734
▁afotuo	-11.3734
▁Mate	-11.3737
▁tsitsitɔ	-11.3741
▁wòkeke	-11.3756
▁nahim	-11.3771
▁zɔzɔm	-11.3774
nhwɛ	-11.3776
▁agado	-11.378
▁Niŋm	-11.379
▁eɖu	-11.379
▁kpɔna	-11.3793
▁dzĩ	-11.3795
ẽ	-11.3797
▁wɔrebɛ	-11.3797
▁nyanya	-11.38
▁nuxeƒe	-11.3807
▁gboti	-11.3812
▁kɔnu	-11.3812
▁pola	-11.3817
ron	-11.3818
▁wɔwe	-11.3822
▁dzideƒo	-11.3823
▁Abihu	-11.3823
▁Ahitub	-11.3823
▁Jɛziriil	-11.3823
▁Sukot	-11.3823
▁owuyadeɛ	-11.3823
▁pinaanahi	-11.3823
▁tɛkrɛma	-11.3823
▁zɔhira	-11.3823
▁agbenɔɣi	-11.3823
▁ntwonoo	-11.3823
▁ʋuʋudedi	-11.3824
▁gayibɔ	-11.3824
▁woagblẽ	-11.3825
▁anhunu	-11.3827
▁fari	-11.3827
▁ŋudzedze	-11.3828
▁tsyɔ̃eviwo	-11.3828
▁tɔ́nye	-11.3828
▁edɔ	-11.3829
bɛhyɛ	-11.383
▁ƒoƒo	-11.3831
▁mielɔ̃	-11.3832
dwumfoɔ	-11.3832
▁mienɔ	-11.3834
▁Alẽvi	-11.3837
▁ahodeɛ	-11.3842
▁nnuane	-11.3843
▁wòse	-11.3843
▁kpɔkplɔ	-11.3843
▁huru	-11.3843
▁wòatsi	-11.3844
▁Kronkronni	-11.3847
mforo	-11.3862
▁tsom	-11.3864
▁nhye	-11.3866
sh	-11.3871
▁agyata	-11.3874
▁Abia	-11.3878
▁baŋdi	-11.3878
bigi	-11.3879
▁Moabfoɔ	-11.3879
▁adansefoɔ	-11.3881
▁Sin	-11.3883
▁kpiri	-11.3888
▁kuo	-11.3893
▁nukuwo	-11.3896
▁woɖa	-11.3908
▁nyuitɔwo	-11.3915
▁Filip	-11.3917
▁buɣi	-11.3918
▁Tim	-11.3928
▁ƒãa	-11.3929
▁natifi	-11.393
▁avɔwo	-11.3934
▁daŋa	-11.3941
▁wɔbɛnya	-11.3945
yɛl	-11.3946
▁ŋutsuviwo	-11.3949
▁woaɖa	-11.3952
yera	-11.3952
miri	-11.3954
▁abubu	-11.3958
▁chɛchɛbuŋ	-11.3958
▁Chuɣu	-11.3958
▁helĩhelĩ	-11.3958
▁nkɔnsɔnkɔnsɔn	-11.3958
▁ʒiʒiinikpee	-11.3958
▁Mmom	-11.3958
▁Agag	-11.3958
▁lugbɔƒe	-11.3958
▁Ɔtenenee	-11.3958
▁Hetifoɔ	-11.3958
▁wɔribariba	-11.3958
▁gbemagbe	-11.3958
▁Amram	-11.3958
▁ŋutɔŋutɔ	-11.3958
▁tirinwi	-11.3959
▁atentene	-11.3959
▁fiafitɔ	-11.396
▁ɔdasani	-11.396
▁Karea	-11.396
gbi	-11.396
▁Amalɛknim	-11.3961
▁miedze	-11.3963
▁mmfa	-11.3973
▁maɖu	-11.3975
▁onifirani	-11.3978
▁dapaɣa	-11.3979
▁baba	-11.3981
▁nuwɔwɔwo	-11.3983
▁Heman	-11.3984
▁Ɔman	-11.3984
▁mekpɔa	-11.3985
▁gbea	-11.3992
▁woadzi	-11.3996
▁mehyɛ	-11.4001
▁Luɣ	-11.4022
▁Bin	-11.4024
▁jɛ	-11.4029
▁ahi	-11.4029
▁yɛnyɛ	-11.4036
▁sun	-11.4036
▁bɛsom	-11.4037
mal	-11.4046
▁Shɛm	-11.4051
▁babla	-11.4053
gafɔ	-11.4053
▁wòbɔbɔ	-11.4063
▁yiɣiri	-11.4066
▁dɔa	-11.4072
▁sɔɣiri	-11.4072
▁ɛnne	-11.4075
▁lahi	-11.4078
dware	-11.4083
▁wɔmmu	-11.4092
▁wònya	-11.4092
▁gbegbɔgblɔ	-11.4095
▁mprɛnson	-11.4095
▁ntutummɛ	-11.4095
▁xɔmetsovɔ	-11.4095
▁nkotokuo	-11.4095
▁ntaaboɔ	-11.4096
▁Usia	-11.4096
▁Fifia	-11.4098
▁dalinli	-11.4098
▁Ebi	-11.4101
▁mɛtumi	-11.4106
▁avifafa	-11.4108
▁kposɔwo	-11.4109
anom	-11.4109
▁Exɔ	-11.4109
▁Kum	-11.4119
pere	-11.412
bɛgye	-11.4122
▁dzikpɔlawo	-11.4127
▁matamfoɔ	-11.4127
▁Hor	-11.4129
▁ahyira	-11.413
▁Ati	-11.4131
▁wotsɔa	-11.4133
hunuiɛ	-11.4137
▁kukol	-11.414
lab	-11.4141
▁Afika	-11.4143
▁Ank	-11.4145
tiɣi	-11.4148
▁tizɔpaɣ	-11.4158
nnua	-11.4158
▁guo	-11.4162
kɔbɔ	-11.4165
▁wɔnhwɛ	-11.4167
▁asom	-11.417
adwuma	-11.4172
▁wosa	-11.4178
▁nate	-11.4189
▁ɔsɛe	-11.4194
▁Kasa	-11.4196
▁mogye	-11.4202
▁birini	-11.4205
▁ɛsom	-11.4207
▁nwu	-11.4212
▁Bɛti	-11.4214
S	-11.4215
▁Zaŋmi	-11.4223
maŋmaŋ	-11.4224
▁manfoɔ	-11.423
▁Azarya	-11.4234
▁Jɔash	-11.4234
▁Shimɛi	-11.4234
▁dwetikɛseɛ	-11.4234
▁gbesiagbe	-11.4234
▁jaande	-11.4234
▁sabilifaa	-11.4234
▁mmoadoma	-11.4234
▁hawòvi	-11.4234
▁Bɛnaaya	-11.4234
▁ninkunu	-11.4234
▁hwanhwam	-11.4234
▁ɖeti	-11.4234
nyɔnuvi	-11.4235
▁Mikaia	-11.4236
▁Eyaŋuti	-11.4236
▁ètsɔ	-11.4236
▁nàse	-11.4237
▁míedze	-11.4237
▁nnuru	-11.4239
▁wòanya	-11.4239
▁mieɖe	-11.4239
▁nyɔhi	-11.4239
▁Sane	-11.4242
▁Mikaya	-11.4243
▁tsitsiawo	-11.4243
▁mesoma	-11.4243
▁kusuu	-11.4245
▁ɔwo	-11.4246
▁wahunu	-11.4248
▁yura	-11.4251
yihi	-11.4256
▁kpuɣiri	-11.4257
▁wɔasɛe	-11.4258
▁Adi	-11.426
kpɛ	-11.4262
▁yerɛ	-11.4263
metɔ	-11.4263
▁anantwinini	-11.4264
ntia	-11.4266
▁mommfa	-11.4266
ahoɔden	-11.4267
▁nkyene	-11.4269
▁Zara	-11.4272
▁yɛdi	-11.4274
▁agbovi	-11.4277
kɔfa	-11.4281
▁Firi	-11.4282
ahennie	-11.4285
▁miava	-11.4287
ƒoƒo	-11.4287
▁binnana	-11.4291
M	-11.4296
vivi	-11.4296
▁tiŋli	-11.4298
▁Hyɛ	-11.4299
▁masɛm	-11.4302
▁mpɛ	-11.4303
▁siee	-11.4304
▁ʋuƒo	-11.4314
pata	-11.4314
▁bɛbrɛ	-11.4315
▁lubu	-11.4322
▁wobɛtumi	-11.4326
tiawo	-11.4327
▁hem	-11.4329
ɔr	-11.4335
▁kyea	-11.4339
▁èna	-11.4339
Agya	-11.434
▁yeana	-11.434
▁kpani	-11.4341
▁Xo	-11.4345
▁wogbugbɔ	-11.4346
▁nsuro	-11.4351
▁kpɛ	-11.4354
renkɔ	-11.4356
▁Ɔdi	-11.4356
▁Taai	-11.4358
▁kpeɖeŋutɔ	-11.4359
▁magblẽ	-11.4361
▁Ɔte	-11.4367
▁akpedavɔ	-11.4373
▁Adulam	-11.4375
▁Ezra	-11.4375
▁ahopopoɔ	-11.4375
▁Ɣeyiɣi	-11.4375
▁dzẽ	-11.4375
▁Dwom	-11.4375
▁dzitsinya	-11.4375
▁dwetɛbena	-11.4375
▁nkwaseasɛm	-11.4375
▁ahasiwɔwɔ	-11.4376
▁afieboa	-11.4377
▁Miriam	-11.4378
▁medzɔ	-11.438
▁ŋgɔwò	-11.4381
dzedze	-11.4383
▁xɔsetɔ	-11.4383
▁dɔlanyɔnu	-11.4386
▁Nɔvinyewo	-11.4386
▁kora	-11.4392
▁ɔwuiɛ	-11.4393
▁klẽ	-11.4395
▁ekɔ	-11.4396
▁zalikpana	-11.4396
▁srɔ̃nye	-11.4397
▁Baana	-11.44
▁Wova	-11.4403
▁tome	-11.4405
▁zabi	-11.4414
▁nnom	-11.4419
▁daakye	-11.4419
▁bɛkyerɛ	-11.4422
▁Hela	-11.4426
▁kyɛm	-11.443
▁tsiwo	-11.4438
▁Wɔte	-11.4441
▁Kaesare	-11.4442
▁gariti	-11.4442
▁hewu	-11.4442
▁teeri	-11.4443
iɛl	-11.4446
▁Tito	-11.445
▁ʋeʋẽ	-11.4451
▁banaa	-11.4457
▁Miel	-11.4457
▁dati	-11.4464
hyehye	-11.4465
▁yooi	-11.4468
▁wuhim	-11.4468
gyefoɔ	-11.4472
▁tuɣi	-11.4473
▁nanimuonyam	-11.4475
▁dzɔm	-11.4477
▁bilim	-11.4482
kyire	-11.4482
▁mebɔ	-11.4482
▁aboyome	-11.4482
prɛ	-11.4483
▁miame	-11.4498
siɣim	-11.45
▁yibu	-11.4503
▁ɖasefo	-11.4503
seba	-11.4504
danee	-11.4505
kyini	-11.4508
▁piɛli	-11.451
▁baanum	-11.4513
▁nuƒo	-11.4514
▁Ner	-11.4515
▁Aroer	-11.4518
▁ɔpɔnkɔ	-11.4518
▁akyinnyeɛ	-11.4518
▁biŋkpam	-11.4518
▁dendeenden	-11.4518
▁lɔŋni	-11.4518
▁ogyaframa	-11.4518
▁wɔɣira	-11.4518
▁dzudzɔdonu	-11.4518
▁wòatrɔ	-11.4519
▁Daniɛl	-11.4519
▁tameɖoɖo	-11.452
▁míetsɔ	-11.452
▁hadzilawo	-11.452
▁kokoɔ	-11.4522
▁akpedada	-11.4522
▁mieɖu	-11.4523
▁nède	-11.4525
▁dzovɔsa	-11.4526
▁yiedie	-11.4528
▁Bio	-11.4528
▁Eɖu	-11.4529
▁nuvɔ̃wɔlawo	-11.453
▁Etso	-11.4532
▁duɣu	-11.4533
▁ɛgu	-11.4535
▁hunuiɛ	-11.4541
huru	-11.4542
▁naku	-11.4543
▁damli	-11.4543
▁bebu	-11.4544
▁nɔvinyewo	-11.4546
▁nàɖu	-11.4548
ale	-11.4554
▁ɔhyira	-11.4561
▁woafa	-11.4562
▁kasaeɛ	-11.4565
gaɖu	-11.4565
▁atsɔe	-11.4578
▁nyansafoɔ	-11.4578
▁maha	-11.4589
▁Nsɛm	-11.459
ɖoƒe	-11.4595
▁zɔr	-11.4595
▁zɔm	-11.4595
▁monnim	-11.4596
▁bum	-11.4612
▁ɔmmɛ	-11.4621
ade	-11.4624
▁Etɔ	-11.4627
tefoɔ	-11.4629
Hadad	-11.4643
▁gui	-11.4651
glo	-11.4654
▁dzodzo	-11.4657
▁ɔdefoɔ	-11.4657
▁Ŋusẽ	-11.466
▁Yair	-11.466
akoa	-11.4662
▁Amaria	-11.4663
▁Gosen	-11.4663
▁Stefano	-11.4663
▁adwini	-11.4663
▁ahonhom	-11.4663
▁mmabanin	-11.4663
▁nnwennini	-11.4663
▁Ɖewohĩ	-11.4663
▁dzikedzo	-11.4663
▁nunovɔsa	-11.4663
▁sononko	-11.4663
▁Asɔfoɔ	-11.4663
▁Nahor	-11.4663
▁wòalé	-11.4664
nyè	-11.4666
▁Kɛ	-11.4674
▁korɔno	-11.4674
▁woaɖi	-11.4674
▁tokuro	-11.4674
▁Ziba	-11.4675
tumdi	-11.4675
▁gballi	-11.4675
é	-11.4682
▁Judas	-11.4683
▁Lewini	-11.4693
twee	-11.4699
▁mmabaa	-11.4703
▁lir	-11.471
biã	-11.4714
▁Yese	-11.4733
amu	-11.4733
▁monto	-11.4734
▁evea	-11.4737
▁ɔbɛba	-11.4748
▁nyanu	-11.4748
xaxa	-11.4749
▁wɔdwane	-11.4753
▁maba	-11.4753
▁karimba	-11.4755
▁bun	-11.4757
▁domee	-11.4759
▁Mpo	-11.4763
▁ayeyɛ	-11.4764
bɛbisa	-11.4765
▁saawara	-11.4772
hwɛfoɔ	-11.4773
▁agblewo	-11.4774
▁Akyir	-11.4774
▁wɔagu	-11.4776
▁Asi	-11.4781
▁wɔnka	-11.4785
iel	-11.4785
▁ntia	-11.4787
pirim	-11.479
▁amaama	-11.4793
▁afika	-11.4797
▁niŋd	-11.4797
▁anhyɛ	-11.4802
naɣ	-11.4804
▁Anania	-11.4809
▁Ƒu	-11.481
▁atukɔfoɔ	-11.481
▁ɖewohĩ	-11.481
▁bituuli	-11.481
▁Jɛhoyakim	-11.481
▁Yedutun	-11.481
▁ɔnnye	-11.481
▁Kyerɛ	-11.481
▁ntotɔeɛ	-11.481
▁Maika	-11.4811
▁nnamfonom	-11.4811
▁ebunu	-11.4812
▁pakoya	-11.4812
▁ɛwom	-11.4813
▁hɔhoɔ	-11.4815
▁sese	-11.4817
▁fli	-11.4823
▁dɔwɔlawo	-11.4824
▁nèdi	-11.4826
▁ninkura	-11.483
▁bihim	-11.4836
▁yibɔ	-11.4836
▁wɔasiesie	-11.4841
▁miaku	-11.4841
▁mebe	-11.4841
▁dzĩtɔ	-11.4844
▁shih	-11.4846
▁kpala	-11.4851
▁gbɔlo	-11.4856
gagbugbɔ	-11.4857
▁ahoɔdenfoɔ	-11.4857
kɔhwɛ	-11.4859
▁bɔra	-11.4862
▁alɔnu	-11.4863
bɛhwɛ	-11.4865
▁Míawo	-11.4865
▁kundi	-11.4867
▁veviwo	-11.4874
▁asau	-11.488
▁taɖa	-11.4885
tase	-11.4886
▁bɛtɔ	-11.4886
▁yema	-11.4888
▁adamfo	-11.4892
▁dɔdɔ	-11.4901
▁Ameha	-11.4901
▁butu	-11.4902
▁fɔe	-11.4919
▁Nɔ	-11.4927
▁Kasia	-11.4933
▁nahu	-11.495
▁Aman	-11.4951
sunsuane	-11.4953
▁wosɔ	-11.4955
weros	-11.4959
▁Jeemsi	-11.4959
▁ntuanoni	-11.4959
▁pisinaayi	-11.4959
▁xɔŋkɔ	-11.4959
▁Gaal	-11.4959
▁Tekoa	-11.4959
▁Neetan	-11.4959
▁odwanhwɛfoɔ	-11.4959
▁kokoƒoƒo	-11.4959
▁nyɔtaɣirisi	-11.496
▁moantie	-11.496
▁Gaat	-11.496
▁ɔtemmufoɔ	-11.496
▁woagbã	-11.4961
▁Mègavɔ̃	-11.4962
xlã	-11.4965
▁maan	-11.4965
▁ʋetsuviwo	-11.4965
▁manomu	-11.4968
▁laakumnim	-11.4969
▁ekplɔ	-11.4973
▁Ako	-11.4975
▁Mí	-11.4976
▁paana	-11.4979
▁yeayi	-11.4979
▁gbeɖeɖe	-11.498
ɛn	-11.4984
▁sabbu	-11.4985
▁Judanima	-11.4986
▁natrɔ	-11.499
nkye	-11.4991
▁Nunya	-11.4994
▁toto	-11.4997
▁Bela	-11.4999
▁aweretɔ	-11.5
▁Mayɛ	-11.5
sɛefoɔ	-11.5001
▁woʋu	-11.5003
▁pinii	-11.5003
▁hare	-11.5006
▁Rom	-11.5008
▁Dada	-11.502
▁dzɔdzɔ	-11.5021
▁agbugbɔ	-11.5023
▁wɔakɔ	-11.5026
▁womese	-11.503
▁Max	-11.5033
▁anyinam	-11.5033
tutuu	-11.5035
dwammaa	-11.5038
▁atete	-11.5044
▁monhyɛ	-11.505
▁ɔmmu	-11.5053
▁Men	-11.5055
▁mezu	-11.5056
▁ŋɔti	-11.5056
ŋuti	-11.5064
▁ahu	-11.5064
gɔ	-11.507
▁xaa	-11.507
▁ahyeɛ	-11.5073
gal	-11.5074
▁vanɛ	-11.5081
▁akora	-11.5081
▁Monto	-11.5087
jɛm	-11.5089
neke	-11.509
▁labiri	-11.509
wurim	-11.5091
suafoɔ	-11.5095
▁ʋeʋĩ	-11.5101
▁Midzi	-11.5105
▁Meda	-11.5106
▁nyina	-11.5106
▁aɖui	-11.5109
▁Isaxar	-11.5111
▁Mahanaim	-11.5111
▁atorofoɔ	-11.5111
▁bobeturo	-11.5111
▁waintsetse	-11.5111
▁Marta	-11.5111
▁yowòme	-11.5111
▁Ribɛka	-11.5111
▁sanʒiɛɣu	-11.5111
▁enuenu	-11.5111
▁Iin	-11.5111
▁Simɔn	-11.5111
▁zoori	-11.5112
▁dzɔdzɔetɔ	-11.5112
▁dunwɔtwe	-11.5112
▁enyilia	-11.5113
▁kparima	-11.5114
▁ɔkɛseɛ	-11.5115
▁farigu	-11.5115
▁momm	-11.5117
▁womewɔ	-11.5118
▁asrafoawo	-11.5119
▁kɛntɛn	-11.5121
▁Lewitɔwo	-11.5121
▁kpɛh	-11.5121
▁sakuɣa	-11.5125
▁akpɔe	-11.5132
▁wahu	-11.5132
▁Sua	-11.5134
hyehyɛ	-11.5141
▁kpalimmi	-11.5142
▁ŋgɔgbeviwo	-11.515
▁Mado	-11.5153
kyɛre	-11.5154
▁ɛbɛsi	-11.5158
▁nakyiri	-11.5159
nnifoɔ	-11.5159
▁lih	-11.5161
▁ntira	-11.5163
▁makɔmakɔwo	-11.5164
tuaa	-11.5164
▁duno	-11.517
▁tagbɔ	-11.5178
▁kpaa	-11.5187
▁bɔɣi	-11.5187
kuro	-11.5189
▁agboawo	-11.519
bimi	-11.5199
tuatua	-11.5201
▁baŋya	-11.5202
▁wɔrentumi	-11.5202
▁sinu	-11.5208
▁Amegbetɔvi	-11.5217
▁afenaa	-11.5219
▁Zɔ	-11.5222
▁Wɔren	-11.5224
▁wɔkura	-11.5224
▁wɔbɛyi	-11.5226
▁Aso	-11.5226
▁mitso	-11.523
▁lãgbalẽ	-11.5232
▁ɔrebɛ	-11.5235
▁monnni	-11.5236
▁miligi	-11.5236
▁woli	-11.5244
▁kasaŋku	-11.5245
▁Sera	-11.5246
▁tenee	-11.525
▁Dziƒo	-11.525
▁dzem	-11.5251
▁woano	-11.5251
▁wɔkɔka	-11.526
kol	-11.5261
lólo	-11.5264
▁Ahitofel	-11.5264
▁Andrea	-11.5264
▁Homeda	-11.5264
▁Kalɛb	-11.5264
▁Netania	-11.5264
▁amesiamina	-11.5264
▁kɛtɛ	-11.5264
▁waawaayili	-11.5264
▁ʒiʒiinitab	-11.5264
▁Mɛrari	-11.5264
▁konyifafa	-11.5264
▁Zeru	-11.5265
▁adiyisɛm	-11.5265
▁kandina	-11.5265
▁nkumaa	-11.5265
▁aseyetsotso	-11.5265
▁kyɛw	-11.5265
▁Amonitɔwo	-11.5266
▁naso	-11.5268
▁agbonudzɔlawo	-11.5269
▁Onyame	-11.5269
▁kuui	-11.5269
▁Axazya	-11.527
▁Woaɖe	-11.527
▁mmɔho	-11.5271
ʋakɔ	-11.5271
▁biriginsim	-11.5272
▁kpewo	-11.5274
▁paaya	-11.5275
▁nèbe	-11.5275
▁wobla	-11.5275
▁adehyeɛ	-11.5277
▁wòakplɔ	-11.5279
▁alẽawo	-11.5285
▁nàɖo	-11.5287
zaɣisi	-11.5287
▁banim	-11.5288
nɔnɔ	-11.5289
▁mekasa	-11.529
hlẽ	-11.5291
▁tugbe	-11.5292
▁kesinɔtɔwo	-11.5292
▁tem	-11.5293
▁piɛbi	-11.5294
▁wɔtie	-11.5294
▁nɛl	-11.5295
▁ɔhwehwɛ	-11.5296
▁wuni	-11.5298
▁muɣis	-11.5307
▁megyina	-11.5309
▁abantenten	-11.531
▁mɔŋ	-11.5311
▁gbilisi	-11.5313
▁hɛ	-11.5313
sɔŋ	-11.5313
▁Woƒo	-11.5317
hyehyɛɛ	-11.5319
▁ɔtumi	-11.5322
▁adzra	-11.5322
▁sanee	-11.5323
ɖia	-11.5325
▁Sal	-11.533
▁ɔso	-11.5346
▁Yɛhudianima	-11.5354
▁mɛkyerɛ	-11.5355
▁matsɔe	-11.5364
▁mesee	-11.5364
▁gbala	-11.5364
▁atotɔ	-11.5366
▁Dunia	-11.5378
▁kyɛne	-11.5378
▁ahunta	-11.538
▁somfoɔ	-11.5382
gana	-11.5383
▁goonda	-11.5383
▁U	-11.5386
▁nɔƒewo	-11.5394
bata	-11.5394
▁nnamfo	-11.5398
ŋdi	-11.5403
▁nafa	-11.5407
gogo	-11.5414
▁wɔatu	-11.5417
▁lim	-11.5419
▁Amanaman	-11.542
megãwo	-11.542
▁Amazya	-11.5421
▁Sealtiel	-11.5421
▁naɣikɔra	-11.5421
▁tumtumsa	-11.5421
▁ahɔnɛ	-11.5421
▁nuŋeɣi	-11.5421
▁Ninive	-11.5421
▁Yuria	-11.5421
▁Xamat	-11.5421
▁pihinii	-11.5421
▁Ɣemaɣ	-11.5421
▁Boaz	-11.5421
▁atuatefoɔ	-11.5421
▁atumfoɔ	-11.5422
▁nkonimdie	-11.5423
▁abarimaa	-11.5423
▁baptaizibu	-11.5423
▁mietrɔ	-11.5424
gyeɛ	-11.5424
dahim	-11.5424
▁míeva	-11.5425
▁mɔ̀	-11.5425
▁míeɖo	-11.5426
▁mietso	-11.5426
▁míexɔ	-11.5426
▁wòato	-11.5427
▁ɖeɖeko	-11.5428
▁sɔtiawo	-11.5429
▁metsrɔ̃	-11.5429
▁Nsuo	-11.5429
▁wuntizɔra	-11.543
▁waɣ	-11.5432
▁nyemewɔ	-11.5433
▁haw	-11.5434
▁nkata	-11.5435
suhi	-11.5435
▁fiã	-11.5435
▁kerubi	-11.5436
▁Moabtɔwo	-11.5441
▁madɔ	-11.5443
▁twene	-11.5444
▁ɔntumi	-11.5445
▁dwene	-11.5452
twafoɔ	-11.5452
▁nnane	-11.5459
▁yirina	-11.546
hohiahia	-11.5466
▁gɔri	-11.5467
▁Meta	-11.5476
vu	-11.5479
▁yɛate	-11.5484
▁naɖi	-11.5486
▁aŋɔ	-11.5489
hindi	-11.5491
▁toƒe	-11.5492
▁mɛnya	-11.5493
reyɛ	-11.5499
▁kɔbil	-11.5499
▁wɔtwerɛ	-11.5499
▁k	-11.5508
baŋ	-11.5508
▁tata	-11.5514
▁ʋɔa	-11.5521
rennye	-11.5521
▁wɔanny	-11.5525
▁tenten	-11.5527
▁waso	-11.5531
tempɔn	-11.5532
▁miade	-11.5536
▁Hu	-11.5541
▁dzidze	-11.5544
gatso	-11.5554
Edom	-11.556
kwaa	-11.5574
▁Batseba	-11.5579
▁Nɛgɛb	-11.5579
▁Piɛbil	-11.5579
▁Sixon	-11.5579
▁bapɔmma	-11.5579
▁bebrebe	-11.5579
▁frɔmfrɔm	-11.5579
▁Ʋu	-11.5579
▁Apolo	-11.5579
▁mbusim	-11.5579
▁Arabia	-11.5579
▁yiniyini	-11.5579
▁amonom	-11.5579
▁Yefune	-11.558
▁Simri	-11.558
▁mofiri	-11.558
▁aɖaŋuɖoɖo	-11.558
▁dukpin	-11.558
▁gbolowɔwɔ	-11.558
▁Abiram	-11.558
▁nnwontofoɔ	-11.5581
▁aɖakaʋu	-11.5581
▁Paran	-11.5581
▁nuvɔ̃vɔsa	-11.5582
▁ɔbodan	-11.5583
▁farisitɔwo	-11.5584
kaeɛ	-11.5584
▁Nuɖuɖu	-11.5584
▁animguaseɛ	-11.5585
tsri	-11.5586
▁yɛrigi	-11.5588
▁Yer	-11.5589
▁bɔrigi	-11.559
▁ɔbɛkɔ	-11.5592
▁Edomtɔwo	-11.5592
▁aʋawɔnuwo	-11.5595
▁alidziblanu	-11.5595
▁lãha	-11.5597
▁Mahe	-11.5597
son	-11.5597
gad	-11.5598
▁yɛanya	-11.5599
▁nkuruwa	-11.5601
▁makpe	-11.5608
▁Wodze	-11.5609
deo	-11.5612
▁kpahim	-11.5615
▁ntie	-11.5615
mmire	-11.562
▁nyiŋgoli	-11.5621
▁chɛmi	-11.5622
▁Eƒo	-11.5624
▁woadrɔ̃	-11.5626
▁eɖi	-11.5627
hwanyan	-11.5628
viawo	-11.5632
▁takɔb	-11.5634
▁nusia	-11.5634
▁Benyaminfoɔ	-11.5647
▁kɔkɔwo	-11.566
remmu	-11.5665
manɔ	-11.567
▁woklã	-11.5673
▁ŋunyɔ	-11.5674
▁okuo	-11.5676
▁kpiya	-11.5677
▁ʋɔnui	-11.568
▁gblẽm	-11.5681
▁tagba	-11.5683
▁naƒu	-11.5694
▁ose	-11.5695
nsini	-11.5702
▁Uzi	-11.5704
▁menkyerɛ	-11.5705
▁yame	-11.5707
▁Ishi	-11.5712
▁miyi	-11.5715
▁adza	-11.5717
▁ntweaso	-11.5721
bɛsi	-11.5721
abusua	-11.5723
ama	-11.5724
▁wòʋu	-11.5727
isha	-11.5729
bolo	-11.573
▁sesa	-11.5731
▁nnni	-11.5733
▁mefa	-11.5738
▁hiãtɔ	-11.574
▁Serubabel	-11.5741
▁Zerubabel	-11.5741
▁alɔmeɖenu	-11.5741
▁funyafunya	-11.5741
▁kɔbisinu	-11.5741
▁atizɔti	-11.5741
▁amɔwɔ	-11.5741
▁akyerɛkyerɛfoɔ	-11.5741
▁dunsia	-11.5741
▁nsɛsoɔ	-11.5742
▁Shilo	-11.5742
▁hãe	-11.5742
▁Monnsuro	-11.5742
▁Tubal	-11.5743
▁woabia	-11.5743
▁manɔmee	-11.5744
▁àkpɔ	-11.5745
▁Kanaanitɔwo	-11.5747
▁nètso	-11.5747
▁Hebrifoɔ	-11.5748
▁gomna	-11.5748
▁mereba	-11.5752
▁wòawu	-11.5756
▁kerubim	-11.5756
▁wuieveawo	-11.5759
mfo	-11.5761
▁kyini	-11.5765
rit	-11.5768
▁tebea	-11.577
▁tiligira	-11.577
bereɛ	-11.5775
▁bɛboa	-11.5775
amumuyɛ	-11.5778
▁bɔhir	-11.578
▁moadi	-11.5782
▁Ɛba	-11.5785
▁nintam	-11.5786
▁Afe	-11.5789
▁dɔɣibu	-11.5789
▁meren	-11.5791
▁migawɔ	-11.5791
▁Masa	-11.5791
nkyɛ	-11.5794
▁firilanim	-11.5801
▁Shu	-11.5802
▁ŋumdi	-11.5808
▁nima	-11.5809
mli	-11.5815
▁gbeƒãe	-11.5815
▁nhyehyɛ	-11.582
neeɛ	-11.5821
▁Has	-11.5827
▁Migan	-11.5829
mmoaboa	-11.5836
▁meŋlɔ	-11.5836
▁wɔwɔwo	-11.5837
▁kɔkɔƒe	-11.5846
▁ɛna	-11.585
▁kyekyere	-11.5856
▁mahim	-11.586
▁Misraimni	-11.5869
▁wokafu	-11.5875
▁sana	-11.5885
▁Anɔ	-11.5886
▁yilli	-11.5887
▁baɖa	-11.5888
▁Mobɛ	-11.589
▁ɔtene	-11.5892
▁galisim	-11.5893
piligim	-11.5895
▁wogye	-11.5899
▁nasefoɔ	-11.5901
▁Kir	-11.5902
ilikia	-11.5904
▁Hɛshibɔn	-11.5905
▁fabindi	-11.5905
▁Eglon	-11.5905
▁gbidigbidi	-11.5905
▁wafenaa	-11.5905
▁zoligɔnim	-11.5905
▁ʋaʋã	-11.5905
▁Obɛd	-11.5905
▁nimmoo	-11.5905
▁dziɖegbe	-11.5905
▁Shɛmaya	-11.5905
▁alikama	-11.5905
▁Abija	-11.5905
▁Betania	-11.5905
▁edziedzi	-11.5905
▁nkatasoɔ	-11.5905
▁Seru	-11.5906
▁mmɔfraase	-11.5906
gbɔgbɔ	-11.5907
▁wɔwiee	-11.5907
▁mono	-11.5908
▁amedɔdɔawo	-11.5908
▁nàdz	-11.5908
▁aʋatsotso	-11.5908
▁ahummɔborɔ	-11.5909
▁Uriya	-11.5909
▁kurigi	-11.5912
▁adrɔ̃	-11.5913
▁Mienya	-11.5913
▁aƒemetɔwo	-11.5914
▁míenɔ	-11.5914
▁duruiɛ	-11.5915
▁Mitrɔ	-11.5915
pore	-11.5916
▁wɔkurakura	-11.5916
▁zãmu	-11.5917
▁teasefoɔ	-11.5919
▁buɣisibu	-11.5919
▁Ɔsane	-11.592
▁ahene	-11.5925
▁Adom	-11.5927
▁zɔbu	-11.5928
▁adwadifoɔ	-11.5935
kra	-11.5939
yiɣisi	-11.5942
▁miasubɔ	-11.5954
▁nukpɔkpɔ	-11.5957
▁tui	-11.5957
▁Aba	-11.5958
▁daku	-11.596
▁ŋuɖoɖo	-11.596
▁Midiannim	-11.596
▁ɛbɛka	-11.5961
gili	-11.5963
▁axlẽ	-11.5964
▁madzi	-11.5965
▁Mise	-11.5969
▁Ɖela	-11.5969
rigiri	-11.5971
▁wannya	-11.5979
▁sɔŋda	-11.5984
▁Remal	-11.5994
▁tizɔpaɣa	-11.5995
▁pata	-11.5996
▁wate	-11.6009
▁wòwɔna	-11.6016
▁shi	-11.6021
▁bandi	-11.6022
▁nyaya	-11.6028
▁wonyã	-11.6035
▁ahyehyɛ	-11.6036
ɛlɛk	-11.6047
▁toli	-11.6055
▁adwumfoɔ	-11.6056
▁akpedavɔsa	-11.6057
▁kposɔ	-11.6058
▁efi	-11.6059
▁mapam	-11.6065
▁Lo	-11.6068
hunahuna	-11.6071
▁Dunɔdal	-11.6071
▁Kipro	-11.6071
▁Put	-11.6071
▁Xesbon	-11.6071
▁gbilligbilli	-11.6071
▁nneyɛeɛ	-11.6071
▁tofloko	-11.6071
▁zuɣupiligu	-11.6071
▁batakari	-11.6071
▁adã	-11.6071
▁Maligumaaniba	-11.6072
▁yoo	-11.6072
▁aponnwa	-11.6072
▁korakora	-11.6072
▁Shiiba	-11.6072
▁Ɔbua	-11.6072
▁Korax	-11.6072
▁Eliakim	-11.6073
▁osuani	-11.6073
▁awerɛkyekyerɛ	-11.6073
▁woadzo	-11.6074
▁momaha	-11.6074
atumi	-11.6075
▁lɔlɔ̃a	-11.6076
▁Siriahene	-11.6076
▁kpɛbu	-11.6076
▁Ido	-11.6077
▁womexɔ	-11.6077
▁pahira	-11.6078
▁daanabinim	-11.6079
▁Ahia	-11.608
▁yeado	-11.6081
nyaŋ	-11.6081
▁mpempem	-11.6084
▁dzidzeme	-11.6086
▁luɣili	-11.6086
▁Kɔra	-11.6089
▁alẽhawo	-11.6093
▁ɖiŋu	-11.6095
▁Toma	-11.6097
▁kpla	-11.6098
▁dzedzeme	-11.6103
▁Rubenfoɔ	-11.6104
▁sabiya	-11.6104
▁tri	-11.6105
fua	-11.6108
▁wotsyɔ	-11.6116
▁mɛri	-11.6117
▁montena	-11.6117
▁tsitrenu	-11.6121
tus	-11.6123
▁ɛhyɛn	-11.6132
▁mabrɛ	-11.6133
tahi	-11.6137
▁ɔnom	-11.614
▁Ram	-11.6149
hwehwe	-11.6152
temmuo	-11.6161
▁matɔ	-11.6165
▁kplɔa	-11.6165
▁ƒomeviwo	-11.6171
▁ɔnn	-11.6179
▁Dua	-11.6182
riya	-11.6182
yeyɛ	-11.6183
▁woakafu	-11.6184
▁Uri	-11.6188
▁tibisa	-11.6189
▁mmaŋa	-11.6192
▁kasia	-11.6194
▁xɔta	-11.6204
▁nadza	-11.621
▁gyeɛ	-11.6215
yerɛ	-11.6215
▁yiɣisibu	-11.6219
▁dzesiwo	-11.622
▁yewoma	-11.6223
▁Sɔdom	-11.6227
wuiɛ	-11.6228
▁Li	-11.6232
▁ŋugbetɔ	-11.6233
bɛdane	-11.6235
gbeɖe	-11.624
▁Gesur	-11.6241
▁Yonadab	-11.6241
▁Yopa	-11.6241
▁asinasini	-11.6241
▁fɔntiŋ	-11.6241
▁mpemaduonu	-11.6241
▁yevuboɖa	-11.6241
▁zoomba	-11.6241
▁ɔhonam	-11.6241
▁binyɛribil	-11.6241
▁kɔgbana	-11.6241
▁daboya	-11.6241
▁Efrat	-11.6241
▁adaaboɔ	-11.6241
▁ŋugbetɔsrɔ̃	-11.6241
▁teteete	-11.6241
▁Kilikia	-11.6241
▁nedo	-11.6241
▁owufoɔ	-11.6242
fefɛ	-11.6242
▁ahuntasɛm	-11.6242
▁nhwɛsoɔ	-11.6242
▁anyigbadzitɔwo	-11.6242
▁ɛdɔɔso	-11.6242
▁agbagbeawo	-11.6244
▁piɛbihi	-11.6244
▁chihira	-11.6245
▁ɔboafoɔ	-11.6245
▁èɖe	-11.6246
▁Tobia	-11.6247
▁Hitinim	-11.6248
▁boori	-11.6249
▁neeg	-11.6249
▁apɛdeɛ	-11.625
▁Akas	-11.6251
▁gahi	-11.6251
▁Ede	-11.6252
▁ayeforɔkunu	-11.6253
▁fɔŋ	-11.6258
▁biɛɣuni	-11.6259
▁nàva	-11.6262
▁dudu	-11.6262
▁ɛbɛdi	-11.6266
▁yirigi	-11.6267
rebɛyɛ	-11.6269
▁aŋutrɔwo	-11.6271
▁Tiŋ	-11.6278
▁nnware	-11.6281
▁lɔlɔ̃tɔwo	-11.6289
▁hwene	-11.6289
▁hunta	-11.629
twere	-11.6291
▁enya	-11.6292
pali	-11.6294
fasuo	-11.6298
▁duro	-11.6305
▁ɔwu	-11.6305
▁subɔm	-11.6307
▁teneneefoɔ	-11.6314
ɖagblɔ	-11.6317
▁migblɔ	-11.6321
▁tɔa	-11.6327
dɔwo	-11.6328
▁Hagai	-11.6329
kana	-11.6336
▁gɔmedzedze	-11.6339
▁zɔna	-11.6351
▁wua	-11.6355
xo	-11.6362
▁Egiptetɔ	-11.6365
▁tane	-11.6371
renhunu	-11.6373
xɔxɔ	-11.638
▁wobɔbɔ	-11.6382
▁sentim	-11.6386
▁eda	-11.639
kim	-11.6395
▁sederti	-11.6397
▁ŋukpenanu	-11.6398
▁aʋawɔnu	-11.6398
eser	-11.6403
▁medii	-11.6404
▁nwono	-11.6404
▁damd	-11.6406
▁ɖevime	-11.6408
▁ɔsi	-11.6408
▁nahyɛdeɛ	-11.6409
▁eŋku	-11.6411
▁Wona	-11.6412
▁mɛhyɛ	-11.6413
▁yihim	-11.6413
▁Giligal	-11.6413
▁ntampehoma	-11.6413
▁Anadwo	-11.6413
▁Kedes	-11.6413
▁kulibɔna	-11.6413
▁ntɛtɛ	-11.6413
▁Yehoyakim	-11.6413
▁piɛguliba	-11.6414
▁mmorosoɔ	-11.6414
▁dziƒofiaɖuƒe	-11.6414
▁piɛgul	-11.6414
▁wòaxe	-11.6414
yrɔ	-11.6415
▁nhyɛsoɔ	-11.6415
▁dzidzɔɣli	-11.6415
▁hadzidzi	-11.6415
▁churi	-11.6416
niŋdi	-11.6416
▁ŋutifafavɔsa	-11.6417
▁shihir	-11.6417
▁abrabɔ	-11.6418
▁nukpɔla	-11.6419
▁nkɔsoɔ	-11.642
▁edzo	-11.642
▁nàxɔ	-11.6422
▁Boso	-11.6423
▁sufrɛ	-11.6423
▁ŋlɔm	-11.6424
▁viaŋutsuwo	-11.6424
▁Gasa	-11.6425
▁wɔadãwo	-11.6428
▁Yɛlimiya	-11.6429
▁adwumayɛ	-11.643
▁pira	-11.643
ntena	-11.644
▁aboro	-11.6443
▁ɔbubu	-11.6444
▁wɔwɔm	-11.6448
▁tɔri	-11.6448
▁míaɖe	-11.645
▁Ansa	-11.6451
▁mikafu	-11.6456
▁ƒoe	-11.6463
▁ɔtaa	-11.6467
srafowo	-11.6468
▁ŋugble	-11.647
▁zab	-11.6475
▁wɔtane	-11.6475
▁onii	-11.6476
▁magye	-11.6481
▁monya	-11.6488
▁namda	-11.6493
ŋga	-11.6494
baɣi	-11.6497
▁tɛ	-11.6497
▁wɔsɛe	-11.6501
▁yiɣi	-11.6505
mmɛka	-11.6505
bɛfrɛ	-11.6506
▁hekplɔ	-11.6508
hwire	-11.6508
▁ɔbɛbu	-11.6508
▁puli	-11.651
ɣim	-11.6511
▁yenye	-11.6513
mem	-11.6515
▁seƒe	-11.6521
▁Makplɔ	-11.6522
paŋ	-11.6523
▁dzɔna	-11.6528
▁amesia	-11.6532
▁nnka	-11.6534
▁tututue	-11.6543
▁twɛn	-11.6548
▁darigiri	-11.6558
▁wonam	-11.6558
▁laɣimna	-11.656
▁mmua	-11.656
▁akpewo	-11.6565
▁woayra	-11.6565
▁Sema	-11.6568
nutome	-11.6569
▁alẽkplɔla	-11.6572
▁weingble	-11.6573
▁trɔ̃	-11.6576
ɖ	-11.6582
▁lododo	-11.6582
▁Maaseia	-11.6589
▁lɛbigi	-11.6589
▁piniyini	-11.6589
▁tsitotsito	-11.6589
▁Ƒe	-11.6589
▁Horeb	-11.6589
▁Bɔaz	-11.6589
▁Kedar	-11.6589
▁asibaasi	-11.6589
▁tweneduro	-11.6589
▁mfenaa	-11.6589
▁wogale	-11.6589
▁Kamina	-11.6589
▁Harim	-11.659
▁nkɔmhyɛ	-11.659
▁ɛwowɔ	-11.6591
▁Mena	-11.6592
▁Miekpɔ	-11.6592
▁Ribla	-11.6592
▁nadwa	-11.6592
▁wòakɔ	-11.6593
▁womeɖe	-11.6593
▁Esra	-11.6594
▁mpatadeɛ	-11.6595
▁abaa	-11.6595
▁èɖo	-11.6595
▁nèxɔ	-11.6596
▁ɔbɛgyina	-11.6597
▁ekuo	-11.6601
▁Yeiel	-11.6601
▁ɔhome	-11.6602
▁eŋumewo	-11.6604
▁glã	-11.6604
yɛfoɔ	-11.6605
▁Ɛha	-11.6607
▁Berɛ	-11.6607
▁Mitso	-11.6608
fɔn	-11.6609
▁piɛlabih	-11.661
▁kabiri	-11.6611
▁mɛtwe	-11.6612
▁mabi	-11.6613
▁mlɔeba	-11.6616
▁nyala	-11.6619
▁guliba	-11.662
▁wɔgyinagyina	-11.662
menuwo	-11.662
▁odum	-11.6621
▁ɔnyi	-11.6621
zaŋdi	-11.6625
huhu	-11.6626
▁gogo	-11.6626
▁mawuƒe	-11.6628
▁mommu	-11.6629
▁vloe	-11.6631
▁nyã	-11.6632
▁omumuyɛfoɔ	-11.6632
▁nyà	-11.6634
▁wòbe	-11.6641
nsɔre	-11.6646
▁Ngo	-11.665
▁sohwɛfoɔ	-11.665
▁Amea	-11.6651
▁mehiã	-11.6652
▁gado	-11.6653
▁adehunu	-11.6655
▁gliawo	-11.6658
▁ʒil	-11.6661
▁vinyewo	-11.6662
▁vɔsawo	-11.6671
▁vana	-11.6671
bɛhye	-11.6678
▁ɖevitɔ	-11.6679
▁miawoe	-11.6682
hwan	-11.6684
▁osu	-11.6686
wudifoɔ	-11.6688
▁nyɔŋ	-11.669
▁yɔa	-11.6692
▁wògbe	-11.6696
▁Nyateƒee	-11.6698
▁Et	-11.6699
▁gbo	-11.6703
guliba	-11.6704
▁newɔ	-11.6704
▁tuɣili	-11.6709
maɖo	-11.6714
kraman	-11.6716
▁ɔsɔree	-11.6734
▁wokaka	-11.674
▁banima	-11.674
lẽ	-11.6741
▁yiɣisiri	-11.6743
hwee	-11.6747
Gilead	-11.6747
afɔrebukyia	-11.6747
▁angu	-11.676
▁wɔdane	-11.6761
▁Antioxia	-11.6767
▁Debir	-11.6767
▁Peres	-11.6767
▁dunɔguliba	-11.6767
▁nnawɔtwe	-11.6767
▁pisinaanu	-11.6767
▁tusaayi	-11.6767
▁pɛsɛɛ	-11.6767
▁Maaseya	-11.6767
▁Goliat	-11.6767
▁ŋaha	-11.6767
▁adidiiɛ	-11.6768
▁Wɔbua	-11.6768
konton	-11.6768
▁Seraia	-11.6768
asha	-11.6769
▁asuogya	-11.6769
▁Gerar	-11.677
▁asiekelia	-11.677
▁ɔbabaa	-11.677
▁Maka	-11.6771
▁antie	-11.6771
▁nàlé	-11.6772
▁Datan	-11.6772
▁Manoa	-11.6773
▁wòafia	-11.6774
▁ɖokuibɔbɔ	-11.6774
▁agbalẽa	-11.6775
▁Elé	-11.6776
▁miede	-11.6777
▁maso	-11.6777
▁Migawɔ	-11.6778
nkamfo	-11.6778
▁mamleawo	-11.6779
▁nntu	-11.6781
▁aboboano	-11.6782
sosɔ	-11.6782
soo	-11.6783
bɛtie	-11.6784
▁Mete	-11.6784
▁Keila	-11.6784
▁Mfe	-11.6785
▁rentena	-11.6787
▁sahene	-11.6788
▁ŋkuagbãtɔwo	-11.679
▁dzika	-11.6791
ɛya	-11.6794
▁ɔsu	-11.6794
▁Wobia	-11.6797
▁Ad	-11.6798
dwodwo	-11.6801
▁mfe	-11.6801
▁wobɛka	-11.6804
hinta	-11.6814
▁yaɣiri	-11.6814
▁kem	-11.6815
▁tutɔwo	-11.6815
▁Wokpɔ	-11.6816
▁alilikpowo	-11.6819
▁ahyɛaseɛ	-11.6822
hoɔfɛ	-11.6828
ako	-11.6834
nsoa	-11.6835
▁Woho	-11.6836
rentie	-11.684
pah	-11.6843
▁duawo	-11.6845
▁liƒowo	-11.6847
▁ɛbere	-11.6854
bol	-11.6856
▁Efa	-11.6859
adzɔ	-11.686
▁Kaesarea	-11.6864
▁mɛsom	-11.6868
▁paya	-11.6874
▁wammu	-11.6875
pagya	-11.6883
sɛpɛ	-11.6885
▁baɣisi	-11.6893
▁wɔanka	-11.6894
▁annya	-11.6897
▁màga	-11.6897
▁wɔfom	-11.6899
▁wɔhu	-11.6901
▁malé	-11.6903
suu	-11.6904
▁ɖakpe	-11.6905
▁baɣi	-11.6911
▁wovɔ̃	-11.6912
nneɛ	-11.6914
▁esu	-11.6918
bɛfa	-11.6918
▁ahiã	-11.6923
ɣli	-11.6925
▁d	-11.6929
bɔnhwa	-11.6929
▁tiligim	-11.6933
▁nufiala	-11.6935
▁susɔea	-11.6935
▁vɔsalã	-11.6935
remma	-11.6939
▁mfi	-11.6942
▁natamfo	-11.6943
▁Yɛhudia	-11.6946
▁Srɔ̃	-11.6949
gilead	-11.6949
▁Baanabas	-11.6949
▁Efron	-11.6949
▁Gedalya	-11.6949
▁Hadadezer	-11.6949
▁Hasael	-11.6949
▁NAAWUNI	-11.6949
▁Perizitɔwo	-11.6949
▁Pɛriʒia	-11.6949
▁asibidɛ	-11.6949
▁duŋtaariba	-11.6949
▁nyànyanya	-11.6949
▁ʋunyaʋunya	-11.6949
▁Hanun	-11.6949
▁kpibisi	-11.6949
▁Yehiel	-11.6949
▁mpire	-11.6949
▁Amihud	-11.6949
▁Itai	-11.6949
▁Hewifoɔ	-11.6949
▁ŋutinyagbalẽ	-11.695
▁kpekpekpe	-11.6951
▁vlododo	-11.6952
▁nkoguo	-11.6952
▁kukuɖeɖe	-11.6952
▁mielé	-11.6953
▁yeatsrɔ̃	-11.6953
▁Èwɔ	-11.6953
▁ɔsafohene	-11.6954
▁Uziya	-11.6954
▁momonotofoɔ	-11.6955
▁wanhunu	-11.6955
▁gbagbã	-11.6956
▁asinudɔwɔwɔwo	-11.6956
▁siesie	-11.6958
▁Amalekfoɔ	-11.6958
▁Kom	-11.6959
▁nudanu	-11.6962
▁nyɔni	-11.6962
higu	-11.6963
▁Kanaantɔwo	-11.6963
▁gbɔdzɔ	-11.6964
▁kpẽawo	-11.6965
▁ɔdwane	-11.6966
▁ɛmma	-11.6966
▁wamfa	-11.6967
ayamdeɛ	-11.6969
▁Ebe	-11.6975
▁Ɛbɛ	-11.6976
▁sawa	-11.6976
▁akyɛm	-11.6977
▁beble	-11.698
tsotso	-11.6983
▁asutene	-11.6985
▁atuu	-11.6987
▁míaɖu	-11.6989
▁Gadfoɔ	-11.6989
▁wɔrenhunu	-11.6991
▁bihigu	-11.6994
▁anisɔ	-11.6997
▁Mebu	-11.6999
agbe	-11.7004
▁lɔlɔ̃awo	-11.7013
mmfa	-11.7014
▁siesiee	-11.7018
▁Usa	-11.7019
totɔ	-11.7029
▁ɔtwerɛ	-11.7029
▁fafa	-11.7033
▁anukware	-11.7036
▁ja	-11.7037
▁ɔkwa	-11.7043
diri	-11.7046
▁puɣisi	-11.705
gaku	-11.7051
▁ɔgu	-11.7056
suo	-11.7059
▁asiesie	-11.706
▁ɔgyeɛ	-11.7063
▁agɔ	-11.7063
▁Dimbɔŋɔnim	-11.7065
▁wɔforo	-11.7067
▁tsikpe	-11.7069
pir	-11.707
▁Shɛb	-11.707
▁Mègan	-11.707
▁woge	-11.7071
gaƒo	-11.7078
▁anomaa	-11.7078
▁busu	-11.7078
mɛwa	-11.7079
▁nàte	-11.7083
▁nkamfo	-11.7086
▁tarigi	-11.7087
▁za	-11.709
▁adwammaa	-11.7099
ud	-11.7103
▁woasa	-11.7105
▁Gibiɔn	-11.7107
è	-11.7109
▁neɖe	-11.711
▁kpɔkpɔ	-11.7118
▁dzowo	-11.7119
▁sɔdola	-11.7119
▁niŋya	-11.7124
▁twenee	-11.7128
▁lɛb	-11.7132
▁nsɔano	-11.7133
▁Debora	-11.7134
▁Eliasib	-11.7134
▁Megido	-11.7134
▁Perisifoɔ	-11.7134
▁Rahab	-11.7134
▁Sihɔn	-11.7134
▁Siiza	-11.7134
▁aklama	-11.7134
▁asɛnniiɛ	-11.7134
▁mɔɣilɔnim	-11.7134
▁ninkuntwe	-11.7134
▁nketenkete	-11.7134
▁nkotodwe	-11.7134
▁nugɔmesese	-11.7134
▁pisinaanahi	-11.7134
▁wɔɣinli	-11.7134
▁ŋgonu	-11.7134
▁anɔpahema	-11.7134
▁tusaata	-11.7134
▁Gog	-11.7134
▁ahobrɛaseɛ	-11.7134
▁kplikpaa	-11.7134
▁nhema	-11.7134
▁mmeamu	-11.7135
▁bindoo	-11.7135
▁Ètsɔ	-11.7136
▁ɖikaa	-11.7136
▁kokoam	-11.7136
▁Isai	-11.7136
▁teemi	-11.7136
▁Ehud	-11.7136
▁Amesiame	-11.7136
▁ababaawa	-11.7136
▁Dagon	-11.7136
▁ègblɔ	-11.7137
▁afanan	-11.7138
▁Amo	-11.7138
▁Yes	-11.7138
▁yewoakpɔ	-11.7139
▁míeɖe	-11.7139
▁tamfo	-11.7139
▁mɛhunu	-11.7139
▁ɛntene	-11.7141
▁klosalogba	-11.7141
▁wobɛnya	-11.7142
▁Yɛda	-11.7142
▁Elihu	-11.7143
▁rennya	-11.7148
▁wɔtɔn	-11.7152
▁ahwehwɛ	-11.7154
▁mAgya	-11.7156
▁rehwɛ	-11.7156
fanya	-11.7157
▁wɔgu	-11.7157
▁ntwene	-11.7159
▁gogloƒe	-11.7159
nibereɛ	-11.7163
▁blu	-11.7164
ses	-11.7167
▁mabufuo	-11.7168
vuzi	-11.7168
▁elɔ̃	-11.7168
▁hedzo	-11.7171
zɔna	-11.7175
hwɛeɛ	-11.7176
▁wafa	-11.7177
bisabisa	-11.7178
▁wokpɔe	-11.7181
▁migavɔ̃	-11.7185
duro	-11.7186
regye	-11.719
▁Nni	-11.7191
▁míado	-11.7195
▁Beo	-11.7197
▁wɔyɛeɛ	-11.7197
▁wɔhye	-11.7199
▁wɔkeka	-11.7199
▁Ge	-11.7202
▁kɔnuwo	-11.7202
▁ŋmalig	-11.7205
▁gula	-11.7207
▁danye	-11.7208
▁piɛb	-11.7209
▁wɔnyi	-11.721
▁anyigbadzi	-11.7213
▁yiɣis	-11.7217
nnidi	-11.722
kawo	-11.7224
▁tana	-11.7226
▁ɣea	-11.7227
▁Mommf	-11.7231
▁wɔbɛbu	-11.7259
▁Hɔ	-11.726
ʋa	-11.7262
▁kpimi	-11.7264
▁Ninewe	-11.7265
nhyɛne	-11.7265
▁nyemaga	-11.7265
▁Woyi	-11.7267
▁Monnya	-11.7271
▁wɔremfa	-11.7273
▁wasi	-11.7287
▁etɔ̃a	-11.7289
▁mokaka	-11.729
▁wòano	-11.7291
▁wògblẽ	-11.7294
▁megye	-11.7295
▁ahoma	-11.7299
Semes	-11.7303
amena	-11.7305
bɛyi	-11.7307
▁kpana	-11.7313
▁ntɔkwa	-11.7317
▁amesiawo	-11.7319
laɣim	-11.732
ɖuɖɔ	-11.7321
▁dansarika	-11.7323
▁Ɣleti	-11.7323
ntɔriba	-11.7323
▁Agripa	-11.7323
▁Isebel	-11.7323
▁Mesopotamia	-11.7323
▁Rabsake	-11.7323
▁Yehoas	-11.7323
▁Zedekia	-11.7323
▁aduɔkron	-11.7323
▁firilatamdigu	-11.7323
▁mpea	-11.7323
▁ɔnokwafoɔ	-11.7323
▁manyamanya	-11.7323
▁ntentan	-11.7323
▁taterɛ	-11.7323
▁Dibon	-11.7323
▁solɔri	-11.7323
▁hẽ	-11.7323
▁akɔnta	-11.7323
▁dzeaglã	-11.7323
▁efunu	-11.7323
▁anweatam	-11.7325
▁mpasua	-11.7325
▁tasiaɖamfɔ	-11.7326
▁mibu	-11.7326
▁wɔahyehyɛ	-11.7327
▁ɔbɛbɔ	-11.7327
▁woahyɛ	-11.7327
▁kakɛ	-11.7327
▁mmɔborɔfoɔ	-11.7327
▁tsro	-11.7328
▁ɔrennya	-11.7331
▁nyonyo	-11.7331
▁binnan	-11.7332
▁Mɛyɛ	-11.7333
▁tablanu	-11.7334
giram	-11.7334
▁amradofoɔ	-11.7334
▁wonni	-11.7334
▁ɔkyerɛkyerɛ	-11.7334
▁nayɔ	-11.7335
▁ginda	-11.7335
▁ŋutasẽlawo	-11.7336
▁tɔtrɔ	-11.7339
▁tsɔm	-11.7343
▁Tena	-11.7348
▁wɔsiane	-11.7349
▁Teemiy	-11.7349
▁nyura	-11.7349
▁dwira	-11.7351
▁tiatiawo	-11.7353
▁ɔgyefoɔ	-11.7354
▁hawo	-11.7354
▁wainka	-11.7364
▁ɔbɛfa	-11.7365
▁nakomam	-11.7376
▁vevietɔ	-11.7377
▁nkaeɛfoɔ	-11.7379
▁garita	-11.738
▁Nunyala	-11.738
bɛbu	-11.7385
▁bɛyera	-11.7387
▁wɔanni	-11.7389
▁mokɔ	-11.739
▁srɔ̃nyɔnu	-11.7393
▁barima	-11.74
tasee	-11.7401
kɔhwehwɛ	-11.7405
▁aguo	-11.7407
▁watu	-11.7408
▁Er	-11.7412
▁mahwɛ	-11.7413
▁tsam	-11.7419
▁yɛfiri	-11.7424
▁fiana	-11.7428
ɛsane	-11.7429
▁muɣisiri	-11.7435
▁subɔa	-11.7442
▁diɛm	-11.7443
▁metɔ	-11.7448
▁awuo	-11.745
▁ekpɔm	-11.7452
▁aboyoe	-11.7453
▁bɛsɔ	-11.7459
tɛɛ	-11.7462
tɔɣisi	-11.7465
▁bɛtu	-11.7465
▁midze	-11.7466
▁nadwene	-11.7472
tenatena	-11.7475
ŋm	-11.7476
▁Bo	-11.7485
▁Sur	-11.7492
ɔpiɛlig	-11.7492
▁nɔna	-11.7495
▁wɔadã	-11.7499
zɔri	-11.7501
▁nagyapadeɛ	-11.7502
fɛm	-11.7502
▁ɛse	-11.7507
▁ɔtrɛ	-11.7512
▁Baraba	-11.7514
▁Libanon	-11.7515
▁Timoti	-11.7515
▁helihelĩ	-11.7515
▁matemmudeɛ	-11.7515
▁mpensa	-11.7515
▁nsuwansuwa	-11.7515
▁nwisiaa	-11.7515
▁zahira	-11.7515
▁ɔpedu	-11.7515
▁ʒiɛkpeein	-11.7515
▁Sukɔt	-11.7515
▁Hesron	-11.7515
▁Yetro	-11.7515
▁Hadadeser	-11.7516
▁sariakarita	-11.7516
▁hoowɔwɔ	-11.7516
▁ketee	-11.7517
▁wòaƒo	-11.7517
▁Dedan	-11.7518
▁nèlé	-11.7519
▁Liya	-11.752
▁tɔrok	-11.752
▁ayamyɛ	-11.7522
▁tɔgbuiawo	-11.7522
▁afɔkpa	-11.7523
▁ɛtoɔ	-11.7524
▁Kiryat	-11.7524
▁akpakpa	-11.7525
▁ezu	-11.7526
▁remmɔ	-11.7527
▁ahantanfoɔ	-11.7529
▁wɔkyerɛ	-11.7531
▁sariakaritiba	-11.7531
▁apostolo	-11.7532
▁míedi	-11.7532
▁timdi	-11.7533
▁ɔkɔdeɛ	-11.7535
▁amumuyɛsɛm	-11.7537
▁Yɛm	-11.7545
▁sɔɣibu	-11.7548
▁flu	-11.7549
▁kyere	-11.7552
▁Kari	-11.7554
▁Hes	-11.7556
▁miebu	-11.7557
kwati	-11.7558
▁gbuɣima	-11.7559
▁solɔɣu	-11.7563
▁wɔdidi	-11.7564
▁wɔbɛtena	-11.7568
▁ɖetugbiwo	-11.7568
menu	-11.7569
▁Nɛr	-11.757
sab	-11.757
▁kutsetsewo	-11.7573
▁wɔreyɛ	-11.7577
▁ameti	-11.7583
▁bɔɣiri	-11.7583
▁wòfa	-11.759
▁tib	-11.7591
▁anto	-11.7593
▁nsiane	-11.7593
▁mobɛka	-11.7596
dɔwɔla	-11.76
▁Menɔ	-11.7603
▁moate	-11.7609
▁ŋɔŋlɔ	-11.7609
▁ɔtwaa	-11.7616
pɛkyɛ	-11.7618
▁madwene	-11.7618
titɔ	-11.7622
frɛfrɛ	-11.7625
▁Ira	-11.7628
▁Wokplɔ	-11.763
▁ɔtie	-11.7632
▁kuɣi	-11.7632
▁meremma	-11.764
▁hin	-11.7643
▁nyanee	-11.7646
▁ŋusẽe	-11.7648
▁Wonim	-11.7659
▁wodzidze	-11.7669
▁mehwɛ	-11.7676
▁wuu	-11.7677
atɔ̃	-11.7682
▁dimbɔŋɔnima	-11.7683
▁gyaee	-11.7691
megale	-11.7691
kplu	-11.7691
afunumu	-11.7692
▁nyagblɔɖi	-11.7695
▁ɖekakpuime	-11.7695
▁popo	-11.77
▁Bubu	-11.7702
▁doliya	-11.7707
▁Ahimelek	-11.7711
▁Darius	-11.7711
▁Perez	-11.7711
▁Sanbalat	-11.7711
▁gahindili	-11.7711
▁kɔbisiyopɔin	-11.7711
▁muhumuhu	-11.7711
▁nnyegyeeɛ	-11.7711
▁wɔɣa	-11.7711
▁huhuo	-11.7711
▁deemba	-11.7711
▁agyidifoɔ	-11.7711
▁Kalidia	-11.7711
▁Hinom	-11.7711
▁pagɔrili	-11.7711
▁Nabɔt	-11.7711
▁Simea	-11.7712
▁Rekab	-11.7712
▁paɣisarili	-11.7713
▁Ebed	-11.7713
▁Oholibama	-11.7713
▁zibigi	-11.7714
▁woagbugbɔ	-11.7714
▁polli	-11.7714
▁yolisim	-11.7715
▁ɔyere	-11.7715
▁leeri	-11.7716
▁nahoɔden	-11.7716
kulawo	-11.7717
▁bɛkata	-11.7718
▁daboli	-11.7718
▁gbadza	-11.7719
bɛgyina	-11.772
▁yeaxɔ	-11.7721
pii	-11.7721
▁adefoɔ	-11.7722
▁abosonhuhuo	-11.7722
▁miebe	-11.7726
▁Babiloniatɔwo	-11.7727
▁nsania	-11.773
▁bimbira	-11.773
à	-11.7731
▁Woyra	-11.7732
▁miete	-11.7733
▁mieyi	-11.7735
▁nkurowa	-11.7736
▁tahigu	-11.7738
▁nhia	-11.774
▁Woyɔ	-11.7742
▁voya	-11.7742
▁wɔasɔ	-11.7744
▁siɣina	-11.7745
▁kotoku	-11.7745
▁asigɛ	-11.7748
gbib	-11.7749
▁Míel	-11.7749
▁remfir	-11.775
▁ahodwirie	-11.7751
ɛza	-11.7754
▁kokom	-11.7759
▁hesubɔ	-11.7761
▁Magya	-11.7762
▁gawu	-11.7763
ɣisibu	-11.7764
pansam	-11.7766
▁megawɔ	-11.7767
▁srɔ̃ɖe	-11.7767
▁yele	-11.7767
hyɛnee	-11.7767
▁mafia	-11.777
▁tsetse	-11.777
▁mamlɛtɔ	-11.7773
▁makyiri	-11.7775
▁wɔbɛte	-11.7775
▁gyegye	-11.7781
▁fire	-11.7781
▁ɔkyekyeree	-11.7787
kɔsom	-11.7791
dol	-11.7794
▁Set	-11.7795
▁yɛpɛ	-11.7798
or	-11.7811
▁Sabat	-11.7813
liri	-11.7814
▁Mida	-11.7816
▁nàkplɔ	-11.7817
▁Sar	-11.7822
▁awareɛ	-11.7824
▁wòbu	-11.7824
▁Ch	-11.7828
lɔ̃e	-11.7834
▁binnyur	-11.7836
▁baɣili	-11.7838
▁bubua	-11.7841
dedie	-11.7841
▁ŋutinu	-11.7843
bɛkyekyere	-11.7843
twetwe	-11.7846
▁mamanim	-11.7848
▁vlowo	-11.785
▁tsotso	-11.7852
▁bɔbu	-11.787
▁goglo	-11.7871
ahwɛ	-11.7879
▁wɔasi	-11.7887
▁nubil	-11.7888
▁pum	-11.7888
▁awɔe	-11.789
▁Kenan	-11.7905
▁Betuel	-11.7911
▁Bɛrishiiba	-11.7911
▁Jɛfita	-11.7911
▁Kyerɛkyerɛfoɔ	-11.7911
▁Nazarɛt	-11.7911
▁Yafet	-11.7911
▁Yehoahas	-11.7911
▁abusudeɛ	-11.7911
▁adaduanan	-11.7911
▁akɔtaɖonu	-11.7911
▁apontoɔ	-11.7911
▁mmɔdemmɔ	-11.7911
▁sujee	-11.7911
▁tuumbiɛtumdiba	-11.7911
▁wunsuhigu	-11.7911
▁ŋusẽkatãtɔ	-11.7911
▁ʒiɛkpain	-11.7911
▁ahuhuro	-11.7911
▁Akub	-11.7911
▁nuvevi	-11.7911
▁Hetini	-11.7911
▁nsekuro	-11.7911
▁Shee	-11.7912
▁tititi	-11.7912
▁ɔnsi	-11.7912
▁nkyɛkyerɛ	-11.7912
▁Ɔbabaa	-11.7913
▁sedati	-11.7913
▁kluvinyenye	-11.7913
▁woagye	-11.7913
▁osebɔ	-11.7913
▁nhyiamu	-11.7914
▁dami	-11.7914
zan	-11.7914
▁wɔantwerɛ	-11.7914
▁fefe	-11.7915
▁agbadɔa	-11.7915
▁fɔŋli	-11.7915
▁Yɛtɔɣ	-11.7917
▁bɛkoto	-11.7918
▁mmoakuo	-11.7919
▁wɔabobɔ	-11.7919
▁Jɛbusinim	-11.7919
▁míedo	-11.7919
▁womede	-11.792
▁mpokyerɛ	-11.7921
▁Etrɔ	-11.7921
▁mommra	-11.7923
▁nyuui	-11.7925
▁ɔfira	-11.7927
▁ɛsisi	-11.7929
▁ɛhye	-11.7932
▁kasaŋkuwo	-11.7933
▁basabasayɛ	-11.7933
▁ɔhwie	-11.7935
▁nananmu	-11.7937
▁Woɖi	-11.7939
▁kafum	-11.7941
▁Ewu	-11.7941
▁dɔɣim	-11.7941
▁Nokorɛm	-11.7944
▁ƒuƒoƒewo	-11.7947
▁yɛrimi	-11.795
▁xɔsetɔwo	-11.7951
▁ahahan	-11.7952
▁ŋutinuwo	-11.7954
▁nèkplɔ	-11.796
▁Asirianim	-11.796
▁wotsa	-11.796
fata	-11.7961
▁wòte	-11.7984
mantam	-11.7989
▁Viŋutsu	-11.799
▁Nunɔlawo	-11.7991
▁ŋgɔgbe	-11.7996
▁asese	-11.7997
▁Ifriimnim	-11.7998
▁lahibali	-11.8005
▁kpaŋsiri	-11.8006
labi	-11.8007
▁vuɣi	-11.801
▁ninsalinima	-11.8012
▁nsɔre	-11.8012
▁anyinɔ	-11.8015
dukɔa	-11.8016
▁Anak	-11.8017
▁nabia	-11.8017
▁kyɛn	-11.8018
retwerɛ	-11.8025
▁reko	-11.8029
▁mègan	-11.8032
untizɔriba	-11.8034
▁dzidzimewo	-11.8037
▁ŋmaa	-11.8037
adane	-11.8038
▁kpena	-11.8038
▁niŋgbun	-11.804
gakplɔ	-11.8045
hinhim	-11.8049
▁twam	-11.805
▁kalẽ	-11.805
▁nnuaba	-11.8054
wuhiri	-11.8054
▁wɔboa	-11.8054
▁piɛbiri	-11.8055
▁Naama	-11.8062
ahaz	-11.8063
▁abue	-11.8063
▁wògbugbɔ	-11.8066
▁ntwea	-11.8071
titotoŋkekenyui	-11.8072
anan	-11.8073
▁laɣisi	-11.8075
▁wɔnku	-11.8078
▁ɛgyina	-11.8081
▁faeɛ	-11.8087
▁magbe	-11.8087
▁Bɛmbɔŋɔ	-11.8088
▁Yɔ	-11.8088
kpewo	-11.8089
▁etu	-11.8091
▁ɔsene	-11.8093
▁akye	-11.8095
ʋẽ	-11.8095
tabili	-11.8096
▁merebɛ	-11.8097
ahotefoɔ	-11.8098
▁Farisitɔ	-11.8099
apɔnkɔ	-11.8101
nnwane	-11.8103
kɛseɛ	-11.8105
▁wòfia	-11.8109
▁atirimuɔden	-11.8109
bɔhi	-11.811
kom	-11.8111
awieeɛ	-11.8111
▁sɛso	-11.8111
▁nhyɛne	-11.8112
▁Zo	-11.8113
▁borɔ	-11.8113
▁Yehoya	-11.8115
▁Refaim	-11.8115
▁Ŋku	-11.8115
gyimifoɔ	-11.8115
▁Amnɔn	-11.8115
▁Festo	-11.8115
▁Jona	-11.8115
▁Mɔdɛkai	-11.8115
▁Tsã	-11.8115
▁Xilkiya	-11.8115
▁buyopɔin	-11.8115
▁kplakplakpla	-11.8115
▁kɔbisinii	-11.8115
▁sɔhigi	-11.8115
▁tuhilituhili	-11.8115
▁Ɛzra	-11.8115
Yearim	-11.8115
▁Milka	-11.8115
▁pinaata	-11.8116
▁Ninsalinim	-11.8116
▁ameƒoti	-11.8116
▁Musi	-11.8116
▁Tenenee	-11.8116
▁dapua	-11.8116
▁Bɛnhadad	-11.8116
▁kakaɖedzi	-11.8116
▁nyɔtaɣirigu	-11.8116
▁Yoyada	-11.8116
▁agbagbadzedze	-11.8116
▁mmaninyɛ	-11.8116
▁adzɔgbeɖeɖe	-11.8116
▁nyinsɛnee	-11.8116
▁tampima	-11.8116
▁wuietɔ̃	-11.8116
▁bundaannim	-11.8116
▁wɔɣila	-11.8116
▁Mikael	-11.8117
▁ahokyere	-11.8117
▁dzu	-11.8117
▁mmaransɛm	-11.8118
▁Viwò	-11.8118
▁Kuro	-11.8119
atwa	-11.8119
▁kab	-11.8119
▁Xananya	-11.8121
▁amewula	-11.8122
▁dɔnunɔlawo	-11.8122
▁egblẽ	-11.8124
▁ŋutigbalẽ	-11.8124
▁butubutu	-11.8124
▁Siriatɔwo	-11.8125
▁xlɔ̃m	-11.8127
▁nnɔɔso	-11.8128
▁nudzɔdzɔ	-11.8128
▁hehe	-11.8129
▁Matsrɔ̃	-11.813
▁zikpui	-11.813
bra	-11.8131
▁Ani	-11.8134
▁wɔbɛto	-11.8135
▁tiawa	-11.8135
▁suhimiya	-11.8138
▁wɔdɔɔso	-11.8139
▁buee	-11.8139
▁mobɔ	-11.814
▁mɛkɔ	-11.814
▁wawu	-11.8141
toma	-11.8146
▁Eyɔ	-11.8146
▁nuteƒewɔlawo	-11.8148
▁waingblewo	-11.8152
▁ɖatsa	-11.8154
mema	-11.8155
▁Nɔviwo	-11.8156
▁ebu	-11.8158
kpla	-11.8159
zur	-11.8165
▁srɔ̃ŋutsu	-11.8167
▁Mahli	-11.8168
▁Gera	-11.8168
▁ɔboa	-11.817
▁natsrɔ̃	-11.817
▁fukpekpewo	-11.8171
▁minya	-11.8172
naai	-11.8173
▁timaŋa	-11.8173
▁ewoliawo	-11.8174
▁nèse	-11.8175
▁Lais	-11.8175
▁hoahoa	-11.818
▁otwa	-11.8182
zã	-11.8182
▁taɣiri	-11.8185
▁bɛtotɔ	-11.8186
etɔ̃	-11.8188
▁Us	-11.8197
wɛmfoɔ	-11.8198
▁hwɛe	-11.8198
dola	-11.8208
▁woreyɛ	-11.8209
maani	-11.8213
▁kulis	-11.8214
▁renwu	-11.8214
▁Haga	-11.8218
▁mir	-11.8219
▁wodzɔ	-11.8222
▁nyitsuwo	-11.8232
▁Yoa	-11.8233
bɔr	-11.8238
waa	-11.8252
▁ahoɔfɛ	-11.8254
▁dɔɔ	-11.8258
▁abasa	-11.8259
▁dawò	-11.8265
▁nta	-11.8266
lɔɣu	-11.8267
▁taha	-11.8268
teatea	-11.8274
▁saŋku	-11.8278
▁bɛwuwu	-11.8279
▁miva	-11.8282
▁Shɛ	-11.8287
▁Makiri	-11.8287
mmɛn	-11.8288
pia	-11.8292
▁ɔnhyɛ	-11.8295
Baal	-11.8304
titire	-11.8305
nyari	-11.8306
▁fira	-11.8306
▁zuliyanim	-11.8307
▁ŋeŋe	-11.831
▁sabiri	-11.8312
▁mpɔ	-11.8316
▁ɔnte	-11.8318
▁wozɔ	-11.8319
▁twetiatwa	-11.8319
▁tibu	-11.8321
▁nsisi	-11.8321
▁Antiokia	-11.8324
▁Gɛdalia	-11.8324
▁Otniel	-11.8324
▁asikyiresiam	-11.8324
▁kabakaba	-11.8324
▁sukyerɛmma	-11.8324
▁Ŋlɔ	-11.8324
▁ɔhemmaa	-11.8324
▁Sebna	-11.8324
▁takpegbe	-11.8324
▁kabɔɣili	-11.8324
▁pinaanu	-11.8324
▁Hagi	-11.8324
▁salinim	-11.8324
▁Kamiyana	-11.8324
kyinkyini	-11.8324
▁Ŋɔdzi	-11.8324
▁ɔhwe	-11.8324
▁nyɔɣu	-11.8325
▁Netofa	-11.8325
▁Eliel	-11.8326
▁madrɔ̃	-11.8327
▁abosonsomfoɔ	-11.8327
▁Maaxa	-11.8327
▁wanomu	-11.8328
▁ɔpanin	-11.8328
▁Ɛpono	-11.8328
▁zabbu	-11.8328
▁Elon	-11.8328
▁nkoasom	-11.833
▁gbeɖuƒe	-11.833
▁Hele	-11.833
▁Wain	-11.8331
taim	-11.8334
▁ngodua	-11.8334
▁wɔnante	-11.8335
▁Monsane	-11.8335
▁ɔdwene	-11.8336
▁wakwan	-11.8336
▁nkuraaseɛ	-11.8337
▁mɛtena	-11.8338
red	-11.834
▁ɔntena	-11.8341
▁Par	-11.8342
▁heƒo	-11.8342
▁Mɛdi	-11.8343
▁ɔforo	-11.8344
▁ɖekakpuiawo	-11.8346
▁Agbalẽ	-11.8346
▁nhahan	-11.8347
▁mprɛ	-11.8347
▁barinim	-11.8348
▁tenatena	-11.8348
▁ɔsiesie	-11.8349
▁kpamdi	-11.835
▁ɔtwerɛfoɔ	-11.8351
▁karimbaannim	-11.8353
▁mabufuhyeɛ	-11.8353
▁mekpɔe	-11.8354
▁ẽ	-11.8355
▁bɛbua	-11.8356
▁ʋɔtruwo	-11.8361
▁ɖatsɔ	-11.8365
▁Atsɔ	-11.8366
▁ɖaseɖiɖiwo	-11.8369
▁nanteɛ	-11.8372
▁Afek	-11.8373
kpuɣi	-11.8374
▁tsona	-11.8377
▁wobɛma	-11.8378
▁miano	-11.8385
▁vɔsanu	-11.8386
▁agakpewo	-11.8391
▁nasafo	-11.8395
dim	-11.8407
▁fiasãwo	-11.8408
▁abie	-11.8409
▁gbagbewo	-11.8409
▁elé	-11.8409
▁ketɔ	-11.8422
▁wɔteeɛ	-11.8423
nnwira	-11.8424
▁Nebo	-11.8425
retwa	-11.8427
ɖɔli	-11.8427
▁pul	-11.8429
▁gbɔ̃vi	-11.8431
▁wɔafira	-11.8432
lɛl	-11.8433
▁Hanani	-11.8434
ŋku	-11.8436
▁nadzɔ	-11.8437
ũ	-11.8439
▁kuntu	-11.8446
▁abɛka	-11.8446
sensɛn	-11.8446
▁ɔnhunu	-11.8453
▁hamea	-11.8454
▁tiɣiri	-11.8458
▁Nɔvinye	-11.8462
▁aduro	-11.8463
▁aŋlɔ	-11.8465
donu	-11.8467
▁gbihi	-11.8473
▁apo	-11.848
sianka	-11.8482
▁nsɛe	-11.8483
▁Enya	-11.8485
▁dwanee	-11.8493
▁amekae	-11.8494
sɔhwɛ	-11.8495
pare	-11.85
safohene	-11.8501
▁wuhir	-11.8503
▁nawu	-11.8518
▁wanka	-11.8519
▁putɔɣu	-11.852
▁Lɛvinima	-11.8521
gyinagyina	-11.8523
▁deda	-11.8523
num	-11.8531
haya	-11.8533
▁Maligumaan	-11.8536
▁Yoh	-11.8536
▁Ɔhem	-11.8536
▁Abyatar	-11.8536
▁Mardoxai	-11.8536
▁kɔhigɔriba	-11.8536
▁nkatanimu	-11.8536
▁nkyimiiɛ	-11.8536
▁ŋmɛnditoya	-11.8536
▁gɔmeɖokpe	-11.8537
▁agbemeŋkeke	-11.8537
▁bɔɣusapima	-11.8537
▁ɔnwomfoɔ	-11.8538
doo	-11.8538
▁yɔhindi	-11.8539
▁Kpao	-11.8539
▁nkuran	-11.8541
▁Jɔram	-11.8541
▁Seraya	-11.8543
ʋãna	-11.8544
▁mpete	-11.8544
▁Helafoɔ	-11.8545
hodwo	-11.8545
▁ɔdiiɛ	-11.8547
▁gena	-11.8548
▁Míenya	-11.8548
▁wɔafom	-11.8548
▁Ènya	-11.8548
yidie	-11.8551
▁tiŋbia	-11.8551
▁Tama	-11.8551
▁ahotɔ	-11.8553
ɖedzi	-11.8555
▁abɔntene	-11.8556
▁wɔatoto	-11.8556
▁wasom	-11.8557
▁Dɔla	-11.8558
▁tɛri	-11.8558
ɖawɔ	-11.856
▁wòɖa	-11.8562
ahodeɛ	-11.8563
▁ɔbɛsɛe	-11.8564
▁Ɖeko	-11.8565
▁Mixɔ	-11.8567
▁ɔdaa	-11.8567
▁Netsɔ	-11.8568
▁aʋakplɔlawo	-11.8568
▁Gya	-11.8569
▁wuranom	-11.857
▁fan	-11.8571
▁asekyerɛ	-11.8575
▁Amesiawo	-11.8578
▁Wotso	-11.8578
▁pete	-11.8578
▁h	-11.8579
▁èdo	-11.858
▁saŋmar	-11.8581
▁Kish	-11.8584
rentwa	-11.8588
paai	-11.8591
▁Babiloniafoɔ	-11.8591
titotoŋkekenyuie	-11.8592
▁nkoraa	-11.8592
▁bɛso	-11.8594
▁emetɔ	-11.8599
▁gava	-11.86
▁bunu	-11.86
▁metea	-11.86
metsitsi	-11.8601
▁mawɔe	-11.8602
rigu	-11.8606
▁Hɔr	-11.8607
▁puh	-11.8607
▁woɖee	-11.8609
▁negblɔ	-11.8614
▁wòkplɔm	-11.8615
nnum	-11.8615
▁sraa	-11.8616
▁apata	-11.8618
▁cheechinim	-11.8621
▁maŋmaŋa	-11.8636
▁agyae	-11.8645
▁makafu	-11.8649
vɔvɔ̃	-11.8655
▁wòge	-11.8655
▁wòyra	-11.8656
▁mesuro	-11.8657
▁mlɔetɔ	-11.8661
kata	-11.8664
▁ŋɔdzinu	-11.8666
▁bɛtwam	-11.8669
pɛfoɔ	-11.8678
▁yɛlimiya	-11.8678
▁yiɣisiya	-11.8681
▁odwammaa	-11.8681
mmua	-11.8682
▁atra	-11.8684
▁wɔkoto	-11.8687
fli	-11.8688
mena	-11.8691
hwim	-11.8697
▁Herod	-11.8701
▁woasi	-11.8707
▁dwan	-11.8707
▁wɔbɛbɔ	-11.8708
ɛsene	-11.8711
▁ɛkata	-11.8715
▁Eme	-11.872
kpui	-11.8724
▁basabasa	-11.873
▁ntra	-11.8731
▁vovovo	-11.8734
▁nuvɔ̃wɔla	-11.874
▁ntene	-11.8743
▁aƒedzikpɔla	-11.8744
▁blewu	-11.8753
▁Listra	-11.8754
▁Paska	-11.8754
▁Tofet	-11.8754
▁Vɔvɔ̃	-11.8754
▁Yedaia	-11.8754
▁awisiaa	-11.8754
▁fabinda	-11.8754
▁kokpɛɣu	-11.8754
▁nsuyire	-11.8754
▁Hasabia	-11.8754
▁nnapɔnna	-11.8754
▁dowòme	-11.8754
▁ashili	-11.8754
▁binyila	-11.8754
▁Ɛlikana	-11.8754
▁Beria	-11.8755
▁wuienyi	-11.8755
▁fuwɔame	-11.8755
▁Beerot	-11.8755
▁Nunɔlagã	-11.8755
▁ʒiɛɣu	-11.8755
▁ahohoahoa	-11.8755
▁fiavi	-11.8756
▁wometsɔ	-11.8757
▁woaŋlɔ	-11.8757
▁glikpo	-11.8757
▁dzidzenu	-11.8758
▁atse	-11.8759
dzaba	-11.876
▁Tera	-11.8762
▁nnwane	-11.8762
▁nèƒo	-11.8763
▁wolã	-11.8764
▁ɔreka	-11.8764
▁wobɔ	-11.8765
▁ɔnhwɛ	-11.8765
nwunu	-11.8766
▁ŋkutawo	-11.8768
▁sirigi	-11.8768
▁sɔreɛ	-11.8769
▁bɔɣu	-11.8771
▁wal	-11.8778
kɔsi	-11.8778
▁dɛre	-11.8783
▁tempɔn	-11.8785
▁Mode	-11.8787
▁kamfo	-11.8788
▁woha	-11.8791
▁Ɖevi	-11.8792
▁kyekyɛ	-11.8793
ziɔ	-11.8793
▁kɔbisa	-11.8797
aban	-11.8797
▁yaai	-11.8797
▁nèbu	-11.8798
▁xɔlɔ̃wo	-11.8802
tɔre	-11.8804
▁medidi	-11.8804
▁miatsrɔ̃	-11.8805
▁meyina	-11.8806
▁keklẽm	-11.8808
adamfo	-11.881
▁ɣeyiɣiwo	-11.8813
▁aʋafiawo	-11.8814
▁megado	-11.8815
wonoo	-11.8818
▁ɔbobɔ	-11.8819
▁dzatawo	-11.8823
▁awɔba	-11.8823
rekɔbɔ	-11.8827
tro	-11.883
▁monsane	-11.8838
▁dzɔdzɔme	-11.884
amegãwo	-11.8841
▁ɔbɛwu	-11.8843
▁yɔdowo	-11.8845
▁adepa	-11.8845
manehunufoɔ	-11.8845
▁heto	-11.8845
▁Tihi	-11.8848
▁suewo	-11.8851
▁gatrɔ	-11.8852
▁vɔ̃m	-11.8854
▁makwan	-11.8856
▁aƒetɔwo	-11.8858
▁animu	-11.8859
▁yewoawu	-11.886
▁ɛsɛn	-11.8863
▁Gol	-11.8866
▁matwerɛ	-11.8866
▁goo	-11.8869
xɔwo	-11.8871
▁lɔrigi	-11.888
▁azã	-11.8883
▁mifa	-11.8899
▁tɔnyee	-11.8901
▁wògbã	-11.8903
▁ʒirinim	-11.8904
▁Wodzi	-11.8905
▁kpil	-11.8906
▁Tola	-11.8909
▁Miawoe	-11.8921
▁wòbiae	-11.8927
▁nyane	-11.8932
▁kawa	-11.8932
▁wòŋlɔ	-11.8935
▁wòtia	-11.8937
▁agbɔe	-11.8939
▁Ax	-11.8947
▁ɔpa	-11.8947
▁amedɔdɔ	-11.8955
▁lur	-11.8957
tifi	-11.8957
▁ɔmpɛ	-11.8964
▁Bilha	-11.897
▁akunkum	-11.8972
▁Abishai	-11.8976
▁Ahimaaz	-11.8976
▁Ashɛra	-11.8976
▁Eŋkɔ	-11.8976
▁Gɛrishɔn	-11.8976
▁Nasareni	-11.8976
▁adasamma	-11.8976
▁aʋalɔgo	-11.8976
▁dzomeŋɔli	-11.8976
▁sakasaka	-11.8976
▁Lasaro	-11.8976
▁chahi	-11.8976
▁konyifaha	-11.8976
▁Imer	-11.8976
▁ju	-11.8976
▁ɖaɖɛ	-11.8976
▁Tirsa	-11.8976
▁Dindina	-11.8976
▁Kamɛl	-11.8976
▁vovototo	-11.8977
▁vivivo	-11.8977
▁asutire	-11.8977
▁wuiade	-11.8978
▁yɛndana	-11.8978
▁bupia	-11.8978
akyekyere	-11.8979
▁pɔŋ	-11.8979
▁akɔfafa	-11.8979
hadad	-11.8979
▁woavɔ̃	-11.8979
sofoɔ	-11.8979
▁zaka	-11.898
▁akwankyerɛ	-11.898
▁Míekpɔ	-11.898
▁chu	-11.8981
▁ɔbɛsi	-11.8981
▁nugblẽla	-11.8981
▁miegblẽ	-11.8982
▁Monsɔre	-11.8982
▁Mmer	-11.8983
▁nèva	-11.8983
▁míeƒo	-11.8983
▁vianyɔnu	-11.8984
▁Xititɔwo	-11.8986
▁helé	-11.8987
▁ŋubira	-11.899
▁nèlɔ̃	-11.899
▁Zaa	-11.8992
▁Siba	-11.8993
▁aforo	-11.8993
▁Amedzro	-11.8994
▁ahiãviwo	-11.8994
▁Etam	-11.8995
pamm	-11.8995
▁apini	-11.8996
▁Wote	-11.8997
▁Etu	-11.8998
▁zãnu	-11.8999
▁bɔɣ	-11.8999
▁ɔtwa	-11.9
▁mosom	-11.9002
▁voli	-11.9002
▁kur	-11.9003
▁nànye	-11.9011
▁manimuonyam	-11.9014
▁kpiŋ	-11.9016
▁kyerɛpɛn	-11.9018
▁mebua	-11.9021
▁míatsi	-11.9021
▁akasakasa	-11.9021
▁gbɔdzɔgbɔdzɔ	-11.9023
▁aʋli	-11.9028
rensɛe	-11.9028
▁tɔ́wo	-11.903
▁owifoɔ	-11.903
▁dzowɔ	-11.9032
fono	-11.9034
▁fofowòwo	-11.9034
▁Edomfoɔ	-11.9035
▁wokpɔa	-11.9036
▁Woxɔ	-11.9036
▁dzikpɔkpɔ	-11.9042
▁afirinhyia	-11.9042
▁edi	-11.9045
▁ammɛ	-11.905
megã	-11.9051
mpene	-11.9059
beni	-11.9059
twentwɛn	-11.9068
▁nɔviwòwo	-11.9069
▁wɔawo	-11.9071
▁magakpɔ	-11.9071
▁gbin	-11.9072
▁mitrɔ	-11.9086
▁mamma	-11.9089
▁niŋda	-11.9097
▁wòga	-11.9099
▁alakpanya	-11.9104
▁taal	-11.9109
diriba	-11.9116
ahwe	-11.9118
shan	-11.912
▁biɛra	-11.9121
▁Yerusalemtɔwo	-11.9123
▁Tum	-11.913
▁pɔb	-11.9137
▁.-	-11.9141
▁kokoe	-11.9149
▁duhiri	-11.9152
▁nyɔnuawo	-11.9153
mmere	-11.9157
ntene	-11.9162
▁kabisi	-11.9165
pie	-11.9166
▁goon	-11.9169
▁nadzo	-11.9169
▁ɛdane	-11.9171
▁ɔpo	-11.9173
gayɔ	-11.9175
▁awowa	-11.9176
▁gbahiri	-11.9183
jɛmdi	-11.9186
nnaadaa	-11.9186
▁ɔbɛdii	-11.919
▁aŋe	-11.9195
▁ɔboda	-11.9198
▁Ari	-11.9199
▁bɛkasa	-11.92
▁Yɛli	-11.92
▁tiŋkpan	-11.9201
muel	-11.9203
chiika	-11.9203
▁Anatɔt	-11.9203
▁Kreta	-11.9203
▁Shallum	-11.9203
▁Yehohanan	-11.9203
▁Zekaria	-11.9203
▁akokoɔduru	-11.9203
▁atorosɛm	-11.9203
▁bobobo	-11.9203
▁vuvɔŋɔli	-11.9203
▁Ŋutinyagbalẽ	-11.9203
▁Ʒiɛɣu	-11.9203
▁dedinɔnɔ	-11.9203
▁Ɛsta	-11.9203
▁zemela	-11.9203
▁kronn	-11.9203
▁sɔsɔe	-11.9203
▁nkukuo	-11.9204
▁zɔntua	-11.9204
▁lilili	-11.9204
▁vɔ̃ɖivɔ̃ɖi	-11.9204
▁Uziel	-11.9204
▁axɔe	-11.9204
▁Ahiya	-11.9204
▁Twe	-11.9205
▁Sobal	-11.9205
makpɔ	-11.9205
▁Ɛkwan	-11.9206
▁yewoatsɔ	-11.9206
▁bosuo	-11.9206
▁womedze	-11.9209
▁Viɖe	-11.9209
▁ŋarima	-11.921
▁mietsi	-11.9211
▁wotre	-11.9211
biɛri	-11.9211
▁wanimuonyam	-11.9212
▁edzinɔlawo	-11.9212
▁aʋlime	-11.9213
▁aƒelikawo	-11.9213
▁koklo	-11.9214
▁tetekpɔ	-11.9215
▁nuɖusime	-11.9216
▁Heyi	-11.9216
▁lãdzo	-11.9217
▁Ɛlam	-11.9218
▁nyagbɔgblɔ	-11.9219
▁nɛɔŋ	-11.922
▁wɔbɛkɔ	-11.9222
▁dadwene	-11.9224
▁alẽviawo	-11.9227
▁tanzaa	-11.9227
▁ènye	-11.923
▁yɛhunu	-11.9233
▁Mamre	-11.9233
▁Onan	-11.9234
yɛra	-11.9237
▁abɔnefosɛm	-11.9239
▁dwaneeɛ	-11.9241
yɛri	-11.9243
▁kpuɣibu	-11.925
▁Rabi	-11.9251
▁odwamamfoɔ	-11.9254
▁zaŋd	-11.9254
▁gbagba	-11.9256
▁kɔtɔ	-11.9256
▁Aƒe	-11.9258
▁aƒle	-11.9262
▁Lu	-11.9264
▁miadzo	-11.9266
▁Mikplɔ	-11.9267
▁megakpɔ	-11.9268
▁mempɛ	-11.9269
▁gbihiri	-11.9276
▁hɔnom	-11.9278
▁gyae	-11.9281
▁luna	-11.9286
fat	-11.9287
▁dooni	-11.9289
▁abɛto	-11.9298
▁Maas	-11.9301
▁kpara	-11.9302
▁ŋusẽtɔwo	-11.9307
werɛhoɔ	-11.9313
▁nunɔlaawo	-11.9313
▁Nahas	-11.9318
▁wòzɔ	-11.9321
▁Uza	-11.933
▁pie	-11.9341
▁pipi	-11.9342
▁yare	-11.9342
chin	-11.9348
▁Amena	-11.9358
wowɔ	-11.9367
▁ɖawɔ	-11.9372
gugu	-11.9383
▁nomee	-11.9387
▁renni	-11.9389
▁wòve	-11.9394
▁megana	-11.9394
▁dzidodo	-11.9394
▁guhi	-11.9403
bɛtua	-11.9404
▁mayɔ	-11.9405
mawu	-11.9414
pinkyɛ	-11.9415
▁nenam	-11.9416
anidasoɔ	-11.9416
▁Ɛla	-11.9417
nyansafoɔ	-11.9418
galé	-11.9421
▁miamia	-11.9423
lihi	-11.9426
▁tamesusu	-11.9426
▁paɣim	-11.9432
teei	-11.9433
▁Jɛhoya	-11.9436
▁Adɔnija	-11.9436
▁Astarot	-11.9436
▁Betlexem	-11.9436
▁Joɛl	-11.9436
▁Jɛhɔash	-11.9436
▁Kornelio	-11.9436
▁Lamek	-11.9436
▁Masidɔnia	-11.9436
▁Mɛshulam	-11.9436
▁Peleg	-11.9436
▁Sisak	-11.9436
▁Zɛrubabɛl	-11.9436
▁daanfaani	-11.9436
▁kɔbigakɔbiga	-11.9436
▁ntwahonan	-11.9436
▁pisaayika	-11.9436
▁Ɔbɔnefoɔ	-11.9436
▁ahinanan	-11.9436
▁nutrenu	-11.9436
▁Kidron	-11.9436
▁logoti	-11.9436
▁ntasuo	-11.9436
▁Usiel	-11.9436
▁tsɛ	-11.9436
▁Hamor	-11.9436
▁takpeƒe	-11.9436
▁ahomasoɔ	-11.9436
▁nuhaha	-11.9437
▁faranim	-11.9437
▁mpɛpɛ	-11.9437
▁mɔmefia	-11.9437
▁ʒiini	-11.9437
▁atuateɛ	-11.9437
▁aƒla	-11.9437
▁Buki	-11.9437
▁tsiɖɔɖɔ	-11.9438
▁dɔmmarima	-11.9438
▁hwammɔ	-11.9438
▁tumtumdi	-11.9438
▁edwa	-11.9439
▁kpodzo	-11.9441
▁ɔsahene	-11.9441
▁osutɔ	-11.9441
▁Adar	-11.9442
▁Nkyene	-11.9445
▁hetrɔ	-11.9446
▁neeri	-11.9447
▁kurakura	-11.9448
▁bɛtwe	-11.9449
▁Hebritɔwo	-11.9449
▁nunono	-11.9454
▁wonnim	-11.9456
▁fiãm	-11.9458
▁nèhe	-11.9459
▁deebu	-11.946
▁amegbetɔviwo	-11.9463
▁wɔabrɛ	-11.9468
▁Mepɛ	-11.9468
▁wɔkyekyeree	-11.947
gabia	-11.9472
▁chanimi	-11.9475
▁yɛdaniŋdiba	-11.9475
▁pere	-11.9476
▁woati	-11.9478
▁Abarim	-11.9478
▁ɔtane	-11.9478
▁amim	-11.9482
▁ɔsɛ	-11.9483
▁bɛmma	-11.9483
▁Ekɔ	-11.9484
▁kɔyɛ	-11.949
▁meke	-11.9491
bɛdwane	-11.9494
▁mɛtua	-11.9499
▁afɔdie	-11.9501
▁kpẽwo	-11.9509
dro	-11.951
▁wari	-11.9515
Me	-11.9516
▁Ɛm	-11.9519
rensuro	-11.952
▁ɔbɛte	-11.9522
▁atenetene	-11.9527
▁ƒ	-11.953
▁Mayi	-11.9531
rehwɛ	-11.9535
uɛl	-11.9545
▁dzoka	-11.9549
▁wobiae	-11.955
lahiziba	-11.9551
▁viŋutsuvi	-11.9552
▁saɣiri	-11.9552
▁Mara	-11.9557
▁wada	-11.956
▁wɔsrɛ	-11.9569
▁eyɔ	-11.957
ntɔn	-11.9578
tsitsi	-11.9579
mmɛdi	-11.958
▁Axi	-11.9592
▁asoa	-11.9594
▁mɛtwa	-11.9595
▁situr	-11.9599
▁monte	-11.96
▁garig	-11.9601
▁xlãm	-11.9601
▁wɔbɛn	-11.9603
▁ɔsrɛ	-11.9613
▁Ek	-11.962
▁ante	-11.9622
▁Xanan	-11.9623
dwamammɔ	-11.9627
▁ɛdeda	-11.9637
▁tiligiri	-11.9653
▁Ɔko	-11.9654
▁tɔmelã	-11.9657
▁kristotɔ	-11.9658
▁Hiti	-11.9659
▁adwiri	-11.9664
darigi	-11.9669
▁egodo	-11.9671
▁metena	-11.9672
▁ahiãvi	-11.9673
▁ɣletivi	-11.9673
▁binshɛɣu	-11.9673
▁chɔɣisi	-11.9674
dwendwene	-11.9674
▁Arauna	-11.9674
▁abosonnan	-11.9674
▁akwansrafoɔ	-11.9674
▁nyaɣa	-11.9674
▁sorosoro	-11.9674
▁Ŋkɔ	-11.9674
▁ŋdɔkutsu	-11.9674
▁Ɛfɛsus	-11.9674
▁Ornan	-11.9674
▁dawuro	-11.9674
▁ziliŋ	-11.9674
▁Pɛrɛz	-11.9674
▁nkyerɛaseɛ	-11.9674
▁vidzidɔ	-11.9674
▁abrane	-11.9674
▁ntintan	-11.9674
▁Hasor	-11.9674
▁Zɛru	-11.9674
▁nwononwono	-11.9674
▁Baesa	-11.9674
▁maxe	-11.9675
▁Jɛhɔram	-11.9675
▁For	-11.9675
▁wuiene	-11.9676
▁twaberɛ	-11.9676
▁Zɛra	-11.9676
▁fɛ̃	-11.9676
▁adzɔnuwo	-11.9677
▁afɔkli	-11.9677
▁ɔteasefoɔ	-11.9677
▁Tabor	-11.9678
▁nnesoa	-11.9678
▁Mixal	-11.9679
▁dziwui	-11.9681
▁pɔra	-11.9681
▁Hosa	-11.9682
▁Mesi	-11.9684
▁aŋgbawo	-11.9686
▁agblemenukuwo	-11.9686
tari	-11.9686
▁wɔatotɔ	-11.9687
▁Dome	-11.9688
▁adzame	-11.9689
▁wɔsoa	-11.9689
mũ	-11.969
▁tabil	-11.9694
▁koto	-11.9697
▁kɔtɔɔ	-11.9697
▁tah	-11.97
▁nènya	-11.9704
▁Bɔne	-11.9704
▁bɛtie	-11.9706
▁Miese	-11.9707
▁zomiya	-11.9709
bɛhwe	-11.971
▁Nyam	-11.9711
▁vɔ̃nɛ	-11.9716
doya	-11.9718
▁zibi	-11.9721
▁Woɖu	-11.9722
bɛhunu	-11.9725
▁saɣiya	-11.9728
duaa	-11.9729
▁vudoa	-11.9729
▁Tin	-11.9732
▁apae	-11.9734
▁mialé	-11.9734
▁ƒodo	-11.9735
▁lée	-11.9735
▁afuom	-11.9737
bɛka	-11.9739
▁ayiyi	-11.9741
▁tusa	-11.9744
kyekye	-11.9746
damena	-11.9748
▁masom	-11.9748
▁dzigbe	-11.9749
mmrɛ	-11.9754
▁akwantu	-11.9755
▁dzidzimeviwoe	-11.9756
▁ɔpae	-11.9758
▁Ɔb	-11.976
▁montwa	-11.9761
▁bɛhyira	-11.9766
▁atɔ̃awo	-11.9769
monhwa	-11.9773
▁tɔte	-11.9782
àtsɔ	-11.9784
▁Nka	-11.9784
▁dziƒoxɔ	-11.9786
▁miasi	-11.9788
▁mfrɛ	-11.9788
▁sɔŋbu	-11.9792
▁Nyɔnua	-11.9799
▁Nɔa	-11.9799
▁ɖada	-11.9804
▁hesi	-11.9808
▁pe	-11.981
▁Wokɔ	-11.9819
▁wɔhyee	-11.9819
▁hwɛeɛ	-11.9827
▁wòŋe	-11.9836
▁motie	-11.9837
▁mmo	-11.9845
▁tiwal	-11.9845
▁yeyewo	-11.9846
▁yewoaɖ	-11.9849
▁ɖeviawo	-11.9851
▁wɔhwie	-11.9855
▁antu	-11.9864
▁sere	-11.9865
▁Sh	-11.9866
▁ɔpɛɛ	-11.9866
mbihi	-11.9867
▁asusɔ	-11.9874
asoma	-11.9878
▁Enan	-11.9879
▁mose	-11.9885
▁maŋlɔ	-11.9886
▁kuvia	-11.9888
▁mavɔmavɔ	-11.9892
▁Sidɔn	-11.9893
▁Hiburu	-11.9901
▁ŋutasẽla	-11.9902
▁mamlea	-11.9902
uɣa	-11.9903
▁Zif	-11.9909
▁mpuna	-11.9912
▁wɔante	-11.9914
▁Ŋɔ	-11.9917
semes	-11.9918
▁Arinɔn	-11.9918
▁Finɛhas	-11.9918
▁Gomɔra	-11.9918
▁Jɛzibɛl	-11.9918
▁Ntonto	-11.9918
▁Sefatia	-11.9918
▁Shafan	-11.9918
▁Wuntaŋ	-11.9918
▁Yobab	-11.9918
▁adwemmɔne	-11.9918
▁adwensakyera	-11.9918
▁ayuporebea	-11.9918
▁binnamda	-11.9918
▁dziƒoxeviwo	-11.9918
▁dɔɣirikpɛma	-11.9918
▁tɔgbuiwòwo	-11.9918
▁xɔ̃wò	-11.9918
▁Ɖekakpui	-11.9918
▁Ɛster	-11.9918
▁Guni	-11.9918
▁tuntum	-11.9918
▁amehehe	-11.9918
▁kuntru	-11.9918
▁hahoo	-11.9918
yinika	-11.9918
▁labbuna	-11.9918
▁nsɛmmɔne	-11.9918
▁atrakpui	-11.9918
▁dzixɔse	-11.9918
▁pisinaata	-11.9918
▁kɔtɛe	-11.9918
inshɛɣukam	-11.9918
▁agblea	-11.9918
▁Jɔhanan	-11.9918
▁nsramma	-11.9919
▁chamiya	-11.9919
▁aboɔden	-11.992
▁seyie	-11.992
▁agyaadwoɔ	-11.992
▁nyɔnumawu	-11.992
▁nsiesieeɛ	-11.992
gil	-11.992
▁meresom	-11.992
▁zɔhiri	-11.9921
▁Mat	-11.9921
▁susukora	-11.9921
▁wɔrennya	-11.9921
ƒaƒã	-11.9921
▁etire	-11.9922
▁Alf	-11.9922
▁mahili	-11.9923
▁tɔrili	-11.9923
▁napɔna	-11.9923
▁Yael	-11.9924
▁miebia	-11.9925
▁Zɛ	-11.9926
▁mpɔmpɔ	-11.9928
▁Soko	-11.993
▁ŋkuɖoɖo	-11.993
▁megate	-11.9931
▁Asuo	-11.9931
▁Eve	-11.9932
efer	-11.9932
▁vɔsasa	-11.9934
▁wɔnnka	-11.9934
▁yewole	-11.9934
▁Ɛbɛl	-11.9934
▁mebisa	-11.9935
▁ɔmfir	-11.9936
▁rebrɛ	-11.9936
▁mixɔ	-11.9937
▁ɛtia	-11.9941
gazu	-11.9944
▁biɛhi	-11.9944
▁kutri	-11.9953
▁Daba	-11.9955
▁dzana	-11.9956
▁yiŋnima	-11.996
▁ɔtwitwa	-11.9963
▁wato	-11.9964
▁redidi	-11.9971
▁lũ	-11.9974
isaa	-11.9975
▁Wobu	-11.9978
▁kpetsi	-11.9978
▁xeviwo	-11.9979
▁weinka	-11.9984
▁asubura	-11.9984
▁Èna	-11.9989
▁Im	-11.9989
amanehunu	-11.9997
▁Akpa	-12.0002
▁ɛtoa	-12.0004
▁niɛm	-12.0005
▁maŋa	-12.0005
bɛfiri	-12.0007
▁kyee	-12.0009
worɔ	-12.0011
▁Husai	-12.0011
▁dola	-12.0012
▁masɛe	-12.0014
nyɔnuwo	-12.0015
nnante	-12.0018
▁Èl	-12.0025
kuntunu	-12.0029
tɔeɛ	-12.003
meta	-12.0034
▁dadu	-12.0034
hom	-12.0035
▁deemi	-12.0038
nzinfa	-12.0045
▁Yisi	-12.0047
mfra	-12.0057
▁yɛgye	-12.0057
▁dunɔdal	-12.0061
wareware	-12.0061
▁wɔda	-12.0063
▁megblɔe	-12.0064
▁naɣilah	-12.0065
▁Zin	-12.007
kpala	-12.0072
▁wɔbɛtu	-12.0074
▁masiesie	-12.0083
▁nyemeɖ	-12.0083
▁abɛdi	-12.0096
▁kawoe	-12.0097
ɔs	-12.0102
▁Kefa	-12.011
▁akyɛre	-12.0114
▁ɔteɛ	-12.0117
▁kɔbɔ	-12.0125
kɔgyina	-12.0125
yɛyɛdeɛ	-12.0127
▁wòkpe	-12.0129
bɛbrɛ	-12.0142
▁agbalẽfiala	-12.0152
▁gameti	-12.0152
▁kubo	-12.0153
▁teateaa	-12.0153
▁mmɔborɔ	-12.0157
▁nyiŋgo	-12.0163
eta	-12.0164
▁wɔnsi	-12.0165
▁Oholiba	-12.0165
▁Tapua	-12.0167
ɔrɔbɔro	-12.0168
▁hũ	-12.0168
▁dzimaxɔse	-12.0168
▁Askelon	-12.0168
▁Hɛzirɔn	-12.0168
▁Yeter	-12.0168
▁aklamakpakpɛ	-12.0168
▁ayarefoɔ	-12.0168
▁ayɔnkofa	-12.0168
▁dwomkyerɛfoɔ	-12.0168
▁lãgbalẽgolo	-12.0168
▁nkɔtɔkorɔ	-12.0168
▁pihinahinaanu	-12.0168
▁sukooko	-12.0168
▁Marko	-12.0168
▁ŋmahinli	-12.0168
▁Makeda	-12.0168
▁nutsitsidɔ	-12.0168
▁nyarewa	-12.0168
▁ŋooi	-12.0168
▁ɔbaabunu	-12.0168
▁Molek	-12.0168
▁ayamyi	-12.0168
▁ɔpeha	-12.0168
▁wesee	-12.0168
▁ŋmɛbu	-12.0168
▁Zã	-12.0168
▁ɔyea	-12.0168
▁Ahija	-12.0168
▁tayiɣ	-12.0168
▁Karmi	-12.0168
▁Gersom	-12.0168
▁Safat	-12.0169
▁baabiɛla	-12.0169
▁mɔnukpɔkpɔ	-12.0169
▁Baabi	-12.0169
▁sikasigɛ	-12.0169
▁nteamu	-12.0169
▁shɛri	-12.0169
▁wògale	-12.017
▁gbeƒãɖeɖe	-12.017
▁adaban	-12.0171
▁ɛnkɔsi	-12.0171
▁manyanu	-12.0171
▁tipum	-12.0172
▁ahyehyɛdeɛ	-12.0172
▁tenaberɛ	-12.0172
▁Nebuzaradan	-12.0172
▁Kerubiawo	-12.0172
▁etɔ̃agbe	-12.0173
▁Peka	-12.0174
▁apostoloawo	-12.0174
▁nèdze	-12.0175
▁Salo	-12.0176
▁ayɛyie	-12.0178
▁ŋutifafavɔ	-12.0179
▁aseni	-12.018
▁wasɛe	-12.0181
▁ɔremma	-12.0181
▁paŋdi	-12.0183
▁Maon	-12.0183
▁Asir	-12.0184
▁pɔbi	-12.0185
▁nyẽ	-12.0187
▁Sidonfoɔ	-12.0187
▁kplɔ̃a	-12.0191
▁kumfɔ	-12.0193
bè	-12.0194
▁Ofra	-12.0197
▁Emu	-12.0197
▁awofoɔ	-12.02
▁bundana	-12.02
▁waba	-12.02
▁kɔsiee	-12.0203
▁nadwuma	-12.0203
▁dɔfo	-12.0204
▁wòatɔ	-12.0205
yɔm	-12.0206
▁Monnye	-12.0209
▁womebu	-12.0212
▁tɔʋuwo	-12.0214
▁klã	-12.0215
▁wɔsi	-12.0215
▁kloe	-12.0216
▁animtiaa	-12.0221
▁kyiri	-12.0222
▁wòyina	-12.0227
▁lɔ̃xoa	-12.0227
nha	-12.023
bire	-12.0233
▁tɔɣiri	-12.0233
▁Mexɔ	-12.0233
▁Wɔla	-12.0233
▁vevitɔ	-12.0234
gakpe	-12.0234
▁nakyire	-12.0236
kasaeɛ	-12.024
nuwɔwɔ	-12.0241
▁mpɛn	-12.0248
rentena	-12.0252
▁kpira	-12.0254
▁lihir	-12.0255
▁kumda	-12.026
dihi	-12.0261
ampɛ	-12.0262
▁wòabi	-12.0269
▁nware	-12.0275
▁wokɔe	-12.0287
kpɔtɔ	-12.0287
▁mirina	-12.0289
▁ŋmiri	-12.0295
glã	-12.0301
▁Israeltɔwo	-12.0305
▁abisa	-12.0306
▁yiŋbi	-12.0307
mmɛyɛ	-12.0309
▁wogblɔna	-12.0309
▁kahig	-12.0314
▁atene	-12.0319
▁tummi	-12.0319
▁wòdzra	-12.032
▁ɔbɛto	-12.0323
liŋga	-12.0326
▁sabila	-12.0333
▁adidie	-12.0334
▁koeɛ	-12.0337
▁wɔatena	-12.0338
zib	-12.0339
▁tutɔ	-12.0341
▁Misi	-12.0344
toatoa	-12.0345
▁nayɛyɛdeɛ	-12.0347
▁dzilawo	-12.0352
gawu	-12.0352
nkɔka	-12.0352
boli	-12.0352
▁nsesa	-12.0353
▁fum	-12.0364
▁nachin	-12.0366
▁bɛtua	-12.0367
ɛdom	-12.0375
▁fiɛbi	-12.0375
▁beree	-12.0376
▁kplɔlae	-12.0377
▁naklẽ	-12.0378
bɔne	-12.0381
▁Woka	-12.0391
▁chɛn	-12.0395
▁wɔamma	-12.0395
mmɔne	-12.0396
hiahia	-12.0397
menyawo	-12.0399
▁woaxɔe	-12.0402
funtum	-12.0404
K	-12.0404
ʒini	-12.0404
▁wòaɖi	-12.0405
▁Itiɔpia	-12.0408
▁hlɔ̃dola	-12.0409
atenaeɛ	-12.0409
▁kyɛre	-12.0409
▁alɔdze	-12.0415
▁momonoto	-12.0418
▁daapem	-12.0422
▁Doli	-12.0422
▁midzi	-12.0423
degblefetsu	-12.0424
▁Amenuveve	-12.0424
▁Edrei	-12.0424
▁Elifelet	-12.0424
▁Estaol	-12.0424
▁Hermon	-12.0424
▁Sadrak	-12.0424
▁Sixɔn	-12.0424
▁Tesalonika	-12.0424
▁asukɔtweaa	-12.0424
▁goŋgoŋ	-12.0424
▁hlɔ̃biabia	-12.0424
▁kɔkoam	-12.0424
▁ɔnyinsɛnee	-12.0424
▁adekodeɛ	-12.0424
▁Delila	-12.0424
▁Ebal	-12.0424
▁Mesak	-12.0424
▁kwadwom	-12.0424
▁Gɛba	-12.0424
hurihuri	-12.0424
▁Bars	-12.0425
▁ɔhyee	-12.0425
▁fɔɖivɔsa	-12.0425
▁akuafoɔ	-12.0425
▁yuusim	-12.0425
▁mprako	-12.0425
▁nsunoa	-12.0425
▁ŋɔŋɔe	-12.0425
▁yɔhiŋgu	-12.0425
▁Elifaz	-12.0425
▁wòatsrɔ̃	-12.0426
▁gbɛri	-12.0426
▁wɔmmra	-12.0427
nipakumfoɔ	-12.0427
▁fomfa	-12.0428
duane	-12.0429
▁nàtsrɔ̃	-12.043
▁míetsi	-12.0431
▁ɔwɛmfoɔ	-12.0432
▁Ahira	-12.0432
▁Monnni	-12.0434
▁mpemdu	-12.0436
▁wɔasra	-12.0436
▁zɔŋ	-12.0437
▁pameeɛ	-12.0437
▁boafoɔ	-12.0438
gahe	-12.0438
ŋsim	-12.0438
▁Manɔ	-12.0438
asiesie	-12.0438
▁Dison	-12.0439
▁Kerubi	-12.0441
▁Akaia	-12.0441
▁hetsi	-12.0441
▁mooi	-12.0442
▁mènya	-12.0443
▁akalo	-12.0443
▁Ŋutsua	-12.0445
▁apostolowo	-12.0446
▁kɔkɔme	-12.0446
▁atiawo	-12.0447
▁Matan	-12.0448
▁woafia	-12.0448
▁Kpa	-12.0448
▁trɔ̃wo	-12.0448
▁duumanim	-12.0451
▁Matat	-12.0452
mɔt	-12.0453
isim	-12.0456
▁míagblɔ	-12.0457
▁nyaɣisi	-12.0462
xar	-12.0463
gɔme	-12.0465
▁dzrom	-12.0465
▁wɔbɛfiri	-12.0471
▁Malkia	-12.0471
▁hameawo	-12.0471
▁asitsalawo	-12.0475
▁baŋmiya	-12.0477
▁ʋli	-12.0479
nsakyera	-12.0479
▁Ammɔn	-12.0481
▁abom	-12.0484
ferɛ	-12.0489
megbe	-12.0492
▁asẽ	-12.0494
trɛtrɛ	-12.0496
▁ɔhu	-12.0506
muni	-12.051
▁Mite	-12.0512
▁aŋgo	-12.0513
piɛl	-12.0514
▁atsa	-12.052
▁Medɔ	-12.0522
▁wɔkyiri	-12.0524
▁nnanu	-12.053
▁nadidi	-12.0531
▁aʋu	-12.0533
▁wakɔ	-12.0536
▁mehwehwɛ	-12.0538
▁Gblɔe	-12.0541
akeke	-12.0544
gawo	-12.0546
▁nasene	-12.0551
▁Neri	-12.0553
▁nyamiya	-12.0554
▁mekae	-12.0558
▁bubume	-12.0563
▁binnani	-12.0572
▁papayɛ	-12.0575
▁nkyekyere	-12.0576
▁Xɔse	-12.0576
▁kpima	-12.0577
▁woɖoe	-12.0581
▁Luk	-12.0589
kyekyeree	-12.059
▁tiŋgbɔna	-12.059
ɣimiya	-12.0592
▁wògbɔ	-12.0593
▁kpah	-12.0601
piɛliga	-12.0607
▁chɛbisi	-12.0621
dam	-12.0621
woro	-12.0628
nsiane	-12.0631
▁monkae	-12.064
▁Woaɖu	-12.0644
▁Momm	-12.0645
▁wɔntena	-12.0646
▁nkum	-12.0647
▁anhwɛ	-12.0654
▁ɔgya	-12.0654
▁medzra	-12.0657
▁migan	-12.0658
bɛkyerɛ	-12.066
▁nkura	-12.0666
nyẽ	-12.0667
ŋmaligi	-12.0668
▁tsrala	-12.0671
▁Suhi	-12.0672
▁Monna	-12.0675
rensane	-12.0676
▁ƒoƒom	-12.0678
▁bipuɣin	-12.0684
fufuo	-12.0684
▁nuɖuvɔ	-12.0685
kyene	-12.0686
bere	-12.0687
▁dundɔn	-12.0687
▁Artasasta	-12.0687
▁Atsiaƒu	-12.0687
▁Iskariot	-12.0687
▁Korinto	-12.0687
▁Netanel	-12.0687
▁Pisga	-12.0687
▁Seesei	-12.0687
▁Xazael	-12.0687
▁Yerubaal	-12.0687
▁adanmudeɛ	-12.0687
▁dahalali	-12.0687
▁ninkuunsi	-12.0687
▁nokwasɛm	-12.0687
▁pepeaa	-12.0687
▁saɣiŋgu	-12.0687
▁ŋmɛliŋmɛli	-12.0687
▁Ɛkurɔn	-12.0687
▁Enos	-12.0688
▁Matitia	-12.0688
▁danseni	-12.0688
▁fiaɖuɣi	-12.0688
▁kuɖiɖinyigba	-12.0688
▁Tirza	-12.0688
▁pumpɔrinchi	-12.0688
▁Tuun	-12.0688
▁birapu	-12.0688
▁teebuli	-12.0688
▁kwaadu	-12.0688
▁kwasea	-12.0688
▁Troa	-12.0688
▁mokaname	-12.0688
▁Ayalon	-12.0688
▁Balime	-12.0688
▁sunsuanee	-12.0688
▁dzogbenya	-12.0688
▁Binui	-12.0688
gyinatufoɔ	-12.0688
▁ahintasɛm	-12.0688
▁ɔhoɔdenfoɔ	-12.0688
▁mebaeɛ	-12.0688
▁Libia	-12.0688
▁Saron	-12.0689
wuraa	-12.0689
▁adapaa	-12.0689
▁naɣilabil	-12.0689
▁nyaatwomfoɔ	-12.0689
▁Geser	-12.0689
▁wòahe	-12.069
▁Eɖi	-12.069
▁shɛhiralana	-12.069
▁Sabimi	-12.0691
▁Menie	-12.0691
▁wòatso	-12.0691
▁hooyɛ	-12.0691
▁blewuu	-12.0691
▁woabɔbɔ	-12.0692
flɔ	-12.0693
▁nutata	-12.0693
▁vovovoawo	-12.0693
▁duɣuri	-12.0693
▁woaha	-12.0694
▁woanka	-12.0695
▁Tiligim	-12.0696
▁atilɔ	-12.0697
▁wɔasene	-12.0698
▁sɔfe	-12.0698
▁Agakpe	-12.0698
▁tɔbutuhiriba	-12.0698
▁anyidzedze	-12.0698
▁ƒukpowo	-12.0699
▁afiã	-12.0699
▁akuraa	-12.07
▁kɔniŋdi	-12.07
▁ɔbɛfiri	-12.07
▁tẽe	-12.0701
▁tulim	-12.0701
▁Yerusalemnɔlawo	-12.0702
▁ahosan	-12.0702
▁nàde	-12.0703
▁Abolo	-12.0704
▁ŋutilãwo	-12.0705
▁apue	-12.0705
▁resiane	-12.0706
▁jina	-12.0709
▁akɔkoaa	-12.071
▁damiwo	-12.0711
▁Urim	-12.0711
gaŋlɔ	-12.0714
▁kpoyi	-12.0714
▁ɔboaboa	-12.0715
pempem	-12.0718
▁Melé	-12.0721
▁masɔ	-12.0724
▁gbɔ̃wo	-12.0725
▁ahodwiri	-12.0727
▁nànya	-12.0727
▁Ger	-12.073
▁Ir	-12.0732
▁Yax	-12.0733
▁Medze	-12.0735
▁subɔna	-12.0735
twerɛeɛ	-12.0736
▁wɔtenatena	-12.074
▁biɛlim	-12.0742
▁kpoawo	-12.0744
▁gege	-12.0746
▁nnue	-12.0751
▁monsom	-12.0756
▁rehwehwɛ	-12.0762
▁klɔ	-12.0764
▁alafawo	-12.0765
▁míaxɔ	-12.0765
tagba	-12.0772
▁tumfoɔ	-12.0775
aduane	-12.0782
▁aberempɔn	-12.0783
tirɛ	-12.0788
▁Wuntizɔr	-12.0789
guli	-12.0792
▁timaŋmaŋ	-12.0792
▁ɔbɛhyɛ	-12.0795
▁miawu	-12.0797
▁wɔnsom	-12.0798
▁alẽviwo	-12.0798
▁asɛnka	-12.08
abɔfra	-12.0804
▁ŋkuta	-12.0805
nhwie	-12.0807
▁Lud	-12.0822
kplɔm	-12.0828
▁birim	-12.083
▁darig	-12.0832
▁gayi	-12.0834
▁pirig	-12.0839
ɛbat	-12.0839
▁Ɛr	-12.0842
▁agunu	-12.0844
▁bɛwe	-12.0844
ntwerɛ	-12.0849
kyeakyea	-12.085
▁mereyɛ	-12.0852
▁wòadzi	-12.0856
▁luʋɔwo	-12.0868
▁Mmɔ	-12.0869
▁montumi	-12.0871
▁akɔka	-12.0871
▁berɛso	-12.0876
▁Shɛl	-12.0876
▁buŋa	-12.0876
▁Sila	-12.0877
ija	-12.0877
▁timaŋ	-12.0882
nansia	-12.089
▁Adin	-12.0891
▁dwiri	-12.0893
▁Ado	-12.0894
▁Midi	-12.0901
▁madzo	-12.0905
▁nudzidze	-12.0907
turu	-12.0907
▁Due	-12.0907
▁Wore	-12.091
▁Wɔdi	-12.0911
▁owura	-12.0912
▁baptaizi	-12.0921
▁dzona	-12.0922
▁Teem	-12.0926
▁nàɖa	-12.0927
▁wumya	-12.0931
▁Yihim	-12.0931
▁moaka	-12.0931
▁mentumi	-12.0932
▁gɔŋ	-12.0934
boo	-12.094
▁akɔdi	-12.0942
kpalim	-12.0942
▁akɔtena	-12.0943
booni	-12.0943
▁yɛnya	-12.0944
abasa	-12.0948
▁adegbee	-12.0948
ngu	-12.095
pil	-12.0952
▁Wummi	-12.0953
gbedzi	-12.0956
▁dabipaɣ	-12.0958
▁gakogoe	-12.0958
▁Farisini	-12.0958
▁Felike	-12.0958
▁Lazaro	-12.0958
▁Lazarɔs	-12.0958
▁Libni	-12.0958
▁Obadya	-12.0958
▁Yoaxaz	-12.0958
▁amegãɖeɖi	-12.0958
▁asiʋlo	-12.0958
▁chaɣisa	-12.0958
▁mmubuiɛ	-12.0958
▁nuɖiaɖia	-12.0958
▁takarifiɛma	-12.0958
▁tintarisi	-12.0958
▁ʒiishɛhi	-12.0958
▁Xusa	-12.0958
▁nsonsonoeɛ	-12.0958
▁Ɔkyena	-12.0958
▁ʋɔnudrɔ̃ƒe	-12.0958
▁botaeɛ	-12.0958
▁nuŋɔŋlɔ	-12.0958
▁obosuo	-12.0958
▁ɔnanani	-12.0958
▁Kebar	-12.0958
▁Sɛraya	-12.0958
▁Zuɣusaa	-12.0958
▁bilikɔɣinim	-12.0958
▁nnidisoɔ	-12.0958
▁laamba	-12.0958
▁Reuel	-12.0958
▁Salmon	-12.0958
▁wuienelia	-12.0958
▁tizɔbihi	-12.0959
▁atsyɔ̃ɖoɖo	-12.0959
▁Yeus	-12.0959
▁globo	-12.0959
▁blaenyi	-12.0959
▁mfudeɛ	-12.096
▁megbɔna	-12.096
▁agyinatuo	-12.0961
▁adebɔne	-12.0961
▁kpariŋ	-12.0961
▁dariza	-12.0963
▁bababa	-12.0963
▁Lakishi	-12.0963
▁ŋkutsalawo	-12.0963
▁Monnue	-12.0964
▁Peor	-12.0964
▁mèwɔ	-12.0966
▁sandaan	-12.0966
▁ɛrekɔ	-12.0967
▁ɔsorosoroni	-12.0968
▁Adaya	-12.097
blanu	-12.097
▁tenye	-12.097
▁Egbã	-12.0971
▁Zur	-12.0971
▁nàƒo	-12.0971
▁Migatsɔ	-12.0971
▁kpuiƒe	-12.0971
▁wɔahyia	-12.0971
▁ahohiahiafoɔ	-12.0974
kɔr	-12.0975
▁tuuta	-12.0975
tsatsa	-12.0978
▁mapa	-12.0978
▁dadalawo	-12.098
▁mmaawa	-12.098
▁yeade	-12.098
anhunu	-12.0981
▁kpɔdome	-12.0982
▁alẽkplɔlawo	-12.0983
▁lododowo	-12.0983
▁ɔdaadaa	-12.0984
▁segbalẽ	-12.0984
▁ɖɔli	-12.0984
▁Amasai	-12.0987
▁Soba	-12.0989
▁aklã	-12.099
▁ɔbaakofoɔ	-12.0992
▁kurigu	-12.0996
▁xlɔ̃	-12.0997
▁nkawa	-12.0997
ul	-12.1
▁magate	-12.1
▁Makpɔ	-12.1
▁menkasa	-12.1003
▁ohwam	-12.1009
▁susuo	-12.1011
▁fɔm	-12.1011
▁kpata	-12.1013
▁Meriba	-12.1015
▁wɔbɛba	-12.1019
▁bomiya	-12.102
dzrala	-12.1022
kɔpem	-12.1025
▁Salma	-12.1026
▁mfra	-12.1029
▁monhwehwɛ	-12.103
▁ham	-12.103
▁hyehye	-12.1038
▁nngu	-12.104
▁baŋmi	-12.1047
▁merentumi	-12.1052
▁ɖaɖe	-12.1054
▁wɔdwene	-12.1059
▁gbɔgbɔme	-12.1062
▁Misa	-12.1063
▁Nuku	-12.1065
kyɛne	-12.1069
▁ɖuƒe	-12.107
▁Sede	-12.1071
▁chib	-12.1072
▁deer	-12.1073
▁yom	-12.1077
▁nkraman	-12.108
▁nokorɛm	-12.1082
▁boonila	-12.1082
▁Ɔsoma	-12.1082
▁wolia	-12.1082
▁adiyi	-12.1083
▁Wotu	-12.1085
▁Salim	-12.1085
▁nàts	-12.1092
▁Mɛka	-12.1093
▁wɔmfiri	-12.1098
▁retu	-12.11
hanan	-12.1104
▁abɛsi	-12.1108
▁ɔwui	-12.1108
▁ampene	-12.1108
▁ƒum	-12.1108
bɛsoɛ	-12.1112
nnɔn	-12.1116
▁Elim	-12.1117
▁mmɛyɛ	-12.1118
▁wòmlɔ	-12.112
▁ŋɔŋ	-12.1129
▁yɛadi	-12.113
dwuma	-12.1135
▁tibigi	-12.1135
▁wɔboaboa	-12.1137
▁Mibu	-12.1141
▁midi	-12.115
▁kahigiri	-12.115
▁wɔadane	-12.115
▁bɔba	-12.115
rekorɔ	-12.1155
tintim	-12.1158
▁wɔanyɛ	-12.1163
▁afire	-12.1164
▁ɔtɔn	-12.1165
fiti	-12.1171
▁tsyo	-12.1177
▁Akan	-12.1177
▁bɛkunkum	-12.1177
kuru	-12.1179
▁yɛkɔ	-12.1184
▁wolɔ	-12.1186
▁nsopa	-12.119
▁awuwu	-12.1194
mfom	-12.1197
▁agbagbe	-12.1198
anammɔn	-12.1202
siri	-12.1205
nsene	-12.1205
▁miaga	-12.1206
▁meɣla	-12.1206
▁Yɛbɛ	-12.1207
anahe	-12.1209
▁sisim	-12.1212
nɛɔŋ	-12.1215
▁zaligubaŋd	-12.1216
▁vidzĩ	-12.1221
▁naduane	-12.1221
▁kpakpɛ	-12.1222
▁dima	-12.1225
▁team	-12.1226
▁Gbã	-12.1227
▁sarig	-12.1227
▁dumegã	-12.1227
▁wɔmmf	-12.1228
▁wɔmmɛ	-12.1229
▁maligunim	-12.1229
▁ɔteaa	-12.1231
▁ɛmfa	-12.1233
▁kpeawo	-12.1234
zabad	-12.1236
▁Antiɔk	-12.1236
▁Barux	-12.1236
▁Eliezer	-12.1236
▁Hivinim	-12.1236
▁Jɛshua	-12.1236
▁Laxis	-12.1236
▁Pɛrizinim	-12.1236
▁Sekania	-12.1236
▁Sisɛra	-12.1236
▁akɔneaba	-12.1236
▁anisoadeɛ	-12.1236
▁binʒim	-12.1236
▁daantaliga	-12.1236
▁goonjɛnim	-12.1236
▁hankra	-12.1236
▁kokurobetie	-12.1236
▁mabiyurisi	-12.1236
▁nyolɔrigu	-12.1236
▁vinvama	-12.1236
▁Ɖetugbi	-12.1236
▁daabiligu	-12.1236
▁gbaɖegbe	-12.1236
▁tizɔdoo	-12.1236
▁Hashabi	-12.1236
▁mɔɣilo	-12.1236
▁Nahɔr	-12.1236
▁Gɛra	-12.1236
▁bumbɔn	-12.1236
▁mmeranteberɛ	-12.1236
▁pinaayɔbu	-12.1236
▁mmabunu	-12.1236
▁Hazaɛl	-12.1236
▁ɔsisii	-12.1236
bakɔsɛm	-12.1236
▁Zaligu	-12.1236
▁ahoyera	-12.1236
▁ahotosoɔ	-12.1237
▁alakpadada	-12.1237
▁ntokuro	-12.1237
▁lahiba	-12.1237
▁ahedada	-12.1237
▁afiatsotso	-12.1237
▁biŋkumda	-12.1237
▁domenyila	-12.1237
▁anene	-12.1238
▁afisiafi	-12.1238
▁ahodwirideɛ	-12.1238
▁mienyã	-12.1239
▁Ɔsorosoroni	-12.1239
▁yewoalé	-12.1239
dzɔlawo	-12.1239
▁Ɖoɖo	-12.1239
▁axadzi	-12.124
▁pɔŋɔ	-12.124
▁ɔberempɔn	-12.124
▁baŋdiba	-12.1241
▁Axiya	-12.1241
▁adwumaden	-12.1242
▁wakyire	-12.1242
▁ŋmahiŋmah	-12.1243
▁tedzivi	-12.1243
▁Yimaŋmaŋ	-12.1243
▁kɔkɔenyenye	-12.1244
▁Gbɔ	-12.1244
▁ƒeƒle	-12.1245
▁Nudzidze	-12.1246
▁abubuo	-12.1246
▁ɣetrɔ	-12.1246
iyurigu	-12.1247
▁Asrafo	-12.1248
▁èlɔ̃	-12.1248
▁afiafi	-12.1248
▁kegbegbe	-12.1249
▁asahene	-12.1249
▁mmɛnta	-12.125
▁tumidie	-12.1252
▁miekpe	-12.1252
▁Nyemenya	-12.1253
▁Amito	-12.1255
adre	-12.1256
▁wadwene	-12.1256
▁yeanɔ	-12.1259
▁ɛntumi	-12.1259
▁Etsi	-12.126
▁Owuo	-12.1261
▁teateaam	-12.1261
▁yɛbɔ	-12.1262
rennom	-12.1262
▁mɛfa	-12.1263
▁Ɔfiri	-12.1263
▁ɔnnom	-12.1265
▁fakyɛ	-12.1265
▁egbegbe	-12.1266
▁renhunu	-12.1273
▁Axis	-12.1273
▁Moyɛ	-12.1275
▁Meyɔ	-12.1277
▁ɛbu	-12.1277
▁zuɣupila	-12.1278
▁Dodo	-12.1279
▁Wogblẽ	-12.1281
▁fee	-12.1282
▁zigbɔ	-12.1282
▁wòala	-12.1293
▁Hena	-12.1295
▁nyɛmmoa	-12.1306
▁agbaka	-12.1309
▁owusɔreɛ	-12.1312
▁mosuro	-12.1313
▁dzidada	-12.1321
▁Mègaɖ	-12.1325
▁fiadu	-12.1325
yere	-12.1327
▁mili	-12.1332
▁miatsi	-12.1334
▁buna	-12.1341
▁wɔapo	-12.1341
▁woyina	-12.1342
▁dzram	-12.1342
mpam	-12.1344
▁ninsalita	-12.1345
adiyifoɔ	-12.1346
▁namumuyɛ	-12.1354
puhi	-12.1355
▁dɔna	-12.1359
▁malimiya	-12.1359
▁Woda	-12.1361
dzikpɔlawo	-12.1362
▁wee	-12.1365
gbegbe	-12.1371
atwitwa	-12.1372
dansefoɔ	-12.1373
▁wɔbi	-12.1382
▁anukwaretɔ	-12.1385
▁Tinim	-12.1385
▁eƒeme	-12.1388
▁Keen	-12.139
▁ɔfam	-12.1392
▁worekɔ	-12.1393
▁bɛdidi	-12.1393
▁yum	-12.1396
▁ɖado	-12.1398
afrɛ	-12.1398
▁ɖiƒe	-12.1399
▁rebɛko	-12.1399
▁pirim	-12.1405
▁Yɛyɛ	-12.1412
▁dul	-12.1425
anwanwadeɛ	-12.1426
▁Àt	-12.1426
▁Meyi	-12.1428
▁kpahiri	-12.1433
▁Husa	-12.1436
▁wumda	-12.1437
atemmuo	-12.1437
▁kika	-12.1443
▁nèka	-12.1447
dehunufoɔ	-12.1453
▁Ur	-12.1457
▁zilim	-12.1458
▁muame	-12.1462
▁wɔsusu	-12.1467
▁Jɔta	-12.1471
▁Aya	-12.1472
ombil	-12.1475
▁yeaɖu	-12.1477
▁dzedzem	-12.1479
▁heɖu	-12.148
▁sisí	-12.1483
▁bɛkum	-12.1485
kpli	-12.1491
▁ɔbɛso	-12.1497
▁dzɔdzɔm	-12.1497
▁Nob	-12.1498
kpaŋ	-12.15
chihi	-12.1501
ahemfie	-12.1501
—	-12.1501
mewu	-12.1502
▁piɛm	-12.1502
▁agyaadwo	-12.1503
▁ansɔ	-12.1504
▁agbledela	-12.1505
▁xɔ̃nye	-12.1505
▁yiɣisima	-12.1505
▁gbemelã	-12.1505
miɛnsa	-12.1505
gbaai	-12.1511
▁mɔɣis	-12.1513
▁guri	-12.1515
▁ahɔho	-12.1519
▁yɔhiŋ	-12.152
▁Rehob	-12.1521
srã	-12.1521
▁Adanseɛ	-12.1521
▁Ahimaas	-12.1521
▁Elisabet	-12.1521
▁Gamaliel	-12.1521
▁Gedor	-12.1521
▁Izebel	-12.1521
▁Meremot	-12.1521
▁Ramɔtigiliad	-12.1521
▁Yoiada	-12.1521
▁apeatoɔ	-12.1521
▁biɖibiɖi	-12.1521
▁manyomanyo	-12.1521
▁weintsetse	-12.1521
▁ɔtweaseɛ	-12.1521
▁Dzata	-12.1521
▁Husha	-12.1521
▁Maresa	-12.1521
▁agyiraeɛ	-12.1521
▁sisiblisi	-12.1521
▁Ɔkyerɛkyerɛfoɔ	-12.1521
▁ahobrɛasefoɔ	-12.1521
▁biliɛri	-12.1521
▁hwamhwam	-12.1521
▁dompe	-12.1521
▁Maxir	-12.1521
▁ohwamfufuo	-12.1521
▁nublanuikpɔla	-12.1521
▁Arad	-12.1521
▁dwaresɛn	-12.1521
▁pinaayopɔin	-12.1521
▁asasewosoɔ	-12.1521
▁Ohola	-12.1522
▁aglãdzelawo	-12.1522
▁nyametsotso	-12.1522
▁driba	-12.1522
▁Kekeli	-12.1522
▁dã	-12.1522
▁wòafiã	-12.1522
▁adaŋudede	-12.1522
▁aglãdzedze	-12.1522
apirakuro	-12.1522
▁aduaba	-12.1522
▁ahenkyɛ	-12.1522
sraadɔm	-12.1522
▁wɔnuku	-12.1522
▁Herodia	-12.1522
▁ntiasoɔ	-12.1522
▁kpalansi	-12.1523
▁ɔbabanin	-12.1523
▁taŋkpa	-12.1523
▁ɔpaani	-12.1523
▁wòagblẽ	-12.1523
▁busuani	-12.1523
▁aɖukli	-12.1524
▁aʋagbedzi	-12.1524
▁susutoa	-12.1524
▁viaŋutsuawo	-12.1525
▁hemmaa	-12.1525
▁Yiɣisimiya	-12.1525
▁sabigi	-12.1526
▁akono	-12.1526
▁Akishi	-12.1527
▁mɛsɛe	-12.1528
▁ahoteɛ	-12.1528
▁wahoɔden	-12.1528
▁mèkpɔ	-12.1529
▁wuwuiɛ	-12.1529
▁nyadzɔdzɔ	-12.1529
▁Mègawɔ	-12.1529
▁ɔnyanee	-12.1531
▁Ain	-12.1532
▁Bisa	-12.1536
▁agblemenuwo	-12.1536
▁wasiesie	-12.1538
▁ntɔteboa	-12.1538
▁ahasitɔ	-12.154
▁Aʋawɔla	-12.1541
▁nkɔko	-12.1541
▁yaƒoƒo	-12.1541
mafoɔ	-12.1544
▁dɔwɔla	-12.1546
▁Milo	-12.1548
▁sedertiwo	-12.1549
tofoɔ	-12.155
▁gatagbadzɛ	-12.1551
▁anikan	-12.1551
▁gazɔ	-12.1552
▁gbagbeawo	-12.1554
▁mehwɛe	-12.1555
▁Sebe	-12.1556
▁dɔlanyɔnuwo	-12.1557
▁gyinaeɛ	-12.1557
▁Baalwo	-12.1558
▁lilikpowo	-12.1558
▁kuviatɔ	-12.1559
▁mlɔenuwo	-12.1559
▁gbeɖiɖi	-12.156
▁fiasrɔ̃	-12.1561
▁dɔdɔwo	-12.1562
▁atirimuɔdenfoɔ	-12.157
▁míasubɔ	-12.1571
▁mmerɛyɛ	-12.1572
▁wɔsoso	-12.1573
▁ɔsiane	-12.1573
▁busunu	-12.1573
▁nɔviŋutsuwo	-12.1575
▁monsu	-12.1578
adrɔ̃	-12.1579
▁ɣaɣlawo	-12.158
tiɛl	-12.158
▁dzena	-12.1582
▁heyina	-12.1584
▁kenkan	-12.1584
has	-12.1586
▁hwehwe	-12.1586
▁mide	-12.159
▁dzovɔ	-12.1591
▁nyoma	-12.1593
▁makomam	-12.1594
▁nsisie	-12.1598
▁ɖakpee	-12.1606
▁miabia	-12.1612
▁aƒekɔ	-12.1613
▁womakpɔ	-12.1619
ƒlɔ	-12.1622
nantwie	-12.1626
▁Ber	-12.1626
▁nkɔsom	-12.1628
▁nnwo	-12.1631
sɛnka	-12.1639
▁wamp	-12.1639
▁gaɖe	-12.1642
▁wòno	-12.1642
▁popoe	-12.1643
▁mebɔbɔ	-12.1648
▁wɔkaeɛ	-12.1649
▁ntua	-12.1652
nyame	-12.1665
▁nyateƒenya	-12.1668
▁heda	-12.1668
▁kɔme	-12.167
she	-12.167
▁etɔwo	-12.1674
▁biã	-12.1675
nwie	-12.1679
▁baɣiri	-12.1683
▁mafrɛ	-12.1684
▁Fofoa	-12.1685
▁ɔsoa	-12.1686
▁ɖɔla	-12.1691
▁Nyi	-12.1693
▁animka	-12.1694
▁Naara	-12.1695
bɛhyɛne	-12.1696
nnkɔ	-12.1705
▁trae	-12.1706
▁vlom	-12.1707
▁wumd	-12.1712
▁kɔhiri	-12.1715
kɔbisa	-12.1726
▁wòsɔ	-12.1728
▁puhir	-12.1729
▁ʋɔtruti	-12.1729
▁piɛbil	-12.1744
▁pako	-12.175
▁miexɔe	-12.1758
▁magbugbɔ	-12.1759
▁Eda	-12.1763
▁abereɛ	-12.1769
▁medwene	-12.1769
▁eli	-12.1771
▁Fu	-12.1772
▁tsina	-12.1778
ntom	-12.1778
dari	-12.1781
▁bulah	-12.1785
▁akɔta	-12.1787
ɖekɛ	-12.1794
▁Wuhim	-12.1799
ŋgɔ	-12.18
▁tibigir	-12.1801
nyagbɔgblɔ	-12.1801
L	-12.1801
sabiri	-12.1805
nigyeɛ	-12.1809
hab	-12.181
▁bɛhwehwɛ	-12.1813
▁Animuonyam	-12.1815
▁Dwetɛ	-12.1815
▁Henok	-12.1815
▁Kadmiel	-12.1815
▁Kaisaro	-12.1815
▁Kesinɔnu	-12.1815
▁Laodikea	-12.1815
▁Pamfilia	-12.1815
▁Raam	-12.1815
▁Siklag	-12.1815
▁Wasti	-12.1815
▁Yabok	-12.1815
▁Ziklag	-12.1815
▁atemmusɛm	-12.1815
▁buɣijɛmbo	-12.1815
▁gbotsetse	-12.1815
▁lílilĩ	-12.1815
▁nachiinsi	-12.1815
▁naŋgbambili	-12.1815
▁sikanutɔgba	-12.1815
▁Maluk	-12.1815
▁Pelet	-12.1815
▁faralana	-12.1815
▁Yoyakim	-12.1815
▁tusaanu	-12.1815
▁takɔriti	-12.1815
▁nutsyɔnu	-12.1815
▁ɔtadeɛ	-12.1815
▁Sairus	-12.1816
▁naɣibil	-12.1816
▁Adoni	-12.1816
▁nunonovɔsa	-12.1816
▁Kirene	-12.1816
▁biasani	-12.1816
▁Hefer	-12.1816
▁Tahat	-12.1816
▁Kalẽtɔ	-12.1816
▁mmabaawa	-12.1818
▁nkekaeɛ	-12.1818
▁ahokyerɛ	-12.1818
▁wɔsiesiee	-12.1818
▁ƒoɖi	-12.1819
▁jaba	-12.1819
▁malaikanima	-12.1819
▁aʋaɣli	-12.1819
▁gɔmeɖoɖo	-12.1819
▁Nims	-12.182
▁womatsɔ	-12.182
▁dɔdzikpɔlawo	-12.1821
▁Horma	-12.1821
▁Tema	-12.1821
panin	-12.1821
▁yɔrigu	-12.1822
gasẽ	-12.1822
▁èdze	-12.1823
▁tarisi	-12.1823
▁tiŋbihi	-12.1824
▁Edɔ	-12.1824
▁womaɖe	-12.1825
▁wogayɔn	-12.1825
▁Ɛliab	-12.1826
▁kparibu	-12.1826
▁èxɔ	-12.1827
leeg	-12.1831
▁tɔbiri	-12.1833
▁puya	-12.1834
▁mmɔborɔhunufoɔ	-12.1835
▁kununom	-12.1835
▁retwɛn	-12.1839
▁kunafoɔ	-12.1842
ʋe	-12.1843
▁míeyi	-12.1843
▁ʋẽ	-12.1845
▁fĩi	-12.1846
▁ɖasefowo	-12.185
▁eveve	-12.185
twɛnee	-12.1851
▁Wolé	-12.1854
▁merenyɛ	-12.1854
▁ɖuɖɔ	-12.1856
▁magu	-12.1856
▁Maƒo	-12.1858
gar	-12.1859
▁jila	-12.186
▁dzɔla	-12.1861
▁fianyɔnu	-12.1862
▁mmebu	-12.1862
yili	-12.1863
▁wase	-12.1864
▁nwiinwii	-12.1865
▁poo	-12.1868
▁kurobo	-12.1872
▁wosẽ	-12.1874
▁Anyi	-12.1876
▁toƒewo	-12.1878
▁ƒuƒui	-12.1878
▁mantam	-12.1879
▁ɣedzeƒeya	-12.1881
bɛsisi	-12.1881
▁woxe	-12.1884
▁monsi	-12.1885
rigim	-12.1887
▁aponkɛseɛ	-12.1889
▁Nyɔ	-12.1889
▁mieto	-12.189
▁limsi	-12.1891
▁miewɔna	-12.1891
▁akɔyɛ	-12.1896
▁tatɔe	-12.1897
▁modɔ	-12.1897
▁xlẽm	-12.19
▁wɔasie	-12.1908
dɔwɔwɔ	-12.1909
▁ɔkyɛ	-12.1913
▁wòdzidze	-12.1915
▁ŋgɔgbetɔ	-12.1921
▁asiekɛ	-12.1922
▁sotefoɔ	-12.1923
▁laɣimmi	-12.1923
▁Nsa	-12.1925
▁Míed	-12.1925
▁aɖanɔ	-12.1926
▁Ri	-12.1927
▁Hak	-12.193
▁Zeb	-12.1931
hat	-12.1936
▁Wɔbɛyɛ	-12.1936
▁Ɛsha	-12.1939
▁nsiesie	-12.1948
▁teefoɔ	-12.1949
▁boon	-12.1951
▁Mama	-12.196
nnwiri	-12.1969
fon	-12.1969
▁lihim	-12.197
▁wɔhyehyɛ	-12.1976
watiri	-12.1979
▁anyikpe	-12.1979
rekasa	-12.198
▁wɔwuwu	-12.1983
▁nanewo	-12.1984
nyre	-12.1985
kɛntɛn	-12.1992
▁wanyɛ	-12.1994
▁nsɛ	-12.1994
▁wɔmpɛ	-12.1994
repɛ	-12.1995
hohora	-12.1996
▁èse	-12.2001
▁nyara	-12.2004
▁chirig	-12.2009
▁ɛbɛso	-12.2011
▁Yiɣisima	-12.2014
▁tɔwòe	-12.2015
▁ɔnwono	-12.2017
ɣisili	-12.2018
▁Het	-12.202
mlekpui	-12.2021
ammu	-12.2026
▁matwe	-12.2026
enyi	-12.2033
▁ɛyɛeɛ	-12.2042
magate	-12.2046
▁Zarai	-12.2048
▁maboa	-12.2052
▁afideɛ	-12.2056
▁fiɣis	-12.2063
▁wɔaba	-12.2071
í	-12.2074
▁ŋuve	-12.2074
tat	-12.2075
▁anabinima	-12.2075
▁ɔbɛn	-12.2086
▁bɛhwe	-12.209
zikpui	-12.2091
▁bɛwie	-12.2092
▁mɛdane	-12.2092
▁wɔsɔ	-12.2092
▁kpeen	-12.2092
▁agbalẽwo	-12.2094
▁ahodwir	-12.2096
sunsum	-12.2099
sukɔm	-12.2099
▁alakpanu	-12.21
akyiwadeɛ	-12.21
▁dɔdeasi	-12.2102
ɔɣu	-12.2104
▁wɛn	-12.2104
▁nkɔdi	-12.2108
▁laakum	-12.2112
▁Rexab	-12.2118
mporoporo	-12.2118
▁Abdon	-12.2118
▁Aleksandro	-12.2118
▁Betsaida	-12.2118
▁Bɔnhwa	-12.2118
▁Gehasi	-12.2118
▁Gilboa	-12.2118
▁Magdalene	-12.2118
▁Mɛsopoteemia	-12.2118
▁Speen	-12.2118
▁Taanak	-12.2118
▁Yakin	-12.2118
▁Yarmut	-12.2118
▁Yeremot	-12.2118
▁afɔɖodzinu	-12.2118
▁akokyɛm	-12.2118
▁awutewui	-12.2118
▁bikpamba	-12.2118
▁jɛlinsi	-12.2118
▁wurindi	-12.2118
▁Kemos	-12.2118
▁mmaninneɛ	-12.2118
▁gbaɣino	-12.2118
▁adesaeɛ	-12.2118
▁dutoƒo	-12.2118
▁adaŋudela	-12.2118
▁Netanya	-12.2119
▁adekplɔvi	-12.2119
▁kukoya	-12.2119
▁tsidzɔƒe	-12.2119
▁Alakpa	-12.2119
▁yometiti	-12.2119
▁bilichin	-12.2119
▁Hasar	-12.2119
▁mpaepaemu	-12.2119
▁Nyui	-12.2119
▁Kanaanyigba	-12.2119
▁atɛfoɔ	-12.2119
▁denare	-12.2119
▁toondaannim	-12.2119
▁Ariel	-12.2119
▁ahometeɛ	-12.212
▁xoxoxo	-12.212
▁dahima	-12.212
▁ƒutake	-12.212
▁dzrewɔwɔ	-12.212
▁wɔsisii	-12.2121
▁abuada	-12.2121
▁Serug	-12.2121
▁Ègblɔ	-12.2121
▁woadzra	-12.2122
▁Lotan	-12.2122
▁pilanim	-12.2122
nware	-12.2123
▁tsiaʋawo	-12.2125
▁tedzisɔ	-12.2125
▁mmorɔnoma	-12.2125
▁akakati	-12.2126
▁ɛremma	-12.2126
▁adedifoɔ	-12.2126
▁míeɖu	-12.2126
▁nèbia	-12.2126
▁Gibeontɔwo	-12.2127
▁tedzinɔ	-12.2128
▁naabu	-12.2128
▁aboyomeawo	-12.2128
▁wabrɛ	-12.2129
▁More	-12.2129
▁miezu	-12.213
▁ɔrenhunu	-12.2132
▁Ɔse	-12.2132
▁wakyiri	-12.2133
▁hadede	-12.2135
▁Atifi	-12.2135
▁kpodɔ	-12.2135
▁mɛhwɛ	-12.2136
▁awudie	-12.2137
▁Gɔ	-12.2137
teetee	-12.2138
▁nusrɔ̃laawo	-12.214
▁ɔbosom	-12.2143
▁wɔabubu	-12.2143
nimina	-12.2144
▁wandi	-12.2145
▁ɛrenyɛ	-12.2145
▁ɔnsane	-12.2146
▁gbagbãwo	-12.2146
▁alakpatɔwo	-12.2146
▁hiani	-12.2148
▁Sidɔnnim	-12.215
▁asɛntenenee	-12.2151
▁meyɛeɛ	-12.2152
▁Wotrɔ	-12.2155
▁aboyomewo	-12.2156
▁luhiya	-12.2156
▁Owia	-12.2156
▁aʋawɔ	-12.2157
▁Midianfoɔ	-12.2158
▁wɔreba	-12.216
▁litaafinim	-12.216
▁nkora	-12.2161
▁enana	-12.2161
▁nyitsuawo	-12.2168
▁akeka	-12.2176
▁zɔrimi	-12.2177
▁nɔri	-12.2177
▁hwanyan	-12.2179
▁nutsotso	-12.2182
▁Hanna	-12.2183
▁Míese	-12.2186
▁xɔna	-12.2186
▁Timnat	-12.2188
▁dzogoewo	-12.2192
▁numenya	-12.2193
▁paee	-12.2195
▁turom	-12.2198
▁Ate	-12.2203
▁numevɔsawo	-12.2211
kon	-12.2211
▁alakpatɔ	-12.2215
▁takɔr	-12.2222
▁ɖatsi	-12.2226
▁gbedodoɖawo	-12.2227
▁megatsɔ	-12.2228
▁mmatir	-12.223
agate	-12.2233
▁kpim	-12.2233
▁wadeɛ	-12.2234
▁Shɛla	-12.2235
retwɛn	-12.224
▁nkɔduru	-12.2241
▁karimbanim	-12.2242
huri	-12.2248
▁adeda	-12.2253
▁biriti	-12.2258
nhia	-12.2259
tin	-12.2272
▁dal	-12.2273
▁baŋbu	-12.2279
▁wòase	-12.228
▁Anaa	-12.229
nanson	-12.2292
▁ahodwo	-12.2296
▁fiɣisir	-12.2304
▁ɖeɖefia	-12.2305
▁wumma	-12.2307
▁nkeka	-12.231
▁ayaresa	-12.2315
▁yewoay	-12.2319
▁Sil	-12.2327
▁egbɔna	-12.2332
▁gyefoɔ	-12.2339
▁Ahim	-12.234
▁natsɔe	-12.2345
▁ɖuna	-12.2358
▁fifiri	-12.2358
▁tsɔna	-12.236
paapae	-12.2366
▁wɔkɔfrɛ	-12.2367
▁mayra	-12.237
▁akuro	-12.2374
kɔhyia	-12.238
▁nɔnye	-12.2383
▁mɛtu	-12.2383
▁kɔb	-12.2389
▁wòbla	-12.2392
dwan	-12.2393
nunɔla	-12.2394
▁wɔatwe	-12.2398
▁aʋatsoɖase	-12.2401
ikil	-12.2401
▁wɔbɛhyɛ	-12.2401
▁gbuɣi	-12.2402
▁wòlɔ	-12.241
▁Agbe	-12.2418
▁montu	-12.2419
▁bɛsisi	-12.242
mawuwo	-12.2423
▁wuiɖekɛ	-12.2427
▁nuammarima	-12.243
▁Binshɛ	-12.2431
▁Ninsal	-12.2431
▁Bɛtishɛmɛshi	-12.2431
▁Ŋutikɔkɔe	-12.2431
▁Dzɔgbevɔ̃e	-12.2431
▁Elifas	-12.2431
▁Gezer	-12.2431
▁Habel	-12.2431
▁Heber	-12.2431
▁Isboset	-12.2431
▁Mikmas	-12.2431
▁Oholiab	-12.2431
▁Potifar	-12.2431
▁Salmuna	-12.2431
▁Yeroham	-12.2431
▁abansoro	-12.2431
▁yiliyiiniba	-12.2431
▁ɔtorofoɔ	-12.2431
femfam	-12.2431
▁Abɔnefoɔ	-12.2431
▁Yabin	-12.2431
▁afakalawo	-12.2431
▁afunyinu	-12.2431
▁dunson	-12.2431
▁hamehame	-12.2431
▁susuhoma	-12.2431
▁afifideɛ	-12.2431
▁yakatsyɔ	-12.2431
▁aniɛden	-12.2431
▁Zimri	-12.2431
▁daashili	-12.2431
▁asɛdeɛ	-12.2431
▁Selemia	-12.2431
▁cheei	-12.2431
▁Azaz	-12.2431
▁dummiɛnsa	-12.2431
▁Kenas	-12.2431
▁hũɖeɖe	-12.2431
▁aʋatsokala	-12.2431
▁Lihimiya	-12.2431
▁mmabaaberɛ	-12.2431
▁aɖaŋudɔwɔla	-12.2432
▁abankɛseɛ	-12.2432
▁duradura	-12.2432
▁worennya	-12.2432
huritia	-12.2432
▁nkataboɔ	-12.2432
ŋmani	-12.2432
▁ɔnantee	-12.2432
▁wuiatɔ̃	-12.2432
▁Sered	-12.2432
▁aduhwamhyeɛ	-12.2432
▁nsɛsodeɛ	-12.2432
▁bimbil	-12.2432
kɔnkɔnsa	-12.2433
▁ŋkɔsigɛ	-12.2433
doname	-12.2433
▁mpakye	-12.2433
▁tibisili	-12.2434
▁gbuɣin	-12.2434
▁bunahi	-12.2434
▁Wiɛ	-12.2434
▁Amonom	-12.2434
▁kaseɛ	-12.2434
▁mmobɔ	-12.2435
▁wòasɔ	-12.2435
▁afadum	-12.2436
▁anɔpatutu	-12.2436
▁egodotɔ	-12.2436
▁Abidan	-12.2436
▁fuléle	-12.2438
▁kɔkoe	-12.2438
▁Edzidze	-12.2439
▁hadɔwɔla	-12.2439
▁wɔaku	-12.2439
▁yɛbɛnya	-12.244
▁moannye	-12.244
▁monhyira	-12.244
▁gomnanim	-12.2442
▁asuwa	-12.2442
▁tirisi	-12.2443
▁egbugbɔ	-12.2443
▁Aduane	-12.2443
▁dzɔtsuwo	-12.2444
▁mieƒo	-12.2445
▁dukɔmetɔwo	-12.2445
▁tintan	-12.2447
▁Gyefoɔ	-12.2447
▁kasitali	-12.2448
▁wantumi	-12.245
▁wahyɛdeɛ	-12.245
▁akaɖiawo	-12.245
▁Mennim	-12.245
▁ɔdehyeɛ	-12.2451
▁apampam	-12.2451
▁hetso	-12.2453
▁abaawa	-12.2453
▁anfaani	-12.2454
▁nènɔ	-12.2454
▁Dor	-12.2456
▁míeku	-12.2457
▁ɛkaeɛ	-12.2458
niŋda	-12.2461
▁Woxlẽ	-12.2462
▁akusa	-12.2462
sodeɛ	-12.2462
▁wɔahu	-12.2463
▁nnto	-12.2465
▁kpeɖeŋutɔwo	-12.2468
▁woxɔe	-12.247
▁kɔsrɛ	-12.247
▁wotee	-12.2471
▁kafukafuhawo	-12.2474
▁Shɛkɛmnim	-12.2477
▁ɔbɛhwɛ	-12.2481
▁mpra	-12.2481
▁wometso	-12.2489
▁adrẽawo	-12.249
▁tahili	-12.249
▁vivina	-12.2491
▁ɔsomafoɔ	-12.2491
asɛe	-12.2499
▁Woama	-12.2499
▁nyubu	-12.25
▁gaƒo	-12.2502
▁miatrɔ	-12.2504
▁biha	-12.2504
▁ƒowò	-12.2505
▁metwerɛ	-12.2506
▁agyimisɛm	-12.2509
▁wɔbua	-12.2514
▁nkɔka	-12.2514
ilai	-12.2514
▁anso	-12.2516
▁detiwo	-12.2519
▁labisina	-12.252
▁dɔɣiri	-12.2523
▁fuŋ	-12.2523
tonyigba	-12.2526
▁daanabi	-12.2527
▁nhwehwɛ	-12.2527
manɔsitɔ	-12.2528
▁saɣisiri	-12.2529
▁Xar	-12.2529
▁mobɛtumi	-12.253
▁etame	-12.2534
▁soboɔ	-12.2535
▁nantee	-12.2538
▁rehyɛ	-12.254
nyrɔ	-12.2544
▁adɔre	-12.2544
▁ɔhyehyɛ	-12.2544
▁moduru	-12.2548
▁yɔbu	-12.2551
▁Aɖe	-12.2551
▁Xana	-12.2553
hono	-12.2555
▁ƒoƒoe	-12.2557
▁nnaka	-12.256
▁dih	-12.256
▁míawu	-12.2566
▁gyeeɛ	-12.2576
▁tatali	-12.2578
tenetene	-12.258
▁wobɛgye	-12.2582
▁exa	-12.2596
▁yeatu	-12.2597
▁Mègad	-12.2607
asɔfoɔ	-12.2608
▁nkɔfa	-12.2613
▁ɖade	-12.2619
▁nabufuhyeɛ	-12.2619
▁miewu	-12.2625
kpuɣ	-12.2625
firafira	-12.263
▁wɔabɛ	-12.2632
▁mɔni	-12.2633
▁wòdzɔ	-12.2637
▁maligumaanita	-12.2638
▁wɔtiee	-12.2642
▁Mal	-12.2644
▁zaawun	-12.2646
▁wɔsɔree	-12.2647
▁bans	-12.2658
▁Saba	-12.2665
▁akraman	-12.2672
goro	-12.2678
▁Mak	-12.2684
▁blem	-12.2701
▁wɔnsuro	-12.2707
▁Kɛn	-12.2715
▁dɔlaŋutsu	-12.272
▁okunu	-12.2723
▁mɛbisa	-12.2728
ayeyie	-12.273
▁bɛsoa	-12.2733
kahigi	-12.2734
asomdwoeɛ	-12.2734
▁ɖaseɖila	-12.2737
godo	-12.2743
▁Abib	-12.2743
▁Nazaret	-12.2744
bɛhyira	-12.2745
▁xexlẽ	-12.2745
ó	-12.275
▁Menni	-12.275
dwennwene	-12.2753
▁Axitofel	-12.2753
▁Bometsila	-12.2753
▁Hanok	-12.2753
▁Melkisedek	-12.2753
▁Sadukifoɔ	-12.2753
▁Tebes	-12.2753
▁Tiligira	-12.2753
▁Xiram	-12.2753
▁Yaser	-12.2753
▁Yerimot	-12.2753
▁Yoktan	-12.2753
▁adzɔgbeɖefe	-12.2753
▁asɔfodie	-12.2753
▁atokota	-12.2753
▁bolobolotɔ	-12.2753
▁dɔyɔyɔ	-12.2753
▁kirikiri	-12.2753
▁pihitanaayi	-12.2753
▁pirebuo	-12.2753
▁tuumbaŋdiba	-12.2753
▁yɛlimuɣisira	-12.2753
▁Ɔkwasea	-12.2753
▁ɔdebɔneyɛni	-12.2753
▁ʋukɔkɔɖi	-12.2753
▁Ankyɛre	-12.2753
▁Gbemagbe	-12.2753
▁Gomer	-12.2753
▁Nahson	-12.2753
▁Nasaret	-12.2753
▁piripiri	-12.2754
▁ŋufɔke	-12.2754
▁dziƒoxewo	-12.2754
▁kɔzɔrim	-12.2754
▁kè	-12.2754
▁Kpuɣim	-12.2754
▁Samla	-12.2754
▁farigudeer	-12.2754
▁nnwomtofoɔ	-12.2754
hweaseɛ	-12.2754
▁Kɛila	-12.2754
▁wolisiri	-12.2755
▁Wakoa	-12.2755
▁adzagba	-12.2755
▁mpemnum	-12.2755
▁Axikam	-12.2755
▁bebeƒe	-12.2755
▁Yuza	-12.2755
▁nyihawo	-12.2756
▁tutuɣu	-12.2756
▁miƒo	-12.2757
▁Zoba	-12.2757
mepɔ	-12.2758
▁nafena	-12.2758
▁yakame	-12.2758
▁srɔ̃ɖeɖe	-12.2759
▁wometrɔ	-12.2759
▁kpɛra	-12.2759
▁womelé	-12.2759
▁ahyiradeɛ	-12.276
▁Èkpɔ	-12.276
▁ehiã	-12.276
▁tibbu	-12.2761
▁Míewɔ	-12.2761
▁Sidontɔwo	-12.2761
krataa	-12.2762
▁ɛkeka	-12.2763
▁kpalu	-12.2764
▁atɛntɛbɛn	-12.2768
▁nkɔkoaa	-12.2769
▁retwam	-12.277
▁ehe	-12.277
xatsa	-12.277
nnyegye	-12.2772
▁tɔɣisim	-12.2773
▁Itiɔpianim	-12.2774
▁gaɖɔ	-12.2775
▁Zom	-12.2777
gase	-12.2778
▁wobɛwuo	-12.2781
▁mpemha	-12.2782
▁ŋutitoto	-12.2783
▁sikanuwo	-12.2784
▁hexɔ	-12.2785
▁kyinkyini	-12.2785
▁Amɔn	-12.2786
▁repɛ	-12.2787
▁nɔwò	-12.2788
▁ɔkunkum	-12.2789
▁voo	-12.2792
▁Atene	-12.2793
▁ɛbaeɛ	-12.2793
▁míeɖi	-12.2796
▁Kuɣ	-12.2797
▁yewonye	-12.2798
▁tenaeɛ	-12.2801
▁nuvɔ̃vɔe	-12.2803
▁vɔ̃ɖitɔ	-12.2805
▁ɔhwɛfoɔ	-12.2805
▁sikaga	-12.2808
▁wòƒu	-12.2812
▁atraɖii	-12.2813
▁eƒemetɔwo	-12.2813
▁Ɛte	-12.2814
▁agbagbee	-12.2816
abaawa	-12.2817
▁hekɔ	-12.2818
▁setie	-12.282
Xoron	-12.2822
▁tipawumlinima	-12.2823
▁mmisa	-12.2824
▁kyɛree	-12.2825
▁dzudzɔgbewo	-12.2827
▁agbonu	-12.2827
▁heku	-12.2828
▁Agbo	-12.2832
▁ɛduruu	-12.2838
▁Mogya	-12.2842
▁ɛnka	-12.2843
▁Filipi	-12.2845
▁Zeba	-12.2846
▁gbaari	-12.2847
▁bɛgya	-12.2849
asɔrefie	-12.285
▁Mommu	-12.2851
▁ayupor	-12.2851
▁wɔredi	-12.2855
▁wɔbɛgya	-12.2856
▁ɖabia	-12.2857
▁wòada	-12.2861
▁Samarianim	-12.2865
▁gbilisim	-12.2868
sotifoɔ	-12.2872
▁kpambal	-12.2872
▁xaxawo	-12.2878
bɛhyia	-12.2881
adɔfoɔ	-12.2886
enwi	-12.2887
▁mɛboa	-12.2889
▁parilan	-12.289
ʋ	-12.289
▁vavãtɔ	-12.289
▁zɔn	-12.2892
aborɔ	-12.2894
▁akwammɔ	-12.2897
▁dzodzrowo	-12.2898
gasubɔ	-12.2899
▁ɔrebɔ	-12.2899
▁Gyata	-12.2905
▁watɔ	-12.2906
▁kp	-12.2907
▁heɖi	-12.2909
▁megaƒo	-12.2922
▁anigye	-12.2927
sesee	-12.2931
▁wɔtene	-12.2938
▁wɔasa	-12.294
▁motwa	-12.2946
dɔɔso	-12.295
gatsrɔ̃	-12.2951
▁bɛnee	-12.2953
▁ɔsɛee	-12.2959
nkyekyere	-12.2961
▁kpɛhiri	-12.2972
▁ɔtiee	-12.2973
dzelawo	-12.2974
▁Woate	-12.2981
▁gugu	-12.2983
▁ahinta	-12.2986
ɔnim	-12.299
mawɔ	-12.2992
▁daɣi	-12.2995
▁vuhiri	-12.3002
▁antena	-12.3005
ŋmari	-12.3008
▁tuhiya	-12.302
▁Monkyea	-12.3021
▁kli	-12.3022
▁wosoma	-12.3025
titali	-12.3028
▁menn	-12.3051
▁wolée	-12.3051
▁lãnu	-12.3057
ò	-12.3061
▁Made	-12.3061
nnɔɔso	-12.3067
▁Alẽ	-12.307
▁aŋgba	-12.3071
▁agblemenuku	-12.3072
▁aŋɔka	-12.3077
▁wòaɖa	-12.3077
kuri	-12.3078
▁gblo	-12.308
gatu	-12.3081
▁zuɣulaan	-12.3084
▁woreka	-12.3084
▁monhyi	-12.3085
▁Hori	-12.3087
▁Zidon	-12.3087
lolõ	-12.3087
▁Aberanteɛ	-12.3087
▁Ahasuerus	-12.3087
▁Akwila	-12.3087
▁Aximelex	-12.3087
▁Nebusaradan	-12.3087
▁Penuel	-12.3087
▁Simron	-12.3087
▁Taflatsɛ	-12.3087
▁Talmai	-12.3087
▁Tuumbiɛ	-12.3087
▁Vɔ̃	-12.3087
▁Xazor	-12.3087
▁Yehoiakyin	-12.3087
▁Yerub	-12.3087
▁Yozabad	-12.3087
▁Zakur	-12.3087
▁akakabensɛm	-12.3087
▁aʋamatsomatso	-12.3087
▁dzimetɔtrɔ	-12.3087
▁porɔeɛ	-12.3087
▁taŋtaŋ	-12.3087
▁Ɔkronkronni	-12.3087
▁ʒiŋmariba	-12.3087
▁Kiriataim	-12.3087
▁xɔxlɔ̃m	-12.3087
▁Naxor	-12.3087
▁Vɔsamlekpui	-12.3087
▁mmɛtem	-12.3087
▁abodwokyɛre	-12.3087
▁Aksa	-12.3087
▁ɔfitii	-12.3087
▁Rezin	-12.3087
Geber	-12.3087
bli	-12.3087
▁Tobiya	-12.3087
▁awaresɛefoɔ	-12.3087
▁obobe	-12.3087
▁ametsitsiwo	-12.3087
▁mpiakyire	-12.3087
▁bosea	-12.3087
▁jaaŋgbɛhi	-12.3087
▁adegbeƒoƒo	-12.3088
▁Pasur	-12.3088
▁bimpiɛl	-12.3088
▁Wɔma	-12.3088
Boset	-12.3088
▁Laɣimmiya	-12.3088
▁onyamesom	-12.3088
▁piapia	-12.3088
▁Shamma	-12.3088
▁Xexe	-12.3088
▁wantie	-12.3089
▁wòadzo	-12.3089
▁Tɛman	-12.3089
▁nantin	-12.3089
▁Eser	-12.309
▁monsiesie	-12.309
▁wɔnhyɛ	-12.309
▁Nyemekpɔ	-12.3091
▁tsò	-12.3091
▁Èɖe	-12.3092
▁wurigu	-12.3093
▁fɛdie	-12.3094
▁nteateam	-12.3095
kabi	-12.3095
mmɛhyia	-12.3096
▁agyinamu	-12.3096
▁xaxaɣi	-12.3097
▁Migaɖu	-12.3098
▁yiriŋ	-12.31
▁asoɔdenfoɔ	-12.3101
dibisi	-12.3102
akofena	-12.3103
▁Momfir	-12.3103
▁kpariti	-12.3103
▁kpɔtiawo	-12.3104
▁Sele	-12.3104
▁nyemedi	-12.3104
▁apinisie	-12.3105
▁fɔfɔ	-12.3106
tafere	-12.3108
▁amegbetɔƒomea	-12.3108
▁wɔteaa	-12.3108
▁saŋkuwo	-12.3113
▁libigi	-12.3116
tuiɛ	-12.3116
▁evɔ̃	-12.3117
▁nhunumufoɔ	-12.3118
▁wɔrenkae	-12.3118
▁Ɔha	-12.312
▁yewoado	-12.3121
▁kerubiwo	-12.3122
▁tsãtɔ	-12.3123
▁yeakpe	-12.3125
▁nuɖuƒe	-12.3126
▁nyɛligi	-12.3132
▁buɣiri	-12.3134
tuɣi	-12.3134
▁Taainim	-12.3135
▁dambu	-12.3136
asisi	-12.3136
▁toku	-12.3139
▁woamma	-12.314
▁Mebia	-12.314
▁monnante	-12.3141
▁sɔtiwo	-12.3143
▁hanam	-12.3149
▁ammu	-12.3151
▁wɔnhwehwɛ	-12.3154
rensɔre	-12.3155
nsesa	-12.316
▁sekan	-12.3162
akofoɔ	-12.3166
▁asubɔm	-12.3166
▁Ese	-12.317
afɔrebɔdeɛ	-12.3174
bɛsɔre	-12.3176
▁yalim	-12.3179
▁ɔbɛkyerɛ	-12.318
▁kɔda	-12.3181
▁gbolowo	-12.3182
▁pɔhi	-12.3188
▁Asiriafoɔ	-12.3192
▁sianee	-12.3193
ɖuƒe	-12.3193
▁ɔkata	-12.3195
▁ŋgɔgbea	-12.3199
▁bɔɣa	-12.3203
▁abɛgu	-12.3207
▁abɔn	-12.3208
▁Ɔgye	-12.3209
▁maligunima	-12.3212
▁fiaviŋutsu	-12.322
▁eka	-12.3225
▁nanwanwadeɛ	-12.3228
▁xewo	-12.3235
▁magawɔ	-12.3236
▁mã	-12.3241
▁míav	-12.3242
matrɔ	-12.3244
kɔgye	-12.325
▁yewoawui	-12.3253
▁monnka	-12.3253
▁Goli	-12.3256
▁wɔahye	-12.3257
▁sɔreeɛ	-12.3259
▁ɖakpɔ	-12.3264
ɖekɛlia	-12.3268
▁Bla	-12.3271
▁akplɔwo	-12.3284
▁Ono	-12.3289
▁Mɛto	-12.3295
▁wɔadom	-12.3297
gakɔ	-12.3297
berempɔn	-12.3303
▁lãawo	-12.3303
▁Monnka	-12.3315
▁resi	-12.332
baal	-12.332
▁abɛfa	-12.3323
▁daantalis	-12.3324
▁Bihi	-12.3327
▁eti	-12.333
▁Anab	-12.3332
ammrɛ	-12.3335
▁monnnye	-12.3337
atwerɛ	-12.3339
▁ahakula	-12.3341
▁ɖawu	-12.3342
rebrɛ	-12.3344
zar	-12.3352
▁Xam	-12.3354
▁gbaŋŋmar	-12.3355
sɔfopanin	-12.3355
▁amenuve	-12.3358
▁mavɔ̃	-12.3363
▁wɔreka	-12.3363
▁afono	-12.3364
▁ɛtrɛ	-12.3367
▁miakpɔe	-12.3378
▁gbuɣim	-12.338
▁wasan	-12.3382
▁dolawo	-12.3387
rannaa	-12.339
▁kpan	-12.3392
▁Ɔfa	-12.3397
fɛre	-12.3398
▁nuvɔ̃vɔ	-12.3405
▁meganye	-12.3408
▁yeadz	-12.3414
▁agblemenu	-12.3415
▁nugɔmesela	-12.3415
sɔɣi	-12.3417
▁Aɖaŋu	-12.3418
sase	-12.3419
▁nkwasea	-12.3424
▁Helatɔ	-12.3424
▁mmɔre	-12.3425
▁Nɛtan	-12.3432
adzudzɔmadzudzɔe	-12.3432
▁Berekia	-12.3432
▁Gɛhaazi	-12.3432
▁Rekem	-12.3432
▁Selomot	-12.3432
▁Zabad	-12.3432
▁aboɔdemmoɔ	-12.3432
▁daamiliya	-12.3432
▁dagbadagba	-12.3432
▁domenyinyi	-12.3432
▁frɔmm	-12.3432
▁guŋgombihi	-12.3432
▁kwasiɖa	-12.3432
▁kɔŋkɔba	-12.3432
▁nhwɛanimu	-12.3432
▁nkyehoma	-12.3432
▁ntokontrama	-12.3432
▁tammɛriba	-12.3432
▁taɖodzinu	-12.3432
▁yɛŋkiŋkabina	-12.3432
▁Galatia	-12.3432
▁dooshee	-12.3432
▁zaashɛhi	-12.3432
bohuro	-12.3432
▁Yamin	-12.3432
▁fiatikplɔ	-12.3432
▁mɔ́mefia	-12.3432
▁ƒumelã	-12.3432
gɔdɔ̃	-12.3432
▁yaɣimɛr	-12.3432
▁dufahir	-12.3432
▁kɛkɛ	-12.3432
▁Kegila	-12.3432
▁dzigbɔɖi	-12.3432
▁mfikyire	-12.3432
▁afɔtoƒe	-12.3432
▁Kuropɔn	-12.3432
▁mawuvɔ̃la	-12.3432
▁ahomegyeɛ	-12.3432
▁Misael	-12.3432
▁Hatsotso	-12.3432
▁ɔdwoɔ	-12.3432
▁Yared	-12.3433
▁milinsi	-12.3433
▁Tumim	-12.3433
▁sumina	-12.3433
▁annyina	-12.3433
▁gbɔ̃fu	-12.3433
▁fiɛbiga	-12.3433
▁dɔléla	-12.3433
▁Xaran	-12.3434
▁nsupɔ	-12.3434
▁aniwudeɛ	-12.3434
▁Zomiya	-12.3434
▁manyagblɔ	-12.3434
▁nnaadaasɛm	-12.3436
▁woaxe	-12.3438
▁Matanya	-12.3438
▁Palu	-12.3438
▁merennya	-12.3438
▁ƒometatɔwo	-12.3438
▁Moabitɔwo	-12.3438
▁yɛbɛkɔ	-12.3439
▁woafɔ	-12.3439
▁ɔbuee	-12.3439
▁waduane	-12.3439
▁wɔawuwu	-12.3439
▁bobom	-12.3439
▁dzoxɔxɔ	-12.3439
▁Hazɔr	-12.3441
hosene	-12.3442
▁dzidzim	-12.3442
▁nàbia	-12.3443
▁nèɖu	-12.3443
▁woabɔ	-12.3443
▁ɔbɛsɔre	-12.3443
▁Woayɔ	-12.3444
▁mègawɔ	-12.3444
sur	-12.3444
▁Etan	-12.3445
▁wawuo	-12.3445
▁adzodalawo	-12.3445
▁wɔkɔhyia	-12.3447
▁ʋɔtruawo	-12.3449
▁nyiniiɛ	-12.3449
▁gaŋ	-12.3449
naata	-12.3449
▁gbeɖuɖɔ	-12.3449
▁ɛ̃	-12.345
▁wɔahwie	-12.345
▁Amontɔwo	-12.3451
▁hegblẽ	-12.3452
▁efɔ	-12.3452
▁Helatɔwo	-12.3452
▁àku	-12.3452
▁Kusni	-12.3453
▁Tɔbu	-12.3453
▁Avu	-12.3454
▁aɖaba	-12.3454
▁Hɔsh	-12.3456
▁Hiburunim	-12.3456
▁ŋeŋem	-12.3457
dwabɔ	-12.3458
▁watwe	-12.3458
▁nègbe	-12.3459
hotua	-12.3463
▁Ehu	-12.3465
▁akpedavɔsawo	-12.3466
liakim	-12.3468
▁ohia	-12.347
▁abere	-12.347
bɛnom	-12.3472
▁mahoɔden	-12.3472
▁ahempoma	-12.3474
▁Yɛnnim	-12.3474
▁nàku	-12.3475
▁tsri	-12.3475
▁Aʋafia	-12.3475
▁bereɛ	-12.3481
shaara	-12.3485
zibu	-12.3485
▁naɣisa	-12.3487
▁melɔ̃na	-12.3489
▁Wonni	-12.349
nhyehyɛ	-12.349
▁monsɔre	-12.3491
▁sakyera	-12.3503
▁tuatua	-12.3504
▁tɔnyewo	-12.3505
▁Kpahim	-12.3506
▁wòfiã	-12.3506
antwe	-12.3507
▁Tiŋgbani	-12.3511
▁woamawo	-12.3514
▁wɔrenni	-12.3515
▁aseyetso	-12.3516
▁vili	-12.3519
▁viŋutsuawo	-12.3521
sraban	-12.3522
▁ɛtu	-12.3528
▁Bom	-12.3529
▁ɖadi	-12.3531
▁akunini	-12.3535
▁aniwu	-12.3539
ɣisimiya	-12.3539
▁aseyetsoƒe	-12.3542
▁adwanefoɔ	-12.3543
▁Ahil	-12.3547
▁manhunu	-12.3555
▁mobisa	-12.3559
menɔ	-12.3559
▁madane	-12.3559
▁duuma	-12.3564
▁xɔxɔnuwo	-12.3566
ndaannim	-12.3566
▁Ɛka	-12.3568
▁moakɔ	-12.3569
▁gabisi	-12.3571
▁Eto	-12.3572
▁wanni	-12.3573
▁abɛhyia	-12.3575
▁wògagblɔ	-12.3577
▁anwu	-12.3585
gasusɔ	-12.3586
oli	-12.3588
▁Yɛre	-12.3589
hud	-12.3605
▁mohwehwɛ	-12.3607
▁míenyae	-12.3608
▁akɔnu	-12.3623
▁ɖekɛ	-12.3625
▁bɔb	-12.3625
dɔn	-12.3626
tsɔtsɔ	-12.3638
dɛre	-12.3654
▁Wodi	-12.3655
▁kpar	-12.3656
▁akɔto	-12.3657
▁wɔbubu	-12.3663
▁pagya	-12.3665
mrado	-12.3666
nunana	-12.3672
▁kerub	-12.368
anante	-12.3681
▁efia	-12.3681
▁sansan	-12.3684
▁morekɔ	-12.3686
▁sẽto	-12.369
▁siɣis	-12.3691
▁bɔneyɛ	-12.3697
▁wɔkasa	-12.3698
honyadeɛ	-12.37
wareɛ	-12.3708
rebisa	-12.371
▁wɔɣiri	-12.3714
noɔma	-12.3722
▁bipol	-12.3724
▁kpɔti	-12.3729
ŋmahindi	-12.3731
▁Yos	-12.3734
▁Sala	-12.3755
▁asorɔkye	-12.3763
▁ɛhwe	-12.3768
fiaɖuƒe	-12.3769
koo	-12.3769
pirigi	-12.377
▁akonta	-12.3772
▁lãkplɔvi	-12.3772
▁nudzodzro	-12.3772
▁Xititɔ	-12.3772
▁Woad	-12.3774
lɔlɔ̃	-12.3774
apɛdeɛ	-12.3775
▁gbɔɖeme	-12.3781
rebɛyi	-12.3782
▁nunɔamesi	-12.3782
▁mɛhwi	-12.3783
▁Itama	-12.3786
▁afɛfɛ	-12.3786
hankron	-12.3789
peepee	-12.3789
▁Ahitɔfɛl	-12.3789
▁Arpad	-12.3789
▁Atalya	-12.3789
▁Basmat	-12.3789
▁Kapɛrinium	-12.3789
▁Sefania	-12.3789
▁Serebia	-12.3789
▁Taflatse	-12.3789
▁Xezron	-12.3789
▁adansekurumu	-12.3789
▁ahofadie	-12.3789
▁bintabind	-12.3789
▁biŋgbamda	-12.3789
▁duŋtaabo	-12.3789
▁nteredee	-12.3789
▁nunyonamewo	-12.3789
▁wuwlui	-12.3789
▁zolɔŋni	-12.3789
▁ŋudɔwɔnu	-12.3789
▁Ɖu	-12.3789
▁ƒiaƒiaƒia	-12.3789
▁Miheyi	-12.3789
▁ɔpeduonu	-12.3789
Barnea	-12.3789
▁Tiriza	-12.3789
▁yidaannim	-12.3789
▁mmɛbɛ	-12.3789
▁Oreb	-12.3789
▁Siizaria	-12.3789
▁Ulam	-12.3789
▁ʋiʋli	-12.3789
▁animono	-12.3789
▁nyaɣisa	-12.3789
▁nintɔri	-12.3789
▁mɛɛr	-12.3789
▁ɔtenee	-12.3789
▁miemie	-12.3789
▁otumfoɔ	-12.3789
tike	-12.3789
▁aƒeliwo	-12.3789
▁barinyu	-12.3789
▁Twerɛ	-12.3789
▁Zerax	-12.3789
▁wɔanhu	-12.3789
▁Beerseba	-12.3789
▁adɔfo	-12.379
▁mompae	-12.379
▁Maata	-12.379
▁ɔgyaee	-12.379
▁Pahat	-12.379
biasaf	-12.379
▁Gɔg	-12.379
▁Kison	-12.379
▁Amiel	-12.3791
▁kwankyɛn	-12.3792
▁Barabas	-12.3792
▁atsiã	-12.3792
▁adwinneɛ	-12.3792
▁wampene	-12.3792
▁Malkiya	-12.3793
▁woadzudzɔ	-12.3793
▁Mesek	-12.3793
▁aforoeɛ	-12.3793
▁Mègatsɔ	-12.3793
▁ɔntie	-12.3793
▁wuievelia	-12.3793
▁Zora	-12.3793
▁mfoni	-12.3793
▁Ater	-12.3793
▁nyemedze	-12.3794
▁Elat	-12.3796
▁huboa	-12.3796
▁wɔbɛtotɔ	-12.3797
▁Miewɔ	-12.3797
▁Aramhene	-12.3798
ombihi	-12.3798
▁kurigiya	-12.3799
▁ƒutsotsoewo	-12.3799
▁dzronyigba	-12.38
▁wɔbɛhu	-12.38
▁wobɛkɔ	-12.38
▁Reu	-12.38
▁edzɔ	-12.3801
kɔ̀	-12.3801
▁Tene	-12.3801
▁emenɔlawo	-12.3801
▁Yuma	-12.3802
▁asinudɔ	-12.3803
▁ɛhyerɛn	-12.3804
▁ɔrekorɔ	-12.3804
▁kuhirimi	-12.3804
▁mpini	-12.3805
▁Wam	-12.3809
▁woaʋu	-12.3809
▁mpopo	-12.3809
atete	-12.3809
▁shaara	-12.381
▁wɔasɔre	-12.381
▁kpɛna	-12.3811
▁tsralawo	-12.3811
▁sefiala	-12.3811
▁Kerubiwo	-12.3812
▁tamesusuwo	-12.3814
▁aɖuwo	-12.3814
▁ègbe	-12.3815
▁nufialawo	-12.3822
▁yrɔ	-12.3823
▁hekpɔ	-12.3824
▁woyɛeɛ	-12.3825
▁ɖaasi	-12.3825
▁gbariti	-12.3827
▁nàkɔ	-12.3828
▁nakodeɛ	-12.3834
▁zalinsi	-12.3835
twom	-12.3839
▁toɖoɖom	-12.3841
▁lĩ	-12.3845
▁fianyenye	-12.3846
▁wiem	-12.3846
dzé	-12.3849
biɛlim	-12.385
▁Amonni	-12.385
tɔɣisiri	-12.3852
▁morenhunu	-12.3853
daŋ	-12.3854
▁nàɖem	-12.3855
dzidzeti	-12.3861
▁dzidzedze	-12.3862
dzedzekpɔkpɔ	-12.3867
▁shɛhiranima	-12.3868
▁ɔfom	-12.3871
▁resu	-12.3875
▁Bɛza	-12.3877
▁kuriba	-12.3879
abrɛ	-12.388
▁Vinyewo	-12.3886
fɛdifoɔ	-12.3888
bɛtiatia	-12.3888
▁yewoaɖe	-12.389
▁poya	-12.3891
▁baliwo	-12.3891
duruiɛ	-12.3891
korɔn	-12.3897
▁Manɔa	-12.3898
▁Eku	-12.3901
▁ɛnsa	-12.3902
libu	-12.3908
nuɖuɖu	-12.3908
▁ɖayɔ	-12.3915
▁wònɔna	-12.3919
▁Jɛri	-12.3922
mpɛsɛ	-12.3924
kuta	-12.3926
▁Boa	-12.3926
anomu	-12.3932
bɛbubu	-12.3934
▁Mebe	-12.3941
▁bɛpue	-12.3942
▁nnadeɛ	-12.3943
lita	-12.3947
▁gawɔ	-12.3951
▁ɔhyɛne	-12.3953
▁Nà	-12.3954
▁yol	-12.3962
▁asike	-12.3964
▁twae	-12.3966
▁antɔ	-12.397
▁ɔbɛhu	-12.397
▁makasa	-12.3975
▁mmee	-12.3977
▁Nyemaga	-12.3978
▁dzeƒe	-12.3982
▁paari	-12.3986
▁Buɣim	-12.3988
▁ɖaɖi	-12.3997
buri	-12.3999
pini	-12.3999
▁wòsubɔ	-12.4
▁mialɔ̃	-12.4004
▁Riu	-12.4006
▁Miat	-12.4008
bɔdeɛ	-12.4012
▁merenni	-12.4022
ŋgo	-12.4025
▁kukuo	-12.4027
▁ɔtete	-12.4032
bɛtɔ	-12.4039
kaneadua	-12.4039
fotuo	-12.404
▁wasɔre	-12.4044
▁motena	-12.4046
▁ɛnso	-12.4047
▁nyaɣisiri	-12.4049
ĩ	-12.4063
ŋkekewo	-12.4064
eset	-12.407
▁agbawo	-12.4073
▁yɛnsane	-12.4076
▁Wofa	-12.4078
▁wɔteateaa	-12.4078
linli	-12.4083
▁Hann	-12.4083
▁zol	-12.4084
▁renkɔ	-12.4086
▁tipawumlinim	-12.4091
▁yewoadz	-12.4091
▁tɔɣi	-12.4092
wusɔreɛ	-12.4093
mmɛfa	-12.4098
zal	-12.4102
▁Ɔyi	-12.4107
▁ɔnkyerɛ	-12.4109
reforo	-12.4126
▁mfu	-12.4126
▁Gbib	-12.4127
▁zaashe	-12.4129
ahonya	-12.4133
ooŋa	-12.4135
gbedadaƒo	-12.4139
Moab	-12.4139
mmɛgye	-12.4139
▁nɔvianyɔnu	-12.414
nyunyɔ	-12.414
▁Baalim	-12.4143
▁trɔ̃subɔla	-12.4143
▁ɔredi	-12.4149
▁abosonsom	-12.4154
▁tibisi	-12.4155
▁nyemeny	-12.4157
▁shɛhi	-12.4157
▁wɔbɛboa	-12.4158
mpanin	-12.4158
naayopɔin	-12.4158
▁Xur	-12.4159
abandenden	-12.4159
▁Abigeel	-12.4159
▁Arfaksad	-12.4159
▁Bakbuk	-12.4159
▁Gbedeasi	-12.4159
▁Kesinɔtɔ	-12.4159
▁Kiriatijiarim	-12.4159
▁Memfis	-12.4159
▁Raxab	-12.4159
▁Tarso	-12.4159
▁ayayadeɛ	-12.4159
▁dzadzraɖo	-12.4159
▁fía	-12.4159
▁gahigahi	-12.4159
▁heliheli	-12.4159
▁kantankrankyi	-12.4159
▁nnawuro	-12.4159
▁odwamanfoɔ	-12.4159
▁owudini	-12.4159
▁shɛlɔrigu	-12.4159
▁tibiginsim	-12.4159
▁tɔtorɔtɔɔ	-12.4159
▁yuntisuɣu	-12.4159
▁Ɛlishama	-12.4159
▁Ararat	-12.4159
▁Rɛkab	-12.4159
▁Sakur	-12.4159
▁nyahehe	-12.4159
▁Sunem	-12.4159
▁xɔtulawo	-12.4159
▁Tɔbaya	-12.4159
▁wɔadeda	-12.4159
▁ɛkyɛm	-12.4159
▁asonse	-12.4159
▁Doeg	-12.4159
▁kɔsoya	-12.4159
▁nsankuo	-12.4159
▁lãmetututɔ	-12.4159
▁ahuhufoɔ	-12.4159
▁Bebai	-12.4159
▁Lidia	-12.4159
▁Miidia	-12.4159
▁Rɛfaim	-12.4159
▁numevɔsamlekpui	-12.416
▁dapala	-12.416
▁akurofo	-12.416
▁Elnatan	-12.416
▁ɔwiee	-12.416
▁apakye	-12.416
▁ahenemma	-12.416
▁huuyɛ	-12.416
paepaee	-12.416
▁nkataano	-12.416
▁nnwontoɔ	-12.416
▁Aroa	-12.4161
▁Yoo	-12.4161
▁Nazari	-12.4161
▁hiahiã	-12.4161
▁nuammarimanom	-12.4161
▁adekoradan	-12.4162
simdi	-12.4162
▁aʋatsokaka	-12.4162
▁sesewu	-12.4162
▁Biɛɣuni	-12.4163
▁Fofowò	-12.4163
▁ɔdomfoɔ	-12.4164
▁gbihirimi	-12.4164
▁wobɛwu	-12.4164
▁agudzedze	-12.4164
▁Míeɖe	-12.4164
▁Kpo	-12.4165
▁galindi	-12.4165
▁dzidzeka	-12.4166
▁nsuwa	-12.4167
▁afodeɛ	-12.4167
▁Zoya	-12.4167
▁ɔbra	-12.4168
▁nàtrɔ	-12.4168
▁Pɛka	-12.4169
▁mobɛkɔ	-12.4169
▁vɔ̃ɖiwɔwɔ	-12.4169
nantwibereɛ	-12.417
▁míezu	-12.417
▁ɔbɛwuo	-12.417
▁wògbɔna	-12.4172
▁wannye	-12.4173
▁yeava	-12.4173
▁ebɔbɔ	-12.4173
▁ɖiƒoƒo	-12.4174
▁míede	-12.4174
▁Estemoa	-12.4175
▁ɛreyɛ	-12.4176
▁bintir	-12.4177
▁dasuo	-12.4177
▁blanyi	-12.4177
chee	-12.418
▁vɔ̃wɔwɔ	-12.418
▁vidzĩwo	-12.4181
▁wɔrennye	-12.4182
▁ɣaɣlaƒe	-12.4182
▁abati	-12.4183
▁monwɛn	-12.4183
lí	-12.4185
▁kpaŋdi	-12.4186
▁Makafu	-12.4186
▁hezu	-12.4188
tsɔla	-12.4189
▁tsetsewo	-12.419
▁Makoma	-12.4191
▁wɔammu	-12.4191
▁Mibia	-12.4192
▁ɔkɔeɛ	-12.4198
▁zaɣisiri	-12.4198
▁Sekemfoɔ	-12.4201
▁ɛwe	-12.4201
▁dzatavi	-12.4202
▁mommrɛ	-12.4205
▁Doliy	-12.4206
▁yiŋlan	-12.4206
▁yewoase	-12.4207
▁darigibu	-12.4208
▁Libina	-12.4209
gyidi	-12.421
mfɛre	-12.4211
▁wobaka	-12.4215
▁Wɔwɔ	-12.4216
▁baansi	-12.4218
▁mũ	-12.422
aduradeɛ	-12.4221
▁adɔfoɔ	-12.4221
▁Melɔ̃	-12.4223
▁Futɔ	-12.4223
▁Wotsi	-12.4229
▁pepa	-12.423
lɛt	-12.4233
nsifoɔ	-12.4235
▁ŋkuɖodzinu	-12.4237
▁dzonae	-12.4237
▁hwam	-12.4243
▁Lɔlɔ̃	-12.4248
▁lihibu	-12.4249
▁akokɔ	-12.4251
▁Xɔla	-12.4254
▁palibu	-12.4255
▁mobɛtena	-12.4256
frafra	-12.4259
▁ankɔbea	-12.426
▁monnwene	-12.4261
▁wɔbɛhwɛ	-12.4266
▁Mikɔ	-12.427
ɔnhye	-12.4271
yansa	-12.4271
▁magava	-12.4274
▁tɔxɛwo	-12.4275
▁danedane	-12.4277
▁Ewi	-12.4278
▁migatsɔ	-12.4284
▁bibihi	-12.4285
▁wɔbɛsom	-12.4286
▁miekplɔ	-12.4288
▁fifirii	-12.429
▁buɣisir	-12.4292
▁mente	-12.4292
▁maligumaani	-12.4294
▁gade	-12.4295
▁worebɛ	-12.4302
dɔni	-12.4313
▁ʋuʋum	-12.4313
▁kɔsom	-12.4313
▁puma	-12.4318
▁guhir	-12.432
▁ganye	-12.4322
▁dɔnɔ	-12.4323
▁míase	-12.433
▁Hof	-12.4333
piti	-12.4334
▁asɛeɛ	-12.4337
▁miaƒo	-12.4341
▁biaŋ	-12.4344
▁wɔkamfo	-12.4345
▁míeka	-12.4351
▁mɛwu	-12.4356
▁Ɔre	-12.4357
▁nàwu	-12.436
▁Saf	-12.4361
▁bɛtene	-12.4363
ɖanɔ	-12.4364
anhyɛ	-12.4373
▁tiwul	-12.4376
▁nnidi	-12.4379
▁wosuro	-12.4386
▁ŋmɛr	-12.4395
foforɔ	-12.4396
▁zɔra	-12.4396
▁ɖetugbime	-12.4399
taɣiri	-12.4402
▁reto	-12.4404
bɛba	-12.4404
dzesi	-12.4416
duonum	-12.4421
▁mewɔna	-12.4423
▁míaku	-12.4425
▁sɔŋd	-12.4426
▁wɔmane	-12.4426
▁wòdidi	-12.4429
▁yɛaka	-12.4437
▁kɔrig	-12.4438
▁bipuɣins	-12.4439
ƒ	-12.4439
mpepa	-12.4446
▁tuo	-12.4482
▁poor	-12.4489
ŋgbɔŋ	-12.4491
▁Ŋutsuvi	-12.4497
▁waten	-12.4498
subɔna	-12.4503
▁wɔamia	-12.4504
haw	-12.4509
▁Esu	-12.452
mienu	-12.4523
▁Wɔmf	-12.4524
apinisie	-12.4524
▁viaŋutsu	-12.4526
▁fewuɖula	-12.4527
▁aƒelika	-12.4527
▁dzɔtsu	-12.4532
▁afɔɖeɖe	-12.4534
▁nkonta	-12.4536
▁Hebritɔ	-12.4539
▁Magdala	-12.454
▁adwotwa	-12.454
▁chɛchɛbun	-12.4541
dansesɛm	-12.4542
▁Giriiki	-12.4544
kyinkyim	-12.4544
kɔblivɔsamlekpui	-12.4544
twɛre	-12.4544
▁Abednego	-12.4544
▁Bikri	-12.4544
▁Bildad	-12.4544
▁Eskol	-12.4544
▁Kaisarea	-12.4544
▁Menahem	-12.4544
▁Nehemia	-12.4544
▁Nikodemo	-12.4544
▁Pasxur	-12.4544
▁Reehab	-12.4544
▁Sikri	-12.4544
▁Xɔ̃nye	-12.4544
▁Yexiel	-12.4544
▁Yosabad	-12.4544
▁biɛlabiɛla	-12.4544
▁kɔbisiwɛi	-12.4544
▁mponkyerɛne	-12.4544
▁suhukpaŋsibo	-12.4544
▁ɣesiaɣi	-12.4544
▁ʋɔnudrɔ̃gbe	-12.4544
▁adedodoɔ	-12.4544
▁dunɔdura	-12.4544
▁dzodzodzoe	-12.4544
▁nakodeɛkurani	-12.4544
▁Ŋkekenyui	-12.4544
▁Alẽkplɔla	-12.4544
▁Rehum	-12.4544
▁kɔnyinyi	-12.4544
▁bɛpopo	-12.4544
▁yilikpɛril	-12.4544
▁Sipor	-12.4544
▁Idɛn	-12.4544
▁gbidii	-12.4544
▁Ahinoam	-12.4544
▁ntutuiɛ	-12.4544
▁Rimɔn	-12.4544
▁Salem	-12.4544
▁ahɔne	-12.4544
▁zaadali	-12.4544
▁Kɛseɛ	-12.4544
▁dɔnhwere	-12.4544
▁Purim	-12.4544
▁kpaŋkpaŋ	-12.4544
▁ntweaban	-12.4544
▁Golan	-12.4545
▁afobuo	-12.4545
▁nadagya	-12.4545
▁Uziɛl	-12.4545
▁parant	-12.4545
▁ɛdɛm	-12.4545
▁wuiɖekɛlia	-12.4545
▁wòanyo	-12.4546
▁wòayɔ	-12.4546
▁azãgbe	-12.4546
▁tsɔtsɔke	-12.4547
▁Harar	-12.4547
▁nkantankor	-12.4547
naayɔbu	-12.4547
▁Korah	-12.4547
▁Magdalatɔ	-12.4547
▁kuruchunim	-12.4548
▁wɔnnni	-12.4548
▁Yɛligu	-12.4548
▁asotire	-12.4548
▁Adma	-12.4549
▁ŋɔdzitɔe	-12.4549
▁ahatsɔ	-12.4551
▁nètrɔ	-12.4552
▁ameblela	-12.4552
▁aɖakpɔ	-12.4553
▁gbɔɖemeƒe	-12.4553
▁woazɔ	-12.4553
▁aƒenɔ	-12.4553
▁ƒukpo	-12.4553
laannim	-12.4554
▁puhigu	-12.4554
▁ɛbɛfiri	-12.4554
▁nàŋlɔ	-12.4555
▁hɔ̃ɔ	-12.4555
▁mègado	-12.4556
▁ɛduru	-12.4557
▁mavɔ̃mawu	-12.4559
▁Amisa	-12.4559
▁Hititɔwo	-12.456
▁binwɔɣila	-12.456
▁Woaƒo	-12.4563
▁vinyɔnuvi	-12.4565
▁mmasuo	-12.4565
▁asomdwoeɛsɛm	-12.4566
▁Aki	-12.4566
▁ŋmahindi	-12.4568
▁xɔlɔ̃awo	-12.4568
▁ɔsraa	-12.457
▁kristotɔwo	-12.4571
▁mɛbubu	-12.4572
▁nkontompofoɔ	-12.4573
▁Buni	-12.4573
▁dzɔgbenyuie	-12.4574
▁Ɛl	-12.4576
▁wɔtwɛn	-12.4577
▁nkɔmmɔ	-12.4577
▁ekpe	-12.4579
▁monnɔ	-12.458
▁amumuyɛdeɛ	-12.4581
▁ɔremfa	-12.4581
▁wainkawo	-12.4581
▁ɔkɔte	-12.4582
▁Alɔ	-12.4584
▁Yafia	-12.4585
▁ʋeʋẽm	-12.4585
▁ʋeʋĩwo	-12.4586
▁xo	-12.4589
▁otirimuɔdenfoɔ	-12.459
▁birigu	-12.4591
adwumayɛfoɔ	-12.4593
▁Naeman	-12.4595
▁nudzraɖoƒewo	-12.4596
▁kɔɣili	-12.46
▁anyigbaʋuʋu	-12.46
▁Gibiɔnnim	-12.4601
▁Monhyɛ	-12.4602
▁motee	-12.4604
▁tɔgbuiyɔviwo	-12.4607
▁tsyoti	-12.4609
▁pateesanim	-12.461
▁maduane	-12.4612
faeɛ	-12.4613
pal	-12.4614
duo	-12.4616
forɔ	-12.4618
▁Miwu	-12.4625
▁tà	-12.4626
▁baptaiziri	-12.4626
adɔre	-12.4627
▁nèto	-12.4628
▁amewuwu	-12.463
▁xoxoawo	-12.463
▁Ɔdɔ	-12.4632
▁mɛte	-12.4635
▁yɛsrɛ	-12.4636
▁wɔbɛtie	-12.4637
▁tambu	-12.4639
▁Hazar	-12.4639
▁yul	-12.4639
vinyɔnu	-12.4639
▁akpoxɔnuwo	-12.464
▁wɔankɔ	-12.4644
▁Buz	-12.4648
mɔz	-12.4655
mimi	-12.4656
▁Zɔa	-12.4658
▁Pont	-12.4664
▁bolo	-12.4666
▁ɛkyɛn	-12.467
▁Puhimiy	-12.467
▁dzodzoe	-12.4671
▁kpabi	-12.4671
awofoɔ	-12.4671
▁kulim	-12.4675
▁gbilisiri	-12.468
▁ɛnhi	-12.4681
gbahi	-12.4684
▁bɛdwiri	-12.4685
rekyerɛkyerɛ	-12.4687
▁míade	-12.4687
▁balli	-12.4689
▁worenhunu	-12.4692
▁afɔawo	-12.4695
▁Neko	-12.4701
▁Amegbetɔwo	-12.4702
kyɛn	-12.4711
kpahi	-12.4717
ɖulawo	-12.4721
▁woala	-12.4737
ziel	-12.4742
▁Miyɔ	-12.4747
▁mmɛhy	-12.475
rebɛdi	-12.4752
▁Efia	-12.4762
▁wɔkyerɛkyerɛ	-12.4764
▁Ro	-12.4767
▁nyɔm	-12.4769
▁Uz	-12.4776
ɖayɔ	-12.4786
srafo	-12.4793
▁nàtu	-12.4794
▁Yɛd	-12.4807
ànɔ	-12.481
▁míaƒo	-12.4811
lindi	-12.4818
seyetsoƒe	-12.4819
hyɛaseɛ	-12.4822
▁wankɔ	-12.4823
▁Yeh	-12.4825
nwi	-12.4826
kronkronneɛ	-12.4828
▁mmɛbɔ	-12.4836
▁nudzɔla	-12.484
esusɔ	-12.4841
▁wonyae	-12.4855
▁Woado	-12.4864
▁Montwe	-12.4865
▁nàtɔ	-12.4868
ahoni	-12.4872
▁Matɔ	-12.4873
neɛma	-12.4877
▁kpuɣim	-12.4883
▁bɛsosɔ	-12.4884
▁atom	-12.4888
▁wɔrepɛ	-12.489
dzidzi	-12.4899
▁shɛhiranim	-12.4899
▁miezɔ	-12.4907
bɔh	-12.4912
▁Mamr	-12.4919
kpẽ	-12.4924
tasiaɖam	-12.4924
togbɛ	-12.4924
ŋutilã	-12.4925
asɔredan	-12.4926
▁tekunɔ	-12.4927
▁ʋetsuvi	-12.4927
▁asinudɔwɔwɔ	-12.4928
▁Kol	-12.4929
▁Hame	-12.493
▁fɛm	-12.4938
fianyɔnu	-12.4938
▁ɔfe	-12.4941
▁Dzudzɔ	-12.4942
dutun	-12.4944
ɛligakushihikom	-12.4944
▁Ahasivɛrɔs	-12.4944
▁Alizanda	-12.4944
▁Axasweros	-12.4944
▁Aƒlaƒu	-12.4944
▁Bɛtihɔrɔn	-12.4944
▁Eliasaf	-12.4944
▁Elyasib	-12.4944
▁Gexazi	-12.4944
▁Gɛshur	-12.4944
▁Labimiya	-12.4944
▁Migdol	-12.4944
▁Mɛfibɔshɛt	-12.4944
▁Pagiel	-12.4944
▁Rafa	-12.4944
▁Talmon	-12.4944
▁Xoreb	-12.4944
▁Yehoyatsin	-12.4944
▁Zalmuna	-12.4944
▁anyanyankyerɛ	-12.4944
▁bukaata	-12.4944
▁gbinfini	-12.4944
▁kplikplikpli	-12.4944
▁mpintin	-12.4944
▁nachimbihi	-12.4944
▁nnamnnam	-12.4944
▁nsõ	-12.4944
▁ntampeɛ	-12.4944
▁peentɔriba	-12.4944
▁pihinahinaayi	-12.4944
▁tomefafa	-12.4944
▁yɛmbimbiɛri	-12.4944
▁Ŋmɛm	-12.4944
▁ɛrenkyɛre	-12.4944
ì	-12.4944
▁Apueeɛ	-12.4944
▁Derbe	-12.4944
▁Gbugbɔ	-12.4944
▁Resin	-12.4944
▁tinshee	-12.4944
▁Dzra	-12.4944
▁nnareka	-12.4944
▁ɣekaɣi	-12.4944
▁Yasub	-12.4944
▁atɛkyɛ	-12.4944
▁dziɖeɖi	-12.4944
▁obonini	-12.4944
▁dzobibi	-12.4944
▁Setar	-12.4944
▁kpɔdomeewo	-12.4944
▁ahoɔdenneɛ	-12.4944
▁Ŋmaligim	-12.4944
▁naɣibihi	-12.4944
▁dzimaɖi	-12.4944
▁mogyahwiegu	-12.4944
▁gyataburuwa	-12.4944
▁sãde	-12.4944
▁namanama	-12.4944
▁nugbana	-12.4944
▁mawusubɔsubɔ	-12.4944
▁Yatir	-12.4944
▁mobɛwuwu	-12.4945
▁Bɛtani	-12.4945
▁nsutire	-12.4945
▁Pekax	-12.4945
▁tsieƒe	-12.4945
▁adzohawo	-12.4945
▁Silpa	-12.4945
▁ɖetifu	-12.4945
▁Mixael	-12.4946
▁mawuvɔvɔ̃	-12.4946
▁ŋkuɖodzikpe	-12.4946
piimba	-12.4946
▁asomfo	-12.4946
▁makɔmakɔnyenye	-12.4946
▁ahohwie	-12.4947
▁dunɔbi	-12.4947
▁nkataho	-12.4947
▁Suhimiya	-12.4947
▁nyemegblɔ	-12.4947
▁gbeadzi	-12.4948
▁nyaɣisira	-12.4948
▁nukutɔe	-12.4949
▁mpemnan	-12.4949
▁yɔwòm	-12.495
▁kpɔtsɔtsɔ	-12.495
muadeɛ	-12.495
▁womegblɔ	-12.495
▁Bubutɔ	-12.4951
▁Sitim	-12.4952
▁daŋda	-12.4953
▁yewoaxɔ	-12.4953
▁moagye	-12.4954
▁nègblẽ	-12.4954
▁Id	-12.4954
▁atikpo	-12.4955
▁sesẽtɔe	-12.4955
▁kɔbilisi	-12.4955
▁ƒuƒuiƒe	-12.4956
nyiyi	-12.4956
▁Nunana	-12.4956
▁Gbãtɔ	-12.4957
▁gabia	-12.4957
▁nyiɖu	-12.4957
▁teƒeɖoɖo	-12.4957
sau	-12.4958
▁Monhunu	-12.4959
▁wasene	-12.4959
▁ɔyera	-12.496
▁ède	-12.4962
▁Wopɛ	-12.4962
▁dɔdeasiwo	-12.4966
bɛboa	-12.4966
▁lãfu	-12.497
▁vubu	-12.4972
▁labimiya	-12.4972
▁Amonviwo	-12.4973
▁ɔpono	-12.4973
▁nnade	-12.4975
▁funtum	-12.4976
▁Wodɔ	-12.4976
pempam	-12.4978
▁retwa	-12.4981
▁tro	-12.4981
▁nyematsɔ	-12.4982
▁Edzi	-12.4982
▁mmaratofoɔ	-12.4983
▁rentɔ	-12.4984
▁Asiriatɔwo	-12.4984
▁kɔkɔbɔ	-12.4984
▁ɔyiyi	-12.4985
▁nanteeɛ	-12.4985
▁merenka	-12.4988
▁gasẽ	-12.499
▁ɔhyɛeɛ	-12.4995
▁yeasa	-12.4999
▁Sora	-12.5
▁nyemawɔ	-12.5001
▁Yose	-12.5004
▁bɛdɔɔso	-12.5005
abofu	-12.5006
▁adɔna	-12.5006
▁Wotia	-12.5007
[...]
