{
  "version": "1.0",
  "truncation": null,
  "padding": null,
  "added_tokens": [
    {
      "id": 0,
      "content": "[PAD]",
      "single_word": false,
      "lstrip": false,
      "rstrip": false,
      "normalized": false,
      "special": true
    },
    {
      "id": 1,
      "content": "[UNK]",
      "single_word": false,
      "lstrip": false,
      "rstrip": false,
      "normalized": false,
      "special": true
    },
    {
      "id": 2,
      "content": "[CLS]",
      "single_word": false,
      "lstrip": false,
      "rstrip": false,
      "normalized": false,
      "special": true
    },
    {
      "id": 3,
      "content": "[SEP]",
      "single_word": false,
      "lstrip": false,
      "rstrip": false,
      "normalized": false,
      "special": true
    },
    {
      "id": 4,
      "content": "[MASK]",
      "single_word": false,
      "lstrip": false,
      "rstrip": false,
      "normalized": false,
      "special": true
    }
  ],
  "normalizer": {
    "type": "Sequence",
    "normalizers": [
      {
        "type": "NFC"
      }
    ]
  },
  "pre_tokenizer": {
    "type": "Whitespace"
  },
  "post_processor": {
    "type": "TemplateProcessing",
    "single": [
      {
        "SpecialToken": {
          "id": "[CLS]",
          "type_id": 0
        }
      },
      {
        "Sequence": {
          "id": "A",
          "type_id": 0
        }
      },
      {
        "SpecialToken": {
          "id": "[SEP]",
          "type_id": 0
        }
      }
    ],
    "pair": [
      {
        "SpecialToken": {
          "id": "[CLS]",
          "type_id": 0
        }
      },
      {
        "Sequence": {
          "id": "A",
          "type_id": 0
        }
      },
      {
        "SpecialToken": {
          "id": "[SEP]",
          "type_id": 0
        }
      },
      {
        "Sequence": {
          "id": "B",
          "type_id": 1
        }
      },
      {
        "SpecialToken": {
          "id": "[SEP]",
          "type_id": 1
        }
      }
    ],
    "special_tokens": {
      "[CLS]": {
        "id": "[CLS]",
        "ids": [
          2
        ],
        "tokens": [
          "[CLS]"
        ]
      },
      "[SEP]": {
        "id": "[SEP]",
        "ids": [
          3
        ],
        "tokens": [
          "[SEP]"
        ]
      }
    }
  },
  "decoder": null,
  "model": {
    "type": "BPE",
    "dropout": null,
    "unk_token": "[UNK]",
    "continuing_subword_prefix": null,
    "end_of_word_suffix": null,
    "fuse_unk": false,
    "byte_fallback": false,
    "ignore_merges": false,
    "vocab": {
      "[PAD]": 0,
      "[UNK]": 1,
      "[CLS]": 2,
      "[SEP]": 3,
      "[MASK]": 4,
      "!": 5,
      "*": 6,
      ",": 7,
      "-": 8,
      ".": 9,
      ":": 10,
      ";": 11,
      "<": 12,
      ">": 13,
      "?": 14,
      "A": 15,
      "B": 16,
      "C": 17,
      "D": 18,
      "E": 19,
      "F": 20,
      "G": 21,
      "H": 22,
      "I": 23,
      "J": 24,
      "K": 25,
      "L": 26,
      "M": 27,
      "N": 28,
      "O": 29,
      "P": 30,
      "R": 31,
      "S": 32,
      "T": 33,
      "U": 34,
      "V": 35,
      "W": 36,
      "X": 37,
      "Y": 38,
      "Z": 39,
      "a": 40,
      "b": 41,
      "c": 42,
      "d": 43,
      "e": 44,
      "f": 45,
      "g": 46,
      "h": 47,
      "i": 48,
      "j": 49,
      "k": 50,
      "l": 51,
      "m": 52,
      "n": 53,
      "o": 54,
      "p": 55,
      "r": 56,
      "s": 57,
      "t": 58,
      "u": 59,
      "v": 60,
      "w": 61,
      "x": 62,
      "y": 63,
      "z": 64,
      "À": 65,
      "Ã": 66,
      "È": 67,
      "É": 68,
      "Ð": 69,
      "à": 70,
      "á": 71,
      "ã": 72,
      "è": 73,
      "é": 74,
      "ì": 75,
      "í": 76,
      "ò": 77,
      "ó": 78,
      "õ": 79,
      "ù": 80,
      "ú": 81,
      "ĩ": 82,
      "Ŋ": 83,
      "ŋ": 84,
      "ũ": 85,
      "Ɔ": 86,
      "Ɖ": 87,
      "Ɛ": 88,
      "Ƒ": 89,
      "ƒ": 90,
      "Ɣ": 91,
      "Ʋ": 92,
      "Ʒ": 93,
      "ɔ": 94,
      "ɖ": 95,
      "ɛ": 96,
      "ɣ": 97,
      "ʋ": 98,
      "ʒ": 99,
      "ʼ": 100,
      "̀": 101,
      "́": 102,
      "̃": 103,
      "Ẽ": 104,
      "ẽ": 105,
      "–": 106,
      "—": 107,
      "„": 108,
      "…": 109,
      "ni": 110,
      "na": 111,
      "ma": 112,
      "wo": 113,
      "la": 114,
      "me": 115,
      "ny": 116,
      "ka": 117,
      "da": 118,
      "gb": 119,
      "si": 120,
      "li": 121,
      "no": 122,
      "ne": 123,
      "le": 124,
      "wɔ": 125,
      "ri": 126,
      "ti": 127,
      "yɛ": 128,
      "sa": 129,
      "we": 130,
      "ye": 131,
      "be": 132,
      "kp": 133,
      "wi": 134,
      "so": 135,
      "bi": 136,
      "ra": 137,
      "yi": 138,
      "ƒe": 139,
      "de": 140,
      "nu": 141,
      "di": 142,
      "ba": 143,
      "twi": 144,
      "dz": 145,
      "ani": 146,
      "ewe": 147,
      "ɖe": 148,
      "mi": 149,
      "sɛ": 150,
      "bɛ": 151,
      "ŋu": 152,
      "wu": 153,
      "hi": 154,
      "ku": 155,
      "se": 156,
      "aa": 157,
      "kɔ": 158,
      "tɔ": 159,
      "fi": 160,
      "ya": 161,
      "daa": 162,
      "gbani": 163,
      "dagbani": 164,
      "mu": 165,
      "ho": 166,
      "te": 167,
      "fo": 168,
      "su": 169,
      "maa": 170,
      "wa": 171,
      "ta": 172,
      "wò": 173,
      "ko": 174,
      "nye": 175,
      "hɛ": 176,
      "dzi": 177,
      "eye": 178,
      "mo": 179,
      "nya": 180,
      "bu": 181,
      "ha": 182,
      "re": 183,
      "Na": 184,
      "lɔ": 185,
      "pa": 186,
      "to": 187,
      "do": 188,
      "ke": 189,
      "wɔn": 190,
      "nyi": 191,
      "vi": 192,
      "ame": 193,
      "foɔ": 194,
      "bɔ": 195,
      "deɛ": 196,
      "kple": 197,
      "rɛ": 198,
      "tu": 199,
      "du": 200,
      "nyɛ": 201,
      "ɣi": 202,
      "shɛ": 203,
      "Ye": 204,
      "za": 205,
      "naa": 206,
      "sɔ": 207,
      "gbe": 208,
      "ro": 209,
      "zu": 210,
      "fa": 211,
      "bo": 212,
      "ɖo": 213,
      "ga": 214,
      "nɔ": 215,
      "he": 216,
      "sia": 217,
      "lo": 218,
      "ɣu": 219,
      "Ka": 220,
      "ɔn": 221,
      "gba": 222,
      "hu": 223,
      "Ma": 224,
      "wɛ": 225,
      "dɔ": 226,
      "gu": 227,
      "firi": 228,
      "mma": 229,
      "gbɔ": 230,
      "gblɔ": 231,
      "kye": 232,
      "nim": 233,
      "sra": 234,
      "yɛn": 235,
      "ŋɔ": 236,
      "rɔ": 237,
      "el": 238,
      "zuɣu": 239,
      "siwo": 240,
      "vɔ": 241,
      "zaŋ": 242,
      "va": 243,
      "din": 244,
      "eɛ": 245,
      "ara": 246,
      "kpɔ": 247,
      "tso": 248,
      "Ya": 249,
      "woa": 250,
      "nyinaa": 251,
      "nko": 252,
      "mia": 253,
      "nso": 254,
      "eƒe": 255,
      "tsɔ": 256,
      "bena": 257,
      "ƒo": 258,
      "nti": 259,
      "fia": 260,
      "Naa": 261,
      "kyerɛ": 262,
      "niŋ": 263,
      "pi": 264,
      "man": 265,
      "yɛli": 266,
      "srael": 267,
      "Israel": 268,
      "kpe": 269,
      "ɖa": 270,
      "pɔn": 271,
      "ŋun": 272,
      "Yeho": 273,
      "asa": 274,
      "ɖi": 275,
      "mini": 276,
      "zaa": 277,
      "mí": 278,
      "gi": 279,
      "mali": 280,
      "AW": 281,
      "AWU": 282,
      "chɛ": 283,
      "nk": 284,
      "RA": 285,
      "DE": 286,
      "AWURA": 287,
      "AWURADE": 288,
      "xɔ": 289,
      "nsa": 290,
      "Mawu": 291,
      "awo": 292,
      "Da": 293,
      "Yawɛ": 294,
      "nam": 295,
      "nni": 296,
      "Yehowa": 297,
      "bɛn": 298,
      "po": 299,
      "Mo": 300,
      "anyi": 301,
      "kat": 302,
      "shɛli": 303,
      "wuni": 304,
      "baa": 305,
      "nkopɔn": 306,
      "ɖu": 307,
      "dzɔ": 308,
      "ru": 309,
      "Naawuni": 310,
      "kpa": 311,
      "katã": 312,
      "Mi": 313,
      "hɔ": 314,
      "ene": 315,
      "mɔ": 316,
      "dze": 317,
      "ase": 318,
      "af": 319,
      "hyɛ": 320,
      "aɖe": 321,
      "pu": 322,
      "tsi": 323,
      "uda": 324,
      "Wo": 325,
      "ve": 326,
      "ŋa": 327,
      "ƒetɔ": 328,
      "Di": 329,
      "sɛm": 330,
      "asi": 331,
      "Me": 332,
      "fu": 333,
      "gya": 334,
      "nɛ": 335,
      "tɔwo": 336,
      "ama": 337,
      "wura": 338,
      "abe": 339,
      "hã": 340,
      "esi": 341,
      "wɔa": 342,
      "Aƒetɔ": 343,
      "go": 344,
      "ui": 345,
      "hunu": 346,
      "mie": 347,
      "saa": 348,
      "wan": 349,
      "anim": 350,
      "riba": 351,
      "lawo": 352,
      "ɛl": 353,
      "Yo": 354,
      "ɛm": 355,
      "vɔ̃": 356,
      "yu": 357,
      "ela": 358,
      "bia": 359,
      "vu": 360,
      "ale": 361,
      "zi": 362,
      "pɔ": 363,
      "kyi": 364,
      "ad": 365,
      "Awura": 366,
      "Awurade": 367,
      "kam": 368,
      "viwo": 369,
      "ei": 370,
      "lẽ": 371,
      "biara": 372,
      "hene": 373,
      "zɔ": 374,
      "Yi": 375,
      "?.": 376,
      "ano": 377,
      "Sa": 378,
      "ɛn": 379,
      "tiŋ": 380,
      "Ke": 381,
      "lu": 382,
      "dzo": 383,
      "lan": 384,
      "ɣisi": 385,
      "tsu": 386,
      "dome": 387,
      "nna": 388,
      "asase": 389,
      "nyɛla": 390,
      "Yesu": 391,
      "yɔ": 392,
      "cha": 393,
      "hwɛ": 394,
      "gye": 395,
      "soɔ": 396,
      "shɛm": 397,
      "ŋuti": 398,
      "Nya": 399,
      "yo": 400,
      "ʒi": 401,
      "saha": 402,
      "woƒe": 403,
      "nka": 404,
      "biɛ": 405,
      "rɔ̃": 406,
      "Ne": 407,
      "Onya": 408,
      "too": 409,
      "Yuda": 410,
      "niriba": 411,
      "Onyankopɔn": 412,
      "ŋku": 413,
      "kyerɛɛ": 414,
      "ana": 415,
      "Eye": 416,
      "anyigba": 417,
      "lã": 418,
      "mía": 419,
      "tum": 420,
      "mɛ": 421,
      "dan": 422,
      "ɖeka": 423,
      "kum": 424,
      "chaŋ": 425,
      "gɔ": 426,
      "ge": 427,
      "ia": 428,
      "ɔde": 429,
      "akɔ": 430,
      "pam": 431,
      "afɔ": 432,
      "afi": 433,
      "rusa": 434,
      "rima": 435,
      "pɛ": 436,
      "nn": 437,
      "suhu": 438,
      "Ame": 439,
      "wòa": 440,
      "tam": 441,
      "sani": 442,
      "aho": 443,
      "twe": 444,
      "nyɔ": 445,
      "keke": 446,
      "bla": 447,
      "ala": 448,
      "Bɛ": 449,
      "kaa": 450,
      "ron": 451,
      "nvu": 452,
      "nom": 453,
      "nvuɣ": 454,
      "!.": 455,
      "aba": 456,
      "lim": 457,
      "Si": 458,
      "hiri": 459,
      "ɛfiri": 460,
      "kplɔ": 461,
      "ŋutsu": 462,
      "Le": 463,
      "dukɔ": 464,
      ";.": 465,
      "maŋ": 466,
      "nte": 467,
      "bin": 468,
      "sua": 469,
      "mfa": 470,
      "ƒu": 471,
      "sɛdeɛ": 472,
      "ete": 473,
      "asɛm": 474,
      "Nyankopɔn": 475,
      "adu": 476,
      "elabena": 477,
      "im": 478,
      "zra": 479,
      "bɔne": 480,
      "hyi": 481,
      "ria": 482,
      "abo": 483,
      "kaman": 484,
      "seɛ": 485,
      "eve": 486,
      "fie": 487,
      "liya": 488,
      "wɔde": 489,
      "aʋ": 490,
      "ɣa": 491,
      "zraɛl": 492,
      "gã": 493,
      "Izraɛl": 494,
      "hye": 495,
      "ninvuɣ": 496,
      "shɛb": 497,
      "srɔ̃": 498,
      "nkyɛn": 499,
      "eya": 500,
      "kuro": 501,
      "sẽ": 502,
      "bisi": 503,
      "lɔ̃": 504,
      "nima": 505,
      "an": 506,
      "Mose": 507,
      "uni": 508,
      "anaa": 509,
      "eŋu": 510,
      "lem": 511,
      "yɛɛ": 512,
      "kul": 513,
      "chi": 514,
      "ŋkɔ": 515,
      "am": 516,
      "tɛ": 517,
      "nsi": 518,
      "zali": 519,
      "ɣim": 520,
      "Yerusa": 521,
      "Yerusalem": 522,
      "adi": 523,
      "ili": 524,
      "shɛŋa": 525,
      "berɛ": 526,
      "akyi": 527,
      "ati": 528,
      "wɔwɔ": 529,
      "bihi": 530,
      "bubu": 531,
      "kɔɔ": 532,
      "in": 533,
      "Sɛ": 534,
      "kwan": 535,
      "min": 536,
      "ako": 537,
      "at": 538,
      "nee": 539,
      "nè": 540,
      "nnipa": 541,
      "aƒe": 542,
      "Ale": 543,
      "ʋu": 544,
      "ɔbɛ": 545,
      "siawo": 546,
      "ŋutɔ": 547,
      "ade": 548,
      "miya": 549,
      "pe": 550,
      "nyaa": 551,
      "dama": 552,
      "oni": 553,
      "ali": 554,
      "nto": 555,
      "wum": 556,
      "xe": 557,
      "lé": 558,
      "tumi": 559,
      "Be": 560,
      "nyɔnu": 561,
      "Nu": 562,
      "biri": 563,
      "mele": 564,
      "wid": 565,
      "Dawid": 566,
      "teƒe": 567,
      "nan": 568,
      "lia": 569,
      "amaa": 570,
      "tɔ̃": 571,
      "suo": 572,
      "nyui": 573,
      "dii": 574,
      "agbe": 575,
      "som": 576,
      "nʼ": 577,
      "ŋkeke": 578,
      "alo": 579,
      "gyi": 580,
      "kpi": 581,
      "Esi": 582,
      "ayi": 583,
      "bli": 584,
      "fofo": 585,
      "wɔbɛ": 586,
      "bee": 587,
      "fra": 588,
      "Jɛ": 589,
      "nkɔ": 590,
      "yɛl": 591,
      "ab": 592,
      "ris": 593,
      "ate": 594,
      "abu": 595,
      "kui": 596,
      "Se": 597,
      "Ba": 598,
      "firii": 599,
      "dwo": 600,
      "nà": 601,
      "mmo": 602,
      "doli": 603,
      "hwe": 604,
      "nta": 605,
      "zuliya": 606,
      "nne": 607,
      "trɔ": 608,
      "edzi": 609,
      "ɖokui": 610,
      "nia": 611,
      "mmu": 612,
      "ɣe": 613,
      "eme": 614,
      "lala": 615,
      "kɔkɔ": 616,
      "hal": 617,
      "aʋa": 618,
      "rigi": 619,
      "Yisa": 620,
      "ayɛ": 621,
      "Amaa": 622,
      "sara": 623,
      "tuu": 624,
      "bili": 625,
      "bahi": 626,
      "risto": 627,
      "aai": 628,
      "mmɔ": 629,
      "agya": 630,
      "mon": 631,
      "aka": 632,
      "Ela": 633,
      "Tete": 634,
      "ɔhene": 635,
      "zo": 636,
      "hee": 637,
      "polo": 638,
      "ɛyɛ": 639,
      "kɛ": 640,
      "gbi": 641,
      "subɔ": 642,
      "vɔsa": 643,
      "ee": 644,
      "baako": 645,
      "die": 646,
      "sii": 647,
      "Kristo": 648,
      "jɛm": 649,
      "Ti": 650,
      "yɛla": 651,
      "shi": 652,
      "mede": 653,
      "twa": 654,
      "miaƒe": 655,
      "dua": 656,
      "sim": 657,
      "lee": 658,
      "agb": 659,
      "sɔre": 660,
      "Ab": 661,
      "yaa": 662,
      "taa": 663,
      "sika": 664,
      "ki": 665,
      "hyia": 666,
      "míe": 667,
      "agba": 668,
      "nua": 669,
      "ahe": 670,
      "fam": 671,
      "kema": 672,
      "nyo": 673,
      "aɖeke": 674,
      "tee": 675,
      "tooi": 676,
      "faa": 677,
      "ɔso": 678,
      "ram": 679,
      "xa": 680,
      "Du": 681,
      "bɛyɛ": 682,
      "bɔŋɔ": 683,
      "maligu": 684,
      "fe": 685,
      "puuni": 686,
      "mba": 687,
      "Izraɛlnim": 688,
      "blibo": 689,
      "on": 690,
      "ada": 691,
      "enti": 692,
      "him": 693,
      "aseɛ": 694,
      "nie": 695,
      "nkwa": 696,
      "mmarima": 697,
      "mm": 698,
      "Wɔ": 699,
      ":.": 700,
      "shee": 701,
      "aha": 702,
      "nku": 703,
      "kpui": 704,
      "ɣiri": 705,
      "mpa": 706,
      "dom": 707,
      "hyɛɛ": 708,
      "fɔ": 709,
      "tiŋgbɔ": 710,
      "ewo": 711,
      "ɔyɛ": 712,
      "mani": 713,
      "akpe": 714,
      "nanso": 715,
      "den": 716,
      "yɛtɔ": 717,
      "tiŋgbɔŋ": 718,
      "vo": 719,
      "menye": 720,
      "barima": 721,
      "abɔ": 722,
      "Yɛ": 723,
      "nkron": 724,
      "nunɔ": 725,
      "mawu": 726,
      "frɛ": 727,
      "tuhi": 728,
      "mienu": 729,
      "tene": 730,
      "afiri": 731,
      "amesi": 732,
      "tan": 733,
      "He": 734,
      "megbe": 735,
      "afɔdeɛ": 736,
      "tia": 737,
      "tena": 738,
      "tre": 739,
      "hunuu": 740,
      "yiɣisi": 741,
      "ɣili": 742,
      "adeɛ": 743,
      "kuo": 744,
      "Eya": 745,
      "ren": 746,
      "awu": 747,
      "bio": 748,
      "pahi": 749,
      "wuma": 750,
      "ɔman": 751,
      "dim": 752,
      "bea": 753,
      "nsɛm": 754,
      "mmienu": 755,
      "ree": 756,
      "Ha": 757,
      "Nye": 758,
      "Gi": 759,
      "Fili": 760,
      "Yako": 761,
      "gblẽ": 762,
      "ʋɔ": 763,
      "nuwo": 764,
      "Din": 765,
      "ronkron": 766,
      "Dama": 767,
      "sɔfoɔ": 768,
      "Pa": 769,
      "Sau": 770,
      "ɛwɔ": 771,
      "bɔɔ": 772,
      "tuma": 773,
      "Enti": 774,
      "dodo": 775,
      "etɔ̃": 776,
      "baŋ": 777,
      "kyɛ": 778,
      "ekema": 779,
      "ligi": 780,
      "nɔvi": 781,
      "wui": 782,
      "teɛ": 783,
      "rim": 784,
      "duu": 785,
      "hia": 786,
      "kasa": 787,
      "amewo": 788,
      "gyina": 789,
      "kra": 790,
      "mmaa": 791,
      "kɛseɛ": 792,
      "tali": 793,
      "anɔ": 794,
      "ndi": 795,
      "onipa": 796,
      "So": 797,
      "dwe": 798,
      "Ŋu": 799,
      "dzɔdzɔ": 800,
      "rigu": 801,
      "ŋgɔ": 802,
      "mmara": 803,
      "ŋusẽ": 804,
      "woma": 805,
      "nyaaŋa": 806,
      "Egi": 807,
      "pte": 808,
      "Egipte": 809,
      "dali": 810,
      "mpo": 811,
      "see": 812,
      "Yakob": 813,
      "gbu": 814,
      "yei": 815,
      "kpo": 816,
      "wie": 817,
      "uma": 818,
      "mega": 819,
      "geɖe": 820,
      "Nanso": 821,
      "mp": 822,
      "ato": 823,
      "ɛnyɛ": 824,
      "higu": 825,
      "doo": 826,
      "zaligu": 827,
      "leei": 828,
      "ŋlɔ": 829,
      "yie": 830,
      "esime": 831,
      "hyeɛ": 832,
      "Ni": 833,
      "gbã": 834,
      "tim": 835,
      "Duuma": 836,
      "sane": 837,
      "enye": 838,
      "duru": 839,
      "wuhi": 840,
      "Filis": 841,
      "oa": 842,
      "salo": 843,
      "Misra": 844,
      "elabe": 845,
      "gari": 846,
      "kpli": 847,
      "esia": 848,
      "Misraim": 849,
      "kari": 850,
      "kuku": 851,
      "kɔkɔe": 852,
      "vɔ̃ɖi": 853,
      "Pe": 854,
      "sɔŋ": 855,
      "pii": 856,
      "kronkron": 857,
      "obiara": 858,
      "gɔme": 859,
      "jɛmbu": 860,
      "Ɛnna": 861,
      "nyigba": 862,
      "mfiri": 863,
      "Dauda": 864,
      "ɖoɖo": 865,
      "Israelfoɔ": 866,
      "yɛtɔɣa": 867,
      "nyam": 868,
      "dada": 869,
      "vid": 870,
      "David": 871,
      "yuli": 872,
      "ɖuɖu": 873,
      "ɔno": 874,
      "lae": 875,
      "piɛ": 876,
      "biɛri": 877,
      "tiri": 878,
      "boŋ": 879,
      "yini": 880,
      "bidi": 881,
      "twerɛ": 882,
      "dzime": 883,
      "Ɖe": 884,
      "Elabena": 885,
      "Yei": 886,
      "dziƒo": 887,
      "ham": 888,
      "Dinzuɣu": 889,
      "paai": 890,
      "mme": 891,
      "dɔla": 892,
      "buɣim": 893,
      "num": 894,
      "Filisti": 895,
      "aso": 896,
      "amesiwo": 897,
      "kana": 898,
      "ƒome": 899,
      "Af": 900,
      "kwa": 901,
      "paɣi": 902,
      "tooni": 903,
      "ts": 904,
      "dwa": 905,
      "usa": 906,
      "afɔre": 907,
      "risi": 908,
      "Afei": 909,
      "nuu": 910,
      "hichi": 911,
      "yome": 912,
      "anka": 913,
      "daŋ": 914,
      "maani": 915,
      "Jɔ": 916,
      "nsu": 917,
      "pono": 918,
      "Azɔ": 919,
      "dɔm": 920,
      "mmi": 921,
      "Abi": 922,
      "obi": 923,
      "nimaani": 924,
      "dometɔ": 925,
      "simdi": 926,
      "bɔri": 927,
      "wotsɔ": 928,
      "paɣ": 929,
      "raa": 930,
      "Asa": 931,
      "ata": 932,
      "wome": 933,
      "tin": 934,
      "ŋkume": 935,
      "ɔre": 936,
      "waa": 937,
      "aɖa": 938,
      "hwa": 939,
      "ahyɛ": 940,
      "yim": 941,
      "hafi": 942,
      "afa": 943,
      "kan": 944,
      "mʼ": 945,
      "nsam": 946,
      "pem": 947,
      "ntam": 948,
      "sɛe": 949,
      "yii": 950,
      "foforɔ": 951,
      "anan": 952,
      "hom": 953,
      "nsuo": 954,
      "ɖeke": 955,
      "nnim": 956,
      "wɔre": 957,
      "nyu": 958,
      "ban": 959,
      "lomo": 960,
      "anya": 961,
      "wʼ": 962,
      "tutu": 963,
      "ƒã": 964,
      "nana": 965,
      "ava": 966,
      "dea": 967,
      "ɔka": 968,
      "muo": 969,
      "xo": 970,
      "pun": 971,
      "dzoe": 972,
      "gake": 973,
      "dunia": 974,
      "maŋli": 975,
      "Juda": 976,
      "dam": 977,
      "bari": 978,
      "nene": 979,
      "muonyam": 980,
      "alafa": 981,
      "nunɔla": 982,
      "gblɔe": 983,
      "luɣ": 984,
      "dzidzɔ": 985,
      "Babi": 986,
      "Fia": 987,
      "vɛ": 988,
      "akoma": 989,
      "fɛ": 990,
      "asafo": 991,
      "didi": 992,
      "kia": 993,
      "ɛlli": 994,
      "sene": 995,
      "zaɣ": 996,
      "mere": 997,
      "ŋutsuwo": 998,
      "ɛberɛ": 999,
      "tumdi": 1000,
      "tse": 1001,
      "kae": 1002,
      "gban": 1003,
      "wode": 1004,
      "brɛ": 1005,
      "iɛ": 1006,
      "via": 1007,
      "wole": 1008,
      "adwuma": 1009,
      "kpɛ": 1010,
      "ane": 1011,
      "agu": 1012,
      "tua": 1013,
      "bindi": 1014,
      "nipa": 1015,
      "Musa": 1016,
      "ji": 1017,
      "kpakple": 1018,
      "nson": 1019,
      "bim": 1020,
      "lɛm": 1021,
      "nkyerɛ": 1022,
      "anom": 1023,
      "siane": 1024,
      "awɔ": 1025,
      "Yose": 1026,
      "dabi": 1027,
      "noli": 1028,
      "kom": 1029,
      "Eli": 1030,
      "mfo": 1031,
      "rusalɛm": 1032,
      "Jɛrusalɛm": 1033,
      "tɔb": 1034,
      "atɔ̃": 1035,
      "wain": 1036,
      "azɔ": 1037,
      "ɛtɔ": 1038,
      "tenenee": 1039,
      "tsrɔ̃": 1040,
      "dɛn": 1041,
      "Yosef": 1042,
      "nuvɔ̃": 1043,
      "míaƒe": 1044,
      "Saa": 1045,
      "wògblɔ": 1046,
      "nneɛ": 1047,
      "hwehwɛ": 1048,
      "soli": 1049,
      "nkuro": 1050,
      "agbo": 1051,
      "Abra": 1052,
      "kafu": 1053,
      "ʒiɛ": 1054,
      "tɔɣisi": 1055,
      "yihi": 1056,
      "Israelviwo": 1057,
      "drɔ̃": 1058,
      "biɛɣu": 1059,
      "abusua": 1060,
      "Hwɛ": 1061,
      "atam": 1062,
      "Kpɔ": 1063,
      "Abraham": 1064,
      "kasi": 1065,
      "gali": 1066,
      "uli": 1067,
      "niŋdi": 1068,
      "tsitre": 1069,
      "animuonyam": 1070,
      "ɔsoro": 1071,
      "ɛda": 1072,
      "dɔme": 1073,
      "bɔhi": 1074,
      "dzro": 1075,
      "wɔyɛ": 1076,
      "korɛ": 1077,
      "asom": 1078,
      "tiligi": 1079,
      "akpa": 1080,
      "beb": 1081,
      "dzidzime": 1082,
      "ele": 1083,
      "nt": 1084,
      "ɔwɔ": 1085,
      "yifoɔ": 1086,
      "nenema": 1087,
      "vie": 1088,
      "mle": 1089,
      "Wò": 1090,
      "Baa": 1091,
      "Za": 1092,
      "kuli": 1093,
      "sesẽ": 1094,
      "Zi": 1095,
      "yuri": 1096,
      "ol": 1097,
      "nini": 1098,
      "gãwo": 1099,
      "afe": 1100,
      "akpɔ": 1101,
      "susu": 1102,
      "nno": 1103,
      "akyiri": 1104,
      "aduane": 1105,
      "kpalim": 1106,
      "Iji": 1107,
      "pti": 1108,
      "nyuie": 1109,
      "Ijipti": 1110,
      "ɔma": 1111,
      "klo": 1112,
      "tete": 1113,
      "Deɛ": 1114,
      "ami": 1115,
      "naman": 1116,
      "nnie": 1117,
      "suro": 1118,
      "Salomo": 1119,
      "ntoma": 1120,
      "yino": 1121,
      "ɣli": 1122,
      "kauli": 1123,
      "mmom": 1124,
      "ɖɔ": 1125,
      "Mɛ": 1126,
      "nkum": 1127,
      "maana": 1128,
      "gyeɛ": 1129,
      "wowɔ": 1130,
      "gblɔm": 1131,
      "gbo": 1132,
      "mpɔ": 1133,
      "Lewi": 1134,
      "nuanom": 1135,
      "Wɔn": 1136,
      "nane": 1137,
      "alẽ": 1138,
      "pihi": 1139,
      "bali": 1140,
      "alesi": 1141,
      "yili": 1142,
      "ɛbɛ": 1143,
      "biɛhigu": 1144,
      "bisaa": 1145,
      "babarima": 1146,
      "sanna": 1147,
      "aduo": 1148,
      "Su": 1149,
      "nkurɔ": 1150,
      "mmoa": 1151,
      "laɣim": 1152,
      "ʋɔnu": 1153,
      "ʒe": 1154,
      "wònye": 1155,
      "lai": 1156,
      "ogya": 1157,
      "soro": 1158,
      "woɔ": 1159,
      "wobɛ": 1160,
      "neɛ": 1161,
      "kpamba": 1162,
      "nir": 1163,
      "amanaman": 1164,
      "hyira": 1165,
      "biŋkɔ": 1166,
      "ɔbaa": 1167,
      "eɖokui": 1168,
      "kyia": 1169,
      "Fara": 1170,
      "sisi": 1171,
      "gbetɔ": 1172,
      "mlekpui": 1173,
      "nanim": 1174,
      "mee": 1175,
      "bukyia": 1176,
      "bebree": 1177,
      "ŋunye": 1178,
      "Farao": 1179,
      "dzɔdzɔe": 1180,
      "èga": 1181,
      "hira": 1182,
      "deei": 1183,
      "woawo": 1184,
      "nokorɛ": 1185,
      "kɔsi": 1186,
      "pɔin": 1187,
      "kura": 1188,
      "bidibisi": 1189,
      "Pi": 1190,
      "dzu": 1191,
      "werɛ": 1192,
      "lɔlɔ̃": 1193,
      "nnua": 1194,
      "enu": 1195,
      "adre": 1196,
      "ɖeɖe": 1197,
      "wòle": 1198,
      "alahichi": 1199,
      "Re": 1200,
      "aku": 1201,
      "nyɛvi": 1202,
      "Fa": 1203,
      "ɛsɛ": 1204,
      "tsa": 1205,
      "mekpɔ": 1206,
      "Saulo": 1207,
      "afei": 1208,
      "zã": 1209,
      "vɔsamlekpui": 1210,
      "maga": 1211,
      "ake": 1212,
      "ŋmani": 1213,
      "yɛda": 1214,
      "tie": 1215,
      "fuo": 1216,
      "ŋga": 1217,
      "gbɔgbɔ": 1218,
      "Hi": 1219,
      "lima": 1220,
      "wuo": 1221,
      "dɔɣi": 1222,
      "ɛho": 1223,
      "hon": 1224,
      "mf": 1225,
      "dɛ": 1226,
      "fafa": 1227,
      "amu": 1228,
      "nsɛ": 1229,
      "tro": 1230,
      "ɔte": 1231,
      "Mí": 1232,
      "yiɣi": 1233,
      "suhuri": 1234,
      "ŋma": 1235,
      "ahu": 1236,
      "Mana": 1237,
      "Kɔ": 1238,
      "yere": 1239,
      "amea": 1240,
      "woo": 1241,
      "Yosua": 1242,
      "akyerɛ": 1243,
      "lɛ": 1244,
      "Ge": 1245,
      "daba": 1246,
      "yina": 1247,
      "afɔrebukyia": 1248,
      "atsɔ": 1249,
      "dukɔwo": 1250,
      "maŋmaŋ": 1251,
      "zuɣusaa": 1252,
      "boɔ": 1253,
      "dee": 1254,
      "mogya": 1255,
      "boa": 1256,
      "ilima": 1257,
      "korɔ": 1258,
      "paa": 1259,
      "nkurɔfoɔ": 1260,
      "ɔbarima": 1261,
      "dzra": 1262,
      "dzɔgbe": 1263,
      "baeɛ": 1264,
      "wɔm": 1265,
      "booni": 1266,
      "mpɔŋɔ": 1267,
      "yra": 1268,
      "tiŋgban": 1269,
      "jilima": 1270,
      "Masia": 1271,
      "Bi": 1272,
      "Saul": 1273,
      "Aa": 1274,
      "gbee": 1275,
      "alɔ": 1276,
      "tari": 1277,
      "Pau": 1278,
      "ɔne": 1279,
      "Mon": 1280,
      "kɔŋ": 1281,
      "Isa": 1282,
      "yuu": 1283,
      "labi": 1284,
      "zani": 1285,
      "Paulo": 1286,
      "piɛlli": 1287,
      "Asi": 1288,
      "ansa": 1289,
      "ze": 1290,
      "yewoa": 1291,
      "Aha": 1292,
      "kpu": 1293,
      "yoli": 1294,
      "nnwan": 1295,
      "buaa": 1296,
      "shɛlikam": 1297,
      "asɔfoɔ": 1298,
      "nli": 1299,
      "bɔbɔ": 1300,
      "ɛnsa": 1301,
      "zaɣisi": 1302,
      "zaŋdi": 1303,
      "bisili": 1304,
      "ɔden": 1305,
      "miri": 1306,
      "Tɔ": 1307,
      "Ze": 1308,
      "adan": 1309,
      "Ama": 1310,
      "Esia": 1311,
      "kpee": 1312,
      "Ao": 1313,
      "tahi": 1314,
      "mobɛ": 1315,
      "naan": 1316,
      "maligi": 1317,
      "mpanim": 1318,
      "Samu": 1319,
      "Bet": 1320,
      "sha": 1321,
      "bepɔ": 1322,
      "dina": 1323,
      "Ele": 1324,
      "guu": 1325,
      "ɖuƒe": 1326,
      "shɛl": 1327,
      "Mɔ": 1328,
      "yɛri": 1329,
      "nda": 1330,
      "gbeƒã": 1331,
      "yopɔin": 1332,
      "afia": 1333,
      "tire": 1334,
      "bɛma": 1335,
      "Sama": 1336,
      "veve": 1337,
      "mmra": 1338,
      "miawo": 1339,
      "Efra": 1340,
      "gyee": 1341,
      "nui": 1342,
      "taali": 1343,
      "nunya": 1344,
      "nnwa": 1345,
      "anin": 1346,
      "aman": 1347,
      "bere": 1348,
      "To": 1349,
      "gɔ̃": 1350,
      "dwoeɛ": 1351,
      "Ana": 1352,
      "pia": 1353,
      "Moab": 1354,
      "gbɔna": 1355,
      "bɛba": 1356,
      "hiã": 1357,
      "puhi": 1358,
      "bra": 1359,
      "asefoɔ": 1360,
      "xlẽ": 1361,
      "xexe": 1362,
      "Elabe": 1363,
      "atɔ": 1364,
      "srɛ": 1365,
      "aɖewo": 1366,
      "mmiɛnsa": 1367,
      "mewɔ": 1368,
      "nuɖuɖu": 1369,
      "adwe": 1370,
      "nuku": 1371,
      "ŋuwò": 1372,
      "mfeɛ": 1373,
      "abɛ": 1374,
      "Petro": 1375,
      "deɛn": 1376,
      "koko": 1377,
      "mate": 1378,
      "tɔbbihi": 1379,
      "geɖewo": 1380,
      "ŋmaligi": 1381,
      "twie": 1382,
      "mmɛ": 1383,
      "aga": 1384,
      "nahi": 1385,
      "aɖu": 1386,
      "wadeɛ": 1387,
      "Bɔ": 1388,
      "tenaa": 1389,
      "nyateƒe": 1390,
      "mana": 1391,
      "ran": 1392,
      "egbe": 1393,
      "barika": 1394,
      "yɛligu": 1395,
      "dzedze": 1396,
      "nyin": 1397,
      "frɛɛ": 1398,
      "agbalẽ": 1399,
      "serɛ": 1400,
      "tame": 1401,
      "menya": 1402,
      "suhupiɛlli": 1403,
      "dabiɛm": 1404,
      "anye": 1405,
      "Ku": 1406,
      "muyɛ": 1407,
      "keŋ": 1408,
      "gbedo": 1409,
      "Benya": 1410,
      "Chɛ": 1411,
      "mfi": 1412,
      "bini": 1413,
      "Aron": 1414,
      "lli": 1415,
      "boli": 1416,
      "ɔŋ": 1417,
      "ʒii": 1418,
      "gblɔɖi": 1419,
      "duruu": 1420,
      "safa": 1421,
      "yin": 1422,
      "kani": 1423,
      "rɔn": 1424,
      "gome": 1425,
      "ntie": 1426,
      "mpanimfoɔ": 1427,
      "puɣi": 1428,
      "vevie": 1429,
      "viɛ": 1430,
      "Aaron": 1431,
      "Yoha": 1432,
      "agbadɔ": 1433,
      "dza": 1434,
      "kɔbi": 1435,
      "kumsi": 1436,
      "Ɔhene": 1437,
      "zin": 1438,
      "Babilo": 1439,
      "honhom": 1440,
      "tiŋgbani": 1441,
      "gli": 1442,
      "nkoa": 1443,
      "ɣeyiɣi": 1444,
      "Ɛberɛ": 1445,
      "gbegbe": 1446,
      "tsɔe": 1447,
      "maaniba": 1448,
      "Benyamin": 1449,
      "natan": 1450,
      "gbedoxɔ": 1451,
      "dwetɛ": 1452,
      "gyaa": 1453,
      "kyere": 1454,
      "ɛno": 1455,
      "atɛn": 1456,
      "ɔkaa": 1457,
      "makɔ": 1458,
      "taba": 1459,
      "ɖiɖi": 1460,
      "dzudzɔ": 1461,
      "yuun": 1462,
      "Samaria": 1463,
      "nyawo": 1464,
      "wɔka": 1465,
      "atifi": 1466,
      "asɔre": 1467,
      "mmusua": 1468,
      "egbɔ": 1469,
      "mama": 1470,
      "wia": 1471,
      "kpɔkpɔ": 1472,
      "Yudafoɔ": 1473,
      "agble": 1474,
      "Asiria": 1475,
      "garigi": 1476,
      "gbugbɔ": 1477,
      "niŋgbu": 1478,
      "nyansa": 1479,
      "dodoɔ": 1480,
      "Vi": 1481,
      "sunsu": 1482,
      "dane": 1483,
      "seɖe": 1484,
      "bipuɣi": 1485,
      "Yaa": 1486,
      "gili": 1487,
      "dɔmedzoe": 1488,
      "nɔa": 1489,
      "hoɔ": 1490,
      "dol": 1491,
      "doɔ": 1492,
      "mmammarima": 1493,
      "pumpɔŋɔ": 1494,
      "aɖo": 1495,
      "sea": 1496,
      "kɔe": 1497,
      "Lɛ": 1498,
      "koe": 1499,
      "miele": 1500,
      "fiaɖuƒe": 1501,
      "kpekpe": 1502,
      "zɔri": 1503,
      "Ki": 1504,
      "Yudatɔwo": 1505,
      "vaseɖe": 1506,
      "asomdwoeɛ": 1507,
      "ch": 1508,
      "mfra": 1509,
      "wonye": 1510,
      "lab": 1511,
      "kali": 1512,
      "saɣi": 1513,
      "anabi": 1514,
      "Yor": 1515,
      "shiri": 1516,
      "tɔe": 1517,
      "ƒoƒo": 1518,
      "atia": 1519,
      "ngo": 1520,
      "ɔdi": 1521,
      "adwa": 1522,
      "chani": 1523,
      "yɛliya": 1524,
      "Yordan": 1525,
      "gbaai": 1526,
      "nyee": 1527,
      "yɛlimaŋli": 1528,
      "emu": 1529,
      "tsyɔ": 1530,
      "babla": 1531,
      "mina": 1532,
      "yiko": 1533,
      "lɔn": 1534,
      "ɛbɛyɛ": 1535,
      "klosalo": 1536,
      "noo": 1537,
      "doa": 1538,
      "ado": 1539,
      "naɣi": 1540,
      "beni": 1541,
      "wòwɔ": 1542,
      "nyɛvili": 1543,
      "ŋmanila": 1544,
      "aboa": 1545,
      "nnoɔma": 1546,
      "ninsa": 1547,
      "yeinom": 1548,
      "tuun": 1549,
      "salima": 1550,
      "sahakam": 1551,
      "mfoɔ": 1552,
      "xlã": 1553,
      "adɔ": 1554,
      "mita": 1555,
      "nusrɔ̃": 1556,
      "towo": 1557,
      "Fi": 1558,
      "sã": 1559,
      "lana": 1560,
      "siaa": 1561,
      "leti": 1562,
      "yaha": 1563,
      "ameha": 1564,
      "efie": 1565,
      "bisa": 1566,
      "alikauli": 1567,
      "Ɛfiri": 1568,
      "shɛɣu": 1569,
      "Yere": 1570,
      "hudi": 1571,
      "ɔfiri": 1572,
      "Gbɔ": 1573,
      "kpɔm": 1574,
      "abel": 1575,
      "maligumaaniba": 1576,
      "hwan": 1577,
      "dwane": 1578,
      "Ɛno": 1579,
      "kubu": 1580,
      "son": 1581,
      "koma": 1582,
      "tɔbu": 1583,
      "suafoɔ": 1584,
      "ahennie": 1585,
      "mpem": 1586,
      "Manase": 1587,
      "nyeme": 1588,
      "ntomadan": 1589,
      "home": 1590,
      "naba": 1591,
      "yom": 1592,
      "vovo": 1593,
      "fukumsi": 1594,
      "agyanom": 1595,
      "Yohane": 1596,
      "apam": 1597,
      "afu": 1598,
      "Ru": 1599,
      "wɔlawo": 1600,
      "suhi": 1601,
      "Baal": 1602,
      "ahyia": 1603,
      "vivi": 1604,
      "hena": 1605,
      "woɖo": 1606,
      "galisi": 1607,
      "aƒetɔ": 1608,
      "Yɛhudi": 1609,
      "ayopɔin": 1610,
      "ja": 1611,
      "laa": 1612,
      "sum": 1613,
      "biribiara": 1614,
      "nnɛ": 1615,
      "ɛkwan": 1616,
      "diri": 1617,
      "ɔha": 1618,
      "nunɔlawo": 1619,
      "sie": 1620,
      "nwoma": 1621,
      "pue": 1622,
      "lahi": 1623,
      "nyini": 1624,
      "hwam": 1625,
      "Babel": 1626,
      "lihi": 1627,
      "ŋutilã": 1628,
      "Go": 1629,
      "Samuel": 1630,
      "wɔte": 1631,
      "tinsi": 1632,
      "pali": 1633,
      "ware": 1634,
      "woatsɔ": 1635,
      "Gbɔgbɔ": 1636,
      "akyire": 1637,
      "ɛserɛ": 1638,
      "nyaan": 1639,
      "Yoab": 1640,
      "alibarika": 1641,
      "Gbe": 1642,
      "tab": 1643,
      "ameawo": 1644,
      "mahã": 1645,
      "woe": 1646,
      "naneke": 1647,
      "klu": 1648,
      "yam": 1649,
      "Ho": 1650,
      "bɛka": 1651,
      "xɔse": 1652,
      "kɔm": 1653,
      "Dzi": 1654,
      "ŋe": 1655,
      "nɔƒe": 1656,
      "binshɛɣu": 1657,
      "amumuyɛ": 1658,
      "nagya": 1659,
      "Ahi": 1660,
      "asra": 1661,
      "ɛdi": 1662,
      "evelia": 1663,
      "ɔsɔfoɔ": 1664,
      "sunsuuni": 1665,
      "nume": 1666,
      "wunti": 1667,
      "pala": 1668,
      "bɔh": 1669,
      "borɔ": 1670,
      "dɔlawo": 1671,
      "Amo": 1672,
      "hwee": 1673,
      "panin": 1674,
      "saria": 1675,
      "Sool": 1676,
      "mal": 1677,
      "wogblɔ": 1678,
      "wiase": 1679,
      "futɔwo": 1680,
      "Adu": 1681,
      "dabisili": 1682,
      "dimbɔŋɔ": 1683,
      "twaa": 1684,
      "woɖe": 1685,
      "nɛma": 1686,
      "dziku": 1687,
      "bela": 1688,
      "susɔ": 1689,
      "ɖase": 1690,
      "trɛ": 1691,
      "atwa": 1692,
      "dzidzimeviwo": 1693,
      "nhunu": 1694,
      "koraa": 1695,
      "anadwo": 1696,
      "yea": 1697,
      "nubabla": 1698,
      "saɣim": 1699,
      "ɖem": 1700,
      "Ko": 1701,
      "kpɔe": 1702,
      "Edom": 1703,
      "some": 1704,
      "fiawo": 1705,
      "mlɔ": 1706,
      "lead": 1707,
      "esie": 1708,
      "eteƒe": 1709,
      "salom": 1710,
      "mese": 1711,
      "oo": 1712,
      "paɣa": 1713,
      "ahemfo": 1714,
      "nanɔ": 1715,
      "kyiri": 1716,
      "aʋakɔ": 1717,
      "wɔla": 1718,
      "yɛm": 1719,
      "binyɛ": 1720,
      "padeɛ": 1721,
      "Babilonia": 1722,
      "nani": 1723,
      "darigi": 1724,
      "wɔne": 1725,
      "ɣleti": 1726,
      "sinɔ": 1727,
      "xɔe": 1728,
      "nnye": 1729,
      "Absalom": 1730,
      "diyifoɔ": 1731,
      "nyɔri": 1732,
      "Isak": 1733,
      "Yaakubu": 1734,
      "bala": 1735,
      "binshɛɣukam": 1736,
      "vlo": 1737,
      "amegã": 1738,
      "bubuwo": 1739,
      "foro": 1740,
      "bɔfoɔ": 1741,
      "nɔewo": 1742,
      "dini": 1743,
      "kaka": 1744,
      "nyɔnuwo": 1745,
      "soma": 1746,
      "nyagblɔɖi": 1747,
      "yaannim": 1748,
      "Lewifoɔ": 1749,
      "yiŋ": 1750,
      "reba": 1751,
      "asaɖa": 1752,
      "kpam": 1753,
      "Ada": 1754,
      "nhyia": 1755,
      "nyae": 1756,
      "kesinɔ": 1757,
      "wɔmfa": 1758,
      "asie": 1759,
      "Adɛn": 1760,
      "viŋutsu": 1761,
      "kpiɔŋ": 1762,
      "nnɔ": 1763,
      "mavɔ": 1764,
      "metsi": 1765,
      "loo": 1766,
      "ʒini": 1767,
      "blanui": 1768,
      "atu": 1769,
      "nnom": 1770,
      "meɖo": 1771,
      "kɔbisi": 1772,
      "wòe": 1773,
      "toa": 1774,
      "Ninvuɣ": 1775,
      "non": 1776,
      "baanu": 1777,
      "Miga": 1778,
      "aban": 1779,
      "gbui": 1780,
      "wòtsɔ": 1781,
      "kpaŋ": 1782,
      "adwene": 1783,
      "yila": 1784,
      "tɔ́": 1785,
      "toto": 1786,
      "naai": 1787,
      "Kanaan": 1788,
      "yɛtɔɣ": 1789,
      "Fo": 1790,
      "maligumaana": 1791,
      "ɔhyeɛ": 1792,
      "miga": 1793,
      "ntu": 1794,
      "nsra": 1795,
      "nyina": 1796,
      "ahodoɔ": 1797,
      "akwan": 1798,
      "abolo": 1799,
      "Agya": 1800,
      "Po": 1801,
      "tɔgbui": 1802,
      "nusi": 1803,
      "ʋe": 1804,
      "nɔnɔ": 1805,
      "tibili": 1806,
      "mawɔ": 1807,
      "wɔna": 1808,
      "dia": 1809,
      "honam": 1810,
      "ŋutifafa": 1811,
      "abusuakuo": 1812,
      "pɛpɛ": 1813,
      "Emegbe": 1814,
      "hin": 1815,
      "tegbee": 1816,
      "teeku": 1817,
      "Yu": 1818,
      "wula": 1819,
      "dzeƒe": 1820,
      "moa": 1821,
      "viŋutsuwo": 1822,
      "kane": 1823,
      "dabili": 1824,
      "Levi": 1825,
      "paɣiba": 1826,
      "pirigi": 1827,
      "anaasɛ": 1828,
      "ntɛm": 1829,
      "nyaandoli": 1830,
      "ɛhɔ": 1831,
      "amenu": 1832,
      "tuum": 1833,
      "hwɛfoɔ": 1834,
      "nkaeɛ": 1835,
      "Gilead": 1836,
      "yɛra": 1837,
      "bal": 1838,
      "as": 1839,
      "nublanui": 1840,
      "amegbetɔ": 1841,
      "Lɛvi": 1842,
      "avɔ": 1843,
      "Onipa": 1844,
      "wuna": 1845,
      "bindirigu": 1846,
      "aduonu": 1847,
      "duwo": 1848,
      "wuwu": 1849,
      "pinaa": 1850,
      "dimnim": 1851,
      "daɣiri": 1852,
      "kpuɣi": 1853,
      "gbahi": 1854,
      "mɔɣu": 1855,
      "metsɔ": 1856,
      "Yɛhudianim": 1857,
      "zuŋɔ": 1858,
      "gbana": 1859,
      "nyaandoliba": 1860,
      "ɔyɛɛ": 1861,
      "ɛpo": 1862,
      "hyehyɛ": 1863,
      "ahoɔden": 1864,
      "kɔŋko": 1865,
      "pah": 1866,
      "lãwo": 1867,
      "mpaeɛ": 1868,
      "Bɛn": 1869,
      "dwi": 1870,
      "momfa": 1871,
      "goe": 1872,
      "Ekema": 1873,
      "asu": 1874,
      "wom": 1875,
      "wɔfiri": 1876,
      "babaa": 1877,
      "afima": 1878,
      "Efraim": 1879,
      "pɔnkɔ": 1880,
      "bene": 1881,
      "nteɛ": 1882,
      "ntwe": 1883,
      "bobe": 1884,
      "nnya": 1885,
      "atemmu": 1886,
      "nsia": 1887,
      "wodo": 1888,
      "Hɛ": 1889,
      "oi": 1890,
      "aboɔ": 1891,
      "sokam": 1892,
      "gbalẽ": 1893,
      "gyidie": 1894,
      "wɔkɔ": 1895,
      "wòna": 1896,
      "Yonatan": 1897,
      "Gake": 1898,
      "abi": 1899,
      "woawɔ": 1900,
      "Filistifoɔ": 1901,
      "Zaŋ": 1902,
      "manɔ": 1903,
      "tabili": 1904,
      "kplɔla": 1905,
      "xoxo": 1906,
      "bil": 1907,
      "ŋdi": 1908,
      "rila": 1909,
      "guli": 1910,
      "mbɔŋɔ": 1911,
      "yɔbu": 1912,
      "ɔse": 1913,
      "wuhiri": 1914,
      "laika": 1915,
      "bua": 1916,
      "dɔni": 1917,
      "sabi": 1918,
      "shɛba": 1919,
      "Elisa": 1920,
      "Mèga": 1921,
      "mli": 1922,
      "ŋutikɔkɔe": 1923,
      "shu": 1924,
      "lon": 1925,
      "Wu": 1926,
      "liŋga": 1927,
      "wɛn": 1928,
      "tariga": 1929,
      "Eƒe": 1930,
      "xi": 1931,
      "nkyɛ": 1932,
      "mabihi": 1933,
      "aye": 1934,
      "nina": 1935,
      "koa": 1936,
      "nyaŋ": 1937,
      "ɛnneɛ": 1938,
      "ɔbo": 1939,
      "tihi": 1940,
      "kɔsii": 1941,
      "mode": 1942,
      "hala": 1943,
      "tsetse": 1944,
      "Amon": 1945,
      "kpɔa": 1946,
      "kplii": 1947,
      "tɔsisi": 1948,
      "suŋ": 1949,
      "viawo": 1950,
      "hwie": 1951,
      "san": 1952,
      "Yero": 1953,
      "mɛma": 1954,
      "mè": 1955,
      "dzidze": 1956,
      "funu": 1957,
      "biŋkɔbiri": 1958,
      "dari": 1959,
      "meɖe": 1960,
      "agyapadeɛ": 1961,
      "viɛla": 1962,
      "Li": 1963,
      "malaika": 1964,
      "atso": 1965,
      "apono": 1966,
      "ble": 1967,
      "meli": 1968,
      "wurim": 1969,
      "wòɖe": 1970,
      "kyeree": 1971,
      "Aduna": 1972,
      "binshɛli": 1973,
      "avi": 1974,
      "ƒewo": 1975,
      "xɔxɔ": 1976,
      "wieeɛ": 1977,
      "nusrɔ̃lawo": 1978,
      "matsɔ": 1979,
      "mɔn": 1980,
      "niŋgbuŋ": 1981,
      "dab": 1982,
      "wɔdi": 1983,
      "gbɔnye": 1984,
      "gbãtɔ": 1985,
      "asoɔ": 1986,
      "tiŋa": 1987,
      "xɔa": 1988,
      "bimbini": 1989,
      "zinfa": 1990,
      "Shɛ": 1991,
      "Hon": 1992,
      "zar": 1993,
      "ŋugbe": 1994,
      "ɛre": 1995,
      "nunana": 1996,
      "ses": 1997,
      "daala": 1998,
      "niŋbu": 1999,
      "ɖam": 2000,
      "Gali": 2001,
      "fũ": 2002,
      "amegãwo": 2003,
      "bɔnefoɔ": 2004,
      "meka": 2005,
      "Sime": 2006,
      "Fofo": 2007,
      "mete": 2008,
      "ŋunkam": 2009,
      "mmepɔ": 2010,
      "ligu": 2011,
      "amenuveve": 2012,
      "rẽ": 2013,
      "vinye": 2014,
      "baabi": 2015,
      "ɣedzeƒe": 2016,
      "Honhom": 2017,
      "bon": 2018,
      "Ŋun": 2019,
      "ɔkɔ": 2020,
      "nnan": 2021,
      "ntene": 2022,
      "bisim": 2023,
      "Filistitɔwo": 2024,
      "kad": 2025,
      "sɔɣi": 2026,
      "atamfoɔ": 2027,
      "jɛ": 2028,
      "Ɛnyɛ": 2029,
      "rɔbɔ": 2030,
      "Dimbɔŋɔ": 2031,
      "Daa": 2032,
      "yuŋ": 2033,
      "neei": 2034,
      "wɔtwe": 2035,
      "siaɖam": 2036,
      "aseɛnam": 2037,
      "Eyata": 2038,
      "ankasa": 2039,
      "daalahichi": 2040,
      "Bala": 2041,
      "luhi": 2042,
      "adaka": 2043,
      "legba": 2044,
      "afɔrebɔ": 2045,
      "kalinli": 2046,
      "Ar": 2047,
      "Te": 2048,
      "somaa": 2049,
      "boam": 2050,
      "woŋlɔ": 2051,
      "kunkum": 2052,
      "ot": 2053,
      "nuɖu": 2054,
      "ser": 2055,
      "fira": 2056,
      "viɛnyɛ": 2057,
      "tɛhi": 2058,
      "anyame": 2059,
      "viɛnyɛliŋga": 2060,
      "adrẽ": 2061,
      "adiyifoɔ": 2062,
      "nifa": 2063,
      "yurilim": 2064,
      "adze": 2065,
      "Babilɔn": 2066,
      "yɛfoɔ": 2067,
      "Mele": 2068,
      "Esa": 2069,
      "nyitsu": 2070,
      "pueeɛ": 2071,
      "ŋme": 2072,
      "megblɔ": 2073,
      "sese": 2074,
      "nɔvia": 2075,
      "ehe": 2076,
      "gbaa": 2077,
      "sab": 2078,
      "vɔvɔ̃": 2079,
      "tsotso": 2080,
      "fɔn": 2081,
      "yɔn": 2082,
      "bukad": 2083,
      "godo": 2084,
      "binshɛŋa": 2085,
      "mèga": 2086,
      "kahi": 2087,
      "zanda": 2088,
      "Yeinom": 2089,
      "tasiaɖam": 2090,
      "amane": 2091,
      "Zɛ": 2092,
      "ntadeɛ": 2093,
      "Ta": 2094,
      "ntena": 2095,
      "eveawo": 2096,
      "dwom": 2097,
      "Zo": 2098,
      "ɛso": 2099,
      "gyinaa": 2100,
      "atena": 2101,
      "hlɔ̃": 2102,
      "sapa": 2103,
      "tumfoɔ": 2104,
      "Hwan": 2105,
      "ɛpono": 2106,
      "wòdo": 2107,
      "anzinfa": 2108,
      "pini": 2109,
      "godoo": 2110,
      "dwene": 2111,
      "maɖe": 2112,
      "wòɖo": 2113,
      "ʒiri": 2114,
      "mene": 2115,
      "zikpui": 2116,
      "wòanye": 2117,
      "ĩe": 2118,
      "bɛdi": 2119,
      "ŋukpe": 2120,
      "zim": 2121,
      "ʒim": 2122,
      "gbini": 2123,
      "Shia": 2124,
      "gbɔn": 2125,
      "duno": 2126,
      "mmammaa": 2127,
      "ŋkuwo": 2128,
      "abufuo": 2129,
      "nneɛma": 2130,
      "Siria": 2131,
      "egblɔ": 2132,
      "turo": 2133,
      "nèle": 2134,
      "make": 2135,
      "zaŋla": 2136,
      "tsã": 2137,
      "linim": 2138,
      "kplɔe": 2139,
      "zoya": 2140,
      "ɣla": 2141,
      "ɔmaa": 2142,
      "mewo": 2143,
      "fasuo": 2144,
      "fofoa": 2145,
      "sesĩe": 2146,
      "nuhi": 2147,
      "anigyeɛ": 2148,
      "bɛsi": 2149,
      "gbeme": 2150,
      "Esau": 2151,
      "nnu": 2152,
      "dirigu": 2153,
      "wore": 2154,
      "Sule": 2155,
      "wɔɣi": 2156,
      "wɔnni": 2157,
      "ʋakɔ": 2158,
      "maŋa": 2159,
      "difoɔ": 2160,
      "Yisi": 2161,
      "Sulemaana": 2162,
      "amma": 2163,
      "mam": 2164,
      "nambɔ": 2165,
      "nten": 2166,
      "asɔredan": 2167,
      "dindina": 2168,
      "biae": 2169,
      "Nɛ": 2170,
      "adzɔ": 2171,
      "ŋɔdzi": 2172,
      "Egblɔ": 2173,
      "glã": 2174,
      "wova": 2175,
      "ɖewo": 2176,
      "yadeɛ": 2177,
      "nyari": 2178,
      "sɔfo": 2179,
      "ɖoƒe": 2180,
      "Mma": 2181,
      "enyi": 2182,
      "dunɔ": 2183,
      "Dan": 2184,
      "ŋgu": 2185,
      "nuteƒe": 2186,
      "zaani": 2187,
      "tiŋgbɔn": 2188,
      "eyae": 2189,
      "xaxa": 2190,
      "nhyɛ": 2191,
      "tibi": 2192,
      "yuma": 2193,
      "nsraban": 2194,
      "kyekyere": 2195,
      "Sɛdeɛ": 2196,
      "manya": 2197,
      "kora": 2198,
      "Wɔde": 2199,
      "nnum": 2200,
      "syɔ": 2201,
      "Ɛli": 2202,
      "woyɔ": 2203,
      "La": 2204,
      "tom": 2205,
      "alizanda": 2206,
      "Yɛli": 2207,
      "adanseɛ": 2208,
      "rantɛ": 2209,
      "ɖevi": 2210,
      "kuru": 2211,
      "afã": 2212,
      "Yeremia": 2213,
      "ak": 2214,
      "kumm": 2215,
      "anantwie": 2216,
      "brɛɛ": 2217,
      "Míe": 2218,
      "nudirigu": 2219,
      "dɔɔso": 2220,
      "nkrantɛ": 2221,
      "alea": 2222,
      "ɛne": 2223,
      "dana": 2224,
      "kɔkɔɔ": 2225,
      "pɔri": 2226,
      "akyɛ": 2227,
      "wɔe": 2228,
      "vɔ̃e": 2229,
      "wani": 2230,
      "meyɛ": 2231,
      "tiwo": 2232,
      "himma": 2233,
      "enyenye": 2234,
      "Ibra": 2235,
      "mayɛ": 2236,
      "Kasi": 2237,
      "domenyi": 2238,
      "biribi": 2239,
      "Ibrahimma": 2240,
      "ɖaa": 2241,
      "biɛla": 2242,
      "Heb": 2243,
      "yɔnko": 2244,
      "ben": 2245,
      "Woa": 2246,
      "tae": 2247,
      "gbibi": 2248,
      "yeye": 2249,
      "Yisifu": 2250,
      "ʋĩ": 2251,
      "vinyɔnu": 2252,
      "vɔ̃wo": 2253,
      "Pu": 2254,
      "nɔlawo": 2255,
      "Elia": 2256,
      "rilim": 2257,
      "vɔ̃ɖiwo": 2258,
      "wanim": 2259,
      "laɣi": 2260,
      "pisi": 2261,
      "sɛɛ": 2262,
      "nyanya": 2263,
      "hɔhoɔ": 2264,
      "aboyo": 2265,
      "jɛmdi": 2266,
      "apo": 2267,
      "ɔdii": 2268,
      "gbɔ̃": 2269,
      "Bee": 2270,
      "tuumbiɛri": 2271,
      "apueeɛ": 2272,
      "gble": 2273,
      "amedzro": 2274,
      "balibu": 2275,
      "chu": 2276,
      "tenabea": 2277,
      "yiŋa": 2278,
      "luʋɔ": 2279,
      "ntɔ": 2280,
      "tsia": 2281,
      "kakra": 2282,
      "Mɔɣili": 2283,
      "anu": 2284,
      "wɔfrɛ": 2285,
      "likauli": 2286,
      "koto": 2287,
      "hame": 2288,
      "rekɔ": 2289,
      "gale": 2290,
      "Nɔ": 2291,
      "Ɛdeɛn": 2292,
      "mena": 2293,
      "shɛhira": 2294,
      "awoɔ": 2295,
      "Hal": 2296,
      "Xi": 2297,
      "etɔ": 2298,
      "ɔsom": 2299,
      "dɔwɔwɔ": 2300,
      "bosome": 2301,
      "Mede": 2302,
      "ɔtɔ": 2303,
      "yiri": 2304,
      "kunu": 2305,
      "moyɛ": 2306,
      "Miri": 2307,
      "tɔɣisiri": 2308,
      "ʋakɔwo": 2309,
      "Mie": 2310,
      "ɖekakpui": 2311,
      "Do": 2312,
      "Maa": 2313,
      "vã": 2314,
      "ɖee": 2315,
      "Midi": 2316,
      "suhudoo": 2317,
      "alakpa": 2318,
      "xexea": 2319,
      "shua": 2320,
      "Gad": 2321,
      "Ɣe": 2322,
      "gbɔgblɔm": 2323,
      "mmɔborɔ": 2324,
      "Adaka": 2325,
      "blɔ": 2326,
      "buɣa": 2327,
      "Afi": 2328,
      "asɛ": 2329,
      "gbɛ": 2330,
      "wòva": 2331,
      "dzesi": 2332,
      "Nyama": 2333,
      "Is": 2334,
      "Ɛyɛ": 2335,
      "name": 2336,
      "mekɔ": 2337,
      "kuri": 2338,
      "tedzi": 2339,
      "teei": 2340,
      "hyiaa": 2341,
      "Izraɛlnima": 2342,
      "safat": 2343,
      "bbihi": 2344,
      "lĩ": 2345,
      "wowu": 2346,
      "dzikpɔ": 2347,
      "hawo": 2348,
      "hann": 2349,
      "mɔri": 2350,
      "Mani": 2351,
      "asuafoɔ": 2352,
      "owuo": 2353,
      "nai": 2354,
      "titali": 2355,
      "Lala": 2356,
      "bba": 2357,
      "ɔmfa": 2358,
      "ɛfa": 2359,
      "srɔ̃a": 2360,
      "biga": 2361,
      "momma": 2362,
      "nammɔn": 2363,
      "avu": 2364,
      "agye": 2365,
      "ʋã": 2366,
      "wònɔ": 2367,
      "tuo": 2368,
      "atsyɔ": 2369,
      "Amori": 2370,
      "ŋkɔe": 2371,
      "Ɔno": 2372,
      "wahala": 2373,
      "ɖoa": 2374,
      "sapashi": 2375,
      "ɛte": 2376,
      "tula": 2377,
      "ƒoa": 2378,
      "nnwuma": 2379,
      "ʋuʋu": 2380,
      "lam": 2381,
      "wunta": 2382,
      "papa": 2383,
      "aduasa": 2384,
      "bipuɣiŋga": 2385,
      "Fira": 2386,
      "Ruben": 2387,
      "wokpɔ": 2388,
      "kyire": 2389,
      "Bia": 2390,
      "etsɔ": 2391,
      "ɔdɔ": 2392,
      "dede": 2393,
      "je": 2394,
      "sei": 2395,
      "rentumi": 2396,
      "anɔpa": 2397,
      "Firawuna": 2398,
      "ɔba": 2399,
      "woyɛ": 2400,
      "suɣili": 2401,
      "dzinye": 2402,
      "viɛlli": 2403,
      "ƒom": 2404,
      "akɔsi": 2405,
      "As": 2406,
      "adom": 2407,
      "ninni": 2408,
      "nafoɔ": 2409,
      "koɔ": 2410,
      "ebi": 2411,
      "kim": 2412,
      "gbaŋ": 2413,
      "Mika": 2414,
      "Farisi": 2415,
      "Nso": 2416,
      "ɔsa": 2417,
      "rika": 2418,
      "zahim": 2419,
      "Nyee": 2420,
      "aɖaŋu": 2421,
      "viviti": 2422,
      "agblɔ": 2423,
      "eŋuti": 2424,
      "ngu": 2425,
      "nusiwo": 2426,
      "fiazikpui": 2427,
      "nsase": 2428,
      "fofowo": 2429,
      "mom": 2430,
      "aseye": 2431,
      "Tɔbbihi": 2432,
      "Obiara": 2433,
      "woyi": 2434,
      "monn": 2435,
      "malila": 2436,
      "akɛseɛ": 2437,
      "yuya": 2438,
      "abɔfoɔ": 2439,
      "Judanim": 2440,
      "El": 2441,
      "nanye": 2442,
      "nenye": 2443,
      "mawo": 2444,
      "ɣis": 2445,
      "Midian": 2446,
      "Yɛn": 2447,
      "ŋgo": 2448,
      "yɛbɛ": 2449,
      "yinim": 2450,
      "dinzuɣu": 2451,
      "viwò": 2452,
      "nkɔm": 2453,
      "mmerɛ": 2454,
      "aduonum": 2455,
      "apɔnkɔ": 2456,
      "bae": 2457,
      "atsia": 2458,
      "ɖokuiwò": 2459,
      "mpe": 2460,
      "nwi": 2461,
      "manim": 2462,
      "soa": 2463,
      "ɔnni": 2464,
      "dzea": 2465,
      "wɔatwerɛ": 2466,
      "ahyɛdeɛ": 2467,
      "atsiaƒu": 2468,
      "afo": 2469,
      "dwiri": 2470,
      "tsitsi": 2471,
      "Jɛhɔ": 2472,
      "kiya": 2473,
      "dzɔdzɔenyenye": 2474,
      "mfirinhyia": 2475,
      "Dziƒo": 2476,
      "Pool": 2477,
      "tra": 2478,
      "kuɣa": 2479,
      "gbegblẽ": 2480,
      "Yinim": 2481,
      "klẽ": 2482,
      "tiaa": 2483,
      "ɖea": 2484,
      "nkyerɛnneɛ": 2485,
      "Zion": 2486,
      "ɛkɔm": 2487,
      "basafa": 2488,
      "pɔmma": 2489,
      "Damas": 2490,
      "Ŋutsu": 2491,
      "kronkronbea": 2492,
      "fũu": 2493,
      "Wɔbɛ": 2494,
      "ƒle": 2495,
      "negbe": 2496,
      "Man": 2497,
      "puu": 2498,
      "agyina": 2499,
      "Ɔde": 2500,
      "ɛnam": 2501,
      "Sion": 2502,
      "ɔko": 2503,
      "woaɖe": 2504,
      "nantwie": 2505,
      "yewo": 2506,
      "hindi": 2507,
      "Ara": 2508,
      "Eɖo": 2509,
      "Ilai": 2510,
      "Tso": 2511,
      "makpɔ": 2512,
      "nyame": 2513,
      "sɔɔ": 2514,
      "chɛliya": 2515,
      "nsɛnkyerɛnneɛ": 2516,
      "il": 2517,
      "liri": 2518,
      "tata": 2519,
      "tututu": 2520,
      "axɔ": 2521,
      "Galile": 2522,
      "Ai": 2523,
      "ɔda": 2524,
      "titi": 2525,
      "Wotsɔ": 2526,
      "Bu": 2527,
      "afoɔ": 2528,
      "nsane": 2529,
      "Xe": 2530,
      "ania": 2531,
      "bahigu": 2532,
      "mframa": 2533,
      "ŋuni": 2534,
      "yare": 2535,
      "tai": 2536,
      "tadeɛ": 2537,
      "Aram": 2538,
      "pete": 2539,
      "Nebukad": 2540,
      "gbeƒãɖe": 2541,
      "Nebukadne": 2542,
      "nnini": 2543,
      "kuropɔn": 2544,
      "Lɛvinim": 2545,
      "tulaale": 2546,
      "mayi": 2547,
      "mabia": 2548,
      "fifia": 2549,
      "bometsi": 2550,
      "nkye": 2551,
      "muɣisi": 2552,
      "míele": 2553,
      "puhili": 2554,
      "wuntaŋ": 2555,
      "akplɔ": 2556,
      "kaeɛ": 2557,
      "liƒo": 2558,
      "tuumba": 2559,
      "Ri": 2560,
      "hyɛn": 2561,
      "naŋ": 2562,
      "gbɔwò": 2563,
      "nimdeɛ": 2564,
      "limpuhili": 2565,
      "nkwagyeɛ": 2566,
      "ɖoɖowo": 2567,
      "suhuyiɣisi": 2568,
      "Nene": 2569,
      "nhyira": 2570,
      "zɛ": 2571,
      "taŋ": 2572,
      "ntoato": 2573,
      "kɔbiga": 2574,
      "nyaɣisi": 2575,
      "azu": 2576,
      "aƒo": 2577,
      "ntwa": 2578,
      "labisi": 2579,
      "bina": 2580,
      "hat": 2581,
      "pae": 2582,
      "dɔbba": 2583,
      "Jɔshua": 2584,
      "toma": 2585,
      "pɛɛ": 2586,
      "nteaseɛnam": 2587,
      "suhuyiɣisili": 2588,
      "menɔ": 2589,
      "ɛnnɛ": 2590,
      "anahi": 2591,
      "Jɛri": 2592,
      "gbinni": 2593,
      "Ŋuna": 2594,
      "Nnipa": 2595,
      "nnyina": 2596,
      "ranteɛ": 2597,
      "sɛeɛ": 2598,
      "monyɛ": 2599,
      "akoa": 2600,
      "kilo": 2601,
      "Yohanes": 2602,
      "merɛ": 2603,
      "ŋari": 2604,
      "mmɔbɔ": 2605,
      "ntoatoasoɔ": 2606,
      "Abe": 2607,
      "nava": 2608,
      "kalẽ": 2609,
      "kete": 2610,
      "rɔbɔro": 2611,
      "Otumfoɔ": 2612,
      "ahunu": 2613,
      "awerɛ": 2614,
      "dahe": 2615,
      "likpo": 2616,
      "tii": 2617,
      "Woƒe": 2618,
      "hwɛɛ": 2619,
      "dwuma": 2620,
      "bɛto": 2621,
      "zal": 2622,
      "domenyinu": 2623,
      "Bo": 2624,
      "fiẽ": 2625,
      "gbib": 2626,
      "Hada": 2627,
      "naani": 2628,
      "takɔbi": 2629,
      "zia": 2630,
      "Naf": 2631,
      "kem": 2632,
      "afie": 2633,
      "nnwe": 2634,
      "bɛkɔ": 2635,
      "pinaayi": 2636,
      "anammɔn": 2637,
      "hwi": 2638,
      "ɛdeɛn": 2639,
      "gbeɖe": 2640,
      "hem": 2641,
      "faako": 2642,
      "afɔrebɔdeɛ": 2643,
      "Tsɔ": 2644,
      "wulimpuhili": 2645,
      "kekeli": 2646,
      "akodɔm": 2647,
      "Yeri": 2648,
      "kyerɛkyerɛ": 2649,
      "fena": 2650,
      "naga": 2651,
      "nante": 2652,
      "dum": 2653,
      "dummienu": 2654,
      "ɛsiane": 2655,
      "nuzaa": 2656,
      "kuhi": 2657,
      "wadi": 2658,
      "vodada": 2659,
      "zaligunim": 2660,
      "mmusuakuo": 2661,
      "Etsɔ": 2662,
      "tefoɔ": 2663,
      "akɔbli": 2664,
      "kɔkɔeƒe": 2665,
      "dzɔgbevɔ̃e": 2666,
      "Nenema": 2667,
      "Momma": 2668,
      "nsim": 2669,
      "owia": 2670,
      "dibu": 2671,
      "nyenye": 2672,
      "Yehu": 2673,
      "ɔhyɛɛ": 2674,
      "kpɛm": 2675,
      "dzodzro": 2676,
      "mmɔne": 2677,
      "Anabi": 2678,
      "atsi": 2679,
      "Ɛda": 2680,
      "laan": 2681,
      "medi": 2682,
      "kɔbere": 2683,
      "gbagbe": 2684,
      "kpɛhi": 2685,
      "kanna": 2686,
      "taɣi": 2687,
      "bol": 2688,
      "piɛri": 2689,
      "medze": 2690,
      "dok": 2691,
      "Yehowae": 2692,
      "Naftali": 2693,
      "nunkum": 2694,
      "mɛyɛ": 2695,
      "Amesi": 2696,
      "tɛha": 2697,
      "ntan": 2698,
      "nsɔ": 2699,
      "dahin": 2700,
      "yomyom": 2701,
      "nasara": 2702,
      "dzinu": 2703,
      "woɖu": 2704,
      "wòkpɔ": 2705,
      "Mina": 2706,
      "Sam": 2707,
      "Pita": 2708,
      "hehe": 2709,
      "keŋkeŋ": 2710,
      "De": 2711,
      "Seba": 2712,
      "emegbe": 2713,
      "Tu": 2714,
      "aɖi": 2715,
      "adzo": 2716,
      "basa": 2717,
      "mununkum": 2718,
      "awieeɛ": 2719,
      "kukuwo": 2720,
      "Galilea": 2721,
      "buɣisi": 2722,
      "wòatsɔ": 2723,
      "zoli": 2724,
      "akyirikyiri": 2725,
      "atemmuo": 2726,
      "kunkumm": 2727,
      "Kronkron": 2728,
      "sí": 2729,
      "nira": 2730,
      "wɔkaa": 2731,
      "Ahab": 2732,
      "Yeroboam": 2733,
      "Yɛlimaŋli": 2734,
      "tsiwo": 2735,
      "ɛyɛɛ": 2736,
      "nano": 2737,
      "wotso": 2738,
      "kaba": 2739,
      "bɛbɔ": 2740,
      "ŋmɛ": 2741,
      "wonɔ": 2742,
      "tiɣi": 2743,
      "gbɔe": 2744,
      "anafoɔ": 2745,
      "Abimele": 2746,
      "ananmu": 2747,
      "biŋkɔb": 2748,
      "enumake": 2749,
      "bereɛ": 2750,
      "Hu": 2751,
      "sewo": 2752,
      "míawo": 2753,
      "Menye": 2754,
      "ziba": 2755,
      "esiwo": 2756,
      "mot": 2757,
      "naanyi": 2758,
      "chana": 2759,
      "shili": 2760,
      "kpɛma": 2761,
      "nambɔɣu": 2762,
      "asiwò": 2763,
      "chiri": 2764,
      "omaŋmaŋ": 2765,
      "ɔnam": 2766,
      "liɣiri": 2767,
      "wòde": 2768,
      "Ro": 2769,
      "kar": 2770,
      "homa": 2771,
      "koli": 2772,
      "dziwò": 2773,
      "kyɛfa": 2774,
      "nhwɛ": 2775,
      "ɛdan": 2776,
      "siesie": 2777,
      "more": 2778,
      "Zu": 2779,
      "wɔhunuu": 2780,
      "tinim": 2781,
      "yɛeɛ": 2782,
      "rubi": 2783,
      "Nenye": 2784,
      "eyata": 2785,
      "Pila": 2786,
      "ŋuta": 2787,
      "ablɔ": 2788,
      "nyuri": 2789,
      "Shi": 2790,
      "ner": 2791,
      "Mere": 2792,
      "Pilato": 2793,
      "bɔrɔbɔro": 2794,
      "duro": 2795,
      "gui": 2796,
      "woanɔ": 2797,
      "esim": 2798,
      "yubu": 2799,
      "ŋgɔgbe": 2800,
      "Filistianim": 2801,
      "Kɔkɔe": 2802,
      "kpẽ": 2803,
      "hegblɔ": 2804,
      "ŋɔli": 2805,
      "ɖaka": 2806,
      "ŋkekewo": 2807,
      "ninsalinim": 2808,
      "aƒu": 2809,
      "natsɔ": 2810,
      "konyi": 2811,
      "tuhiri": 2812,
      "akyiwadeɛ": 2813,
      "wummerɛ": 2814,
      "bindira": 2815,
      "ob": 2816,
      "abɔfra": 2817,
      "amesiame": 2818,
      "tinzu": 2819,
      "ntumi": 2820,
      "ɔhunuu": 2821,
      "madzɔ": 2822,
      "banon": 2823,
      "fom": 2824,
      "mmapɔmma": 2825,
      "bipuɣinsi": 2826,
      "odiyifoɔ": 2827,
      "wodze": 2828,
      "toɔ": 2829,
      "vɔe": 2830,
      "sikakɔkɔɔ": 2831,
      "Hese": 2832,
      "asrafo": 2833,
      "Dani": 2834,
      "Sara": 2835,
      "egblɔm": 2836,
      "yɛdeɛ": 2837,
      "don": 2838,
      "sɔwo": 2839,
      "kamfo": 2840,
      "tumtumdi": 2841,
      "ɔbɔfoɔ": 2842,
      "Kal": 2843,
      "asan": 2844,
      "Nuka": 2845,
      "shihi": 2846,
      "Abram": 2847,
      "atsyɔ̃": 2848,
      "Va": 2849,
      "maka": 2850,
      "nuvɔ̃ɖi": 2851,
      "teaa": 2852,
      "gal": 2853,
      "ŋutsuvi": 2854,
      "anyɛ": 2855,
      "wɔnam": 2856,
      "wòzu": 2857,
      "mmrɛ": 2858,
      "bila": 2859,
      "sue": 2860,
      "hele": 2861,
      "kpeeni": 2862,
      "wuntizɔ": 2863,
      "Ami": 2864,
      "pɛn": 2865,
      "tri": 2866,
      "ɔhyɛ": 2867,
      "wɔyɛɛ": 2868,
      "wòdze": 2869,
      "wòaɖe": 2870,
      "ɖom": 2871,
      "nkonim": 2872,
      "fraeɛ": 2873,
      "mmɔn": 2874,
      "paanoo": 2875,
      "gbaag": 2876,
      "Dɔ": 2877,
      "meta": 2878,
      "nɔla": 2879,
      "sradeɛ": 2880,
      "ʒiishee": 2881,
      "boro": 2882,
      "Gblɔ": 2883,
      "kplɔ̃": 2884,
      "neesim": 2885,
      "dzata": 2886,
      "ŋuna": 2887,
      "kɔeɛ": 2888,
      "aʋatso": 2889,
      "tahima": 2890,
      "mfrafraeɛ": 2891,
      "Hesekia": 2892,
      "Ra": 2893,
      "egɔme": 2894,
      "adɛn": 2895,
      "adidi": 2896,
      "jamin": 2897,
      "omaŋ": 2898,
      "bibi": 2899,
      "kee": 2900,
      "mpae": 2901,
      "amanehunu": 2902,
      "Ga": 2903,
      "eyome": 2904,
      "boo": 2905,
      "gbɔdzɔ": 2906,
      "nnima": 2907,
      "twam": 2908,
      "Abner": 2909,
      "nɔviawo": 2910,
      "mamlɛ": 2911,
      "Es": 2912,
      "esiawo": 2913,
      "kai": 2914,
      "bɛhyɛ": 2915,
      "wuh": 2916,
      "daadam": 2917,
      "chɛbu": 2918,
      "Alo": 2919,
      "ɔseɛ": 2920,
      "gbedzi": 2921,
      "Amegbetɔ": 2922,
      "ahoni": 2923,
      "anwummerɛ": 2924,
      "ʋɔnudrɔ̃": 2925,
      "adɔeɛ": 2926,
      "nyagblɔɖila": 2927,
      "anuanom": 2928,
      "ɔsee": 2929,
      "ɔdɛn": 2930,
      "Jɔɔdɛn": 2931,
      "kafukafu": 2932,
      "nnommu": 2933,
      "makɔmakɔ": 2934,
      "Bɛnjamin": 2935,
      "ɔpɛ": 2936,
      "nuawo": 2937,
      "Simon": 2938,
      "mawuwo": 2939,
      "wuiɛ": 2940,
      "sapashin": 2941,
      "Sei": 2942,
      "dwan": 2943,
      "nwan": 2944,
      "wayɛ": 2945,
      "vevi": 2946,
      "laannim": 2947,
      "ɔfasuo": 2948,
      "ʋẽ": 2949,
      "naɣ": 2950,
      "wein": 2951,
      "ŋubi": 2952,
      "wala": 2953,
      "awia": 2954,
      "monni": 2955,
      "asinye": 2956,
      "fuhyeɛ": 2957,
      "etɔ̃lia": 2958,
      "pirigili": 2959,
      "asubɔ": 2960,
      "wɔdii": 2961,
      "wɔayɛ": 2962,
      "birigi": 2963,
      "Mɔab": 2964,
      "metso": 2965,
      "lɔ̃a": 2966,
      "hyiaeɛ": 2967,
      "teneneeni": 2968,
      "Hiob": 2969,
      "ɔyii": 2970,
      "ɛbaa": 2971,
      "maɖi": 2972,
      "kara": 2973,
      "wiram": 2974,
      "sɛn": 2975,
      "kɔn": 2976,
      "buu": 2977,
      "mman": 2978,
      "Momfa": 2979,
      "Dina": 2980,
      "Kee": 2981,
      "blaetɔ̃": 2982,
      "nneyɛɛ": 2983,
      "subɔsubɔ": 2984,
      "Gɛ": 2985,
      "nachi": 2986,
      "wokɔ": 2987,
      "bem": 2988,
      "nyara": 2989,
      "toawo": 2990,
      "akaɖi": 2991,
      "Hero": 2992,
      "duli": 2993,
      "ɖua": 2994,
      "womaga": 2995,
      "Gaa": 2996,
      "maɖo": 2997,
      "tɔɔ": 2998,
      "atitire": 2999,
      "bubuawo": 3000,
      "Egiptetɔwo": 3001,
      "kariti": 3002,
      "hlẽ": 3003,
      "wɔnyɛ": 3004,
      "mufoɔ": 3005,
      "keka": 3006,
      "kyeeɛ": 3007,
      "fiasã": 3008,
      "wanwadeɛ": 3009,
      "asɛmpa": 3010,
      "taafi": 3011,
      "nɔviwò": 3012,
      "Kaldea": 3013,
      "Bete": 3014,
      "haa": 3015,
      "nwo": 3016,
      "buo": 3017,
      "gbetɔwo": 3018,
      "Maria": 3019,
      "dwoo": 3020,
      "ɖokuinye": 3021,
      "gɛ": 3022,
      "nwɔtwe": 3023,
      "mael": 3024,
      "medo": 3025,
      "noa": 3026,
      "nuwɔna": 3027,
      "sefoɔ": 3028,
      "kpahi": 3029,
      "wòanɔ": 3030,
      "aduhwam": 3031,
      "Bar": 3032,
      "kplim": 3033,
      "ɖum": 3034,
      "zɔzɔ": 3035,
      "tumbu": 3036,
      "alahi": 3037,
      "awufoɔ": 3038,
      "Asafo": 3039,
      "tɔ́a": 3040,
      "Asɛm": 3041,
      "aglã": 3042,
      "suhigu": 3043,
      "wama": 3044,
      "heyi": 3045,
      "Yudahene": 3046,
      "nèwɔ": 3047,
      "bɛfiri": 3048,
      "tane": 3049,
      "gar": 3050,
      "ahoho": 3051,
      "ƒomevi": 3052,
      "Efrayim": 3053,
      "Damasko": 3054,
      "alɔ̃": 3055,
      "dɔn": 3056,
      "des": 3057,
      "bɛtena": 3058,
      "Tiro": 3059,
      "pihinu": 3060,
      "wona": 3061,
      "liba": 3062,
      "sar": 3063,
      "tɔn": 3064,
      "robɛn": 3065,
      "nyuitɔ": 3066,
      "mmaako": 3067,
      "chuɣu": 3068,
      "alahiziba": 3069,
      "Am": 3070,
      "Basan": 3071,
      "No": 3072,
      "ɔnyɛ": 3073,
      "wote": 3074,
      "litaafi": 3075,
      "vavã": 3076,
      "piligi": 3077,
      "asomfoɔ": 3078,
      "asuo": 3079,
      "ɛka": 3080,
      "mehunuu": 3081,
      "adane": 3082,
      "mawudɔla": 3083,
      "Gide": 3084,
      "Ŋuti": 3085,
      "Zoli": 3086,
      "Betel": 3087,
      "Nyɔ": 3088,
      "yera": 3089,
      "Yesa": 3090,
      "ɖoe": 3091,
      "chɛchɛbu": 3092,
      "ahasi": 3093,
      "afunu": 3094,
      "ɔgye": 3095,
      "sera": 3096,
      "wagya": 3097,
      "mote": 3098,
      "ampa": 3099,
      "hiafoɔ": 3100,
      "Mene": 3101,
      "riga": 3102,
      "bel": 3103,
      "Yehosafat": 3104,
      "Yoas": 3105,
      "zichi": 3106,
      "Niriba": 3107,
      "ɔsomfoɔ": 3108,
      "nnam": 3109,
      "sur": 3110,
      "lolo": 3111,
      "Woawo": 3112,
      "xexlẽ": 3113,
      "binyɛra": 3114,
      "apem": 3115,
      "mà": 3116,
      "ɔbɔɔ": 3117,
      "ninku": 3118,
      "kuɣ": 3119,
      "ter": 3120,
      "Mega": 3121,
      "bidibiga": 3122,
      "Ismael": 3123,
      "robɛnto": 3124,
      "glo": 3125,
      "fiaɖuɖu": 3126,
      "ɛnna": 3127,
      "mmɛn": 3128,
      "Laban": 3129,
      "awɛ": 3130,
      "wɔkɔɔ": 3131,
      "kɔka": 3132,
      "nyema": 3133,
      "tugbi": 3134,
      "gudu": 3135,
      "kyea": 3136,
      "aduanan": 3137,
      "nènye": 3138,
      "If": 3139,
      "riim": 3140,
      "palo": 3141,
      "afii": 3142,
      "twene": 3143,
      "Sinai": 3144,
      "kplɔlawo": 3145,
      "diiɛ": 3146,
      "shia": 3147,
      "paɣiri": 3148,
      "hekpe": 3149,
      "atadeɛ": 3150,
      "ahurisi": 3151,
      "vovovo": 3152,
      "legbawo": 3153,
      "Hana": 3154,
      "mna": 3155,
      "mya": 3156,
      "nyã": 3157,
      "dasoɔ": 3158,
      "sase": 3159,
      "dindali": 3160,
      "mɔwo": 3161,
      "ɣeto": 3162,
      "ansarisi": 3163,
      "Ifriim": 3164,
      "Lu": 3165,
      "tru": 3166,
      "miawɔ": 3167,
      "akofena": 3168,
      "zer": 3169,
      "Simeon": 3170,
      "Daadam": 3171,
      "ɛseɛ": 3172,
      "lihiri": 3173,
      "wòyi": 3174,
      "wòana": 3175,
      "adie": 3176,
      "yerenom": 3177,
      "Togbɔ": 3178,
      "Rama": 3179,
      "Ɛsɛ": 3180,
      "busi": 3181,
      "blave": 3182,
      "atsrɔ̃": 3183,
      "mfu": 3184,
      "buni": 3185,
      "lãnyi": 3186,
      "Lebanon": 3187,
      "hyerɛ": 3188,
      "atorɔ": 3189,
      "nɔnɔme": 3190,
      "Balak": 3191,
      "esum": 3192,
      "ɔkwan": 3193,
      "wodzi": 3194,
      "ŋui": 3195,
      "buchi": 3196,
      "doya": 3197,
      "gbedodo": 3198,
      "pɔhim": 3199,
      "Nhyira": 3200,
      "nirilim": 3201,
      "bunu": 3202,
      "gaxɔ": 3203,
      "puri": 3204,
      "nubablaɖaka": 3205,
      "Eliya": 3206,
      "ayu": 3207,
      "wɔbɔ": 3208,
      "rea": 3209,
      "Yehoia": 3210,
      "alé": 3211,
      "jaa": 3212,
      "Ŋuni": 3213,
      "magya": 3214,
      "wɔbɔɔ": 3215,
      "sorɔn": 3216,
      "kutsetse": 3217,
      "fat": 3218,
      "dɔdɔ": 3219,
      "vamli": 3220,
      "futɔ": 3221,
      "wɔadi": 3222,
      "awuwo": 3223,
      "pihinahi": 3224,
      "Axi": 3225,
      "sisii": 3226,
      "duhi": 3227,
      "vuri": 3228,
      "léa": 3229,
      "ŋkekenyui": 3230,
      "agbã": 3231,
      "naɣila": 3232,
      "ɣetoɖoƒe": 3233,
      "mpɛ": 3234,
      "ɔbaako": 3235,
      "daeɛ": 3236,
      "ahohia": 3237,
      "Bɛti": 3238,
      "leeg": 3239,
      "gbolo": 3240,
      "guliba": 3241,
      "fɔntinsi": 3242,
      "bii": 3243,
      "wòga": 3244,
      "amegbetɔwo": 3245,
      "yɔdo": 3246,
      "nyagblɔɖilawo": 3247,
      "bonhwa": 3248,
      "Gili": 3249,
      "ŋmaŋ": 3250,
      "lisi": 3251,
      "reɛ": 3252,
      "anomu": 3253,
      "nyoo": 3254,
      "rennya": 3255,
      "Tɔ́": 3256,
      "ŋariŋ": 3257,
      "Noa": 3258,
      "gram": 3259,
      "ɛkan": 3260,
      "megãwo": 3261,
      "hiŋ": 3262,
      "viɛl": 3263,
      "piligu": 3264,
      "Sema": 3265,
      "atɔeɛ": 3266,
      "tɔgbuiwo": 3267,
      "kahigi": 3268,
      "ɛma": 3269,
      "hima": 3270,
      "dziɖu": 3271,
      "tsoƒe": 3272,
      "ɖokuiwo": 3273,
      "ɔsomaa": 3274,
      "Tee": 3275,
      "meva": 3276,
      "zan": 3277,
      "zuɣuri": 3278,
      "woate": 3279,
      "sɔree": 3280,
      "asafohene": 3281,
      "nkyerɛkyerɛ": 3282,
      "luɣili": 3283,
      "míenye": 3284,
      "baŋsim": 3285,
      "afahyɛ": 3286,
      "dabisa": 3287,
      "homeda": 3288,
      "maƒo": 3289,
      "memaa": 3290,
      "situ": 3291,
      "takɔ": 3292,
      "bom": 3293,
      "tamfoɔ": 3294,
      "blaatɔ̃": 3295,
      "dukɔa": 3296,
      "nnebɔne": 3297,
      "mmua": 3298,
      "ʒiɛmani": 3299,
      "ahurisie": 3300,
      "abɔnefoɔ": 3301,
      "sai": 3302,
      "sanyoo": 3303,
      "soya": 3304,
      "bɛgye": 3305,
      "gbɔgblɔ": 3306,
      "hyee": 3307,
      "ntoto": 3308,
      "asoma": 3309,
      "pihita": 3310,
      "Ŋunkam": 3311,
      "Xa": 3312,
      "rili": 3313,
      "nuwɔwɔ": 3314,
      "hoo": 3315,
      "nkoto": 3316,
      "xɔname": 3317,
      "miewɔ": 3318,
      "kesinɔnuwo": 3319,
      "Miriya": 3320,
      "Vu": 3321,
      "owu": 3322,
      "fan": 3323,
      "zuɣulaannim": 3324,
      "ankɔ": 3325,
      "Eyae": 3326,
      "megale": 3327,
      "Wòe": 3328,
      "ahyiaeɛ": 3329,
      "woɖi": 3330,
      "togbɛ": 3331,
      "imba": 3332,
      "aƒeme": 3333,
      "subɔlawo": 3334,
      "nwe": 3335,
      "ɔfaa": 3336,
      "mahyɛ": 3337,
      "daanya": 3338,
      "dzidzi": 3339,
      "woaɖu": 3340,
      "zibisim": 3341,
      "Dukɔ": 3342,
      "Betle": 3343,
      "anabitali": 3344,
      "ninsal": 3345,
      "Keenan": 3346,
      "Dabisili": 3347,
      "ahoa": 3348,
      "ahennwa": 3349,
      "nse": 3350,
      "dadeɛ": 3351,
      "beon": 3352,
      "seawo": 3353,
      "guo": 3354,
      "labina": 3355,
      "suhir": 3356,
      "Jɔn": 3357,
      "trɔ̃": 3358,
      "binyara": 3359,
      "nuwuwu": 3360,
      "twinini": 3361,
      "dura": 3362,
      "kyekyeree": 3363,
      "ɖusi": 3364,
      "Daniel": 3365,
      "tumtumdiba": 3366,
      "Esiawo": 3367,
      "mianɔ": 3368,
      "mɔkpɔkpɔ": 3369,
      "afee": 3370,
      "yuuni": 3371,
      "atrɔ": 3372,
      "dolila": 3373,
      "ʋɔtru": 3374,
      "aɖaka": 3375,
      "adzɔgbe": 3376,
      "nnaa": 3377,
      "ƒè": 3378,
      "tibisim": 3379,
      "twitwa": 3380,
      "fiã": 3381,
      "suma": 3382,
      "bulon": 3383,
      "asene": 3384,
      "wuieve": 3385,
      "twerɛfoɔ": 3386,
      "Zeba": 3387,
      "awerɛhoɔ": 3388,
      "edze": 3389,
      "xɛ": 3390,
      "yɛde": 3391,
      "naasa": 3392,
      "Manaasa": 3393,
      "fiala": 3394,
      "nkɛseɛ": 3395,
      "alẽwo": 3396,
      "Anyigba": 3397,
      "xlɔ̃": 3398,
      "siɣi": 3399,
      "liŋ": 3400,
      "tizɔ": 3401,
      "safo": 3402,
      "bɔn": 3403,
      "nɔviwo": 3404,
      "Solomo": 3405,
      "Ijiptinim": 3406,
      "pisinaa": 3407,
      "Ena": 3408,
      "Ewɔ": 3409,
      "eta": 3410,
      "mabu": 3411,
      "kpla": 3412,
      "zaŋm": 3413,
      "anwanwadeɛ": 3414,
      "nuvɔ̃wo": 3415,
      "Amale": 3416,
      "srɛɛ": 3417,
      "mfini": 3418,
      "chirigi": 3419,
      "gbedodoɖa": 3420,
      "Ɔsɔfoɔ": 3421,
      "naho": 3422,
      "hini": 3423,
      "mono": 3424,
      "lɔƒo": 3425,
      "Haman": 3426,
      "agbɔ": 3427,
      "ɛnan": 3428,
      "woƒo": 3429,
      "anidasoɔ": 3430,
      "hommɔne": 3431,
      "piri": 3432,
      "vuhim": 3433,
      "afisi": 3434,
      "denden": 3435,
      "mfimfini": 3436,
      "kuruwa": 3437,
      "Gideon": 3438,
      "nsã": 3439,
      "wose": 3440,
      "siee": 3441,
      "ɖetugbi": 3442,
      "bɛtumi": 3443,
      "kɔbili": 3444,
      "tuui": 3445,
      "yuui": 3446,
      "mmirika": 3447,
      "Jɛrimia": 3448,
      "Esiane": 3449,
      "Odiyifoɔ": 3450,
      "Xɔ": 3451,
      "nakoma": 3452,
      "lin": 3453,
      "liga": 3454,
      "tirim": 3455,
      "giram": 3456,
      "bɛnkam": 3457,
      "ayɛyɛdeɛ": 3458,
      "mpanin": 3459,
      "agakpe": 3460,
      "Chɛliya": 3461,
      "danee": 3462,
      "bigu": 3463,
      "tɔa": 3464,
      "wakoa": 3465,
      "vudo": 3466,
      "kɔkɔewo": 3467,
      "tuhili": 3468,
      "kpuɣ": 3469,
      "titina": 3470,
      "Ɛdom": 3471,
      "nyà": 3472,
      "bɛdii": 3473,
      "suli": 3474,
      "huhu": 3475,
      "Nunɔla": 3476,
      "Jɔab": 3477,
      "afasuo": 3478,
      "klugui": 3479,
      "numevɔsa": 3480,
      "prɛ": 3481,
      "riti": 3482,
      "rari": 3483,
      "yaɣ": 3484,
      "koro": 3485,
      "togbɔ": 3486,
      "fiefoɔ": 3487,
      "kɛse": 3488,
      "agbagba": 3489,
      "abɔklugui": 3490,
      "anabinim": 3491,
      "dimbɔŋɔnim": 3492,
      "akyɛdeɛ": 3493,
      "mpɔn": 3494,
      "yayra": 3495,
      "has": 3496,
      "nsom": 3497,
      "baabiara": 3498,
      "Yisaha": 3499,
      "renhunu": 3500,
      "Ziɔn": 3501,
      "dzikpɔla": 3502,
      "Yisahaku": 3503,
      "Ðe": 3504,
      "kata": 3505,
      "samli": 3506,
      "diba": 3507,
      "sɛee": 3508,
      "yaɣi": 3509,
      "duri": 3510,
      "asraafoɔ": 3511,
      "Ampa": 3512,
      "Pɛ": 3513,
      "ewiase": 3514,
      "sre": 3515,
      "ura": 3516,
      "wɔse": 3517,
      "bat": 3518,
      "bara": 3519,
      "maame": 3520,
      "busu": 3521,
      "mɔnu": 3522,
      "Hebri": 3523,
      "Asɔre": 3524,
      "tɔʋu": 3525,
      "kyerɛfoɔ": 3526,
      "nuɖusi": 3527,
      "Sela": 3528,
      "axa": 3529,
      "blu": 3530,
      "nɔn": 3531,
      "Amen": 3532,
      "ɔson": 3533,
      "wiem": 3534,
      "ɔhaw": 3535,
      "funumu": 3536,
      "wuntizɔriba": 3537,
      "ebia": 3538,
      "nwu": 3539,
      "mahe": 3540,
      "woso": 3541,
      "dzre": 3542,
      "tana": 3543,
      "nyane": 3544,
      "rebɛ": 3545,
      "niŋla": 3546,
      "Dabi": 3547,
      "dzɔlawo": 3548,
      "mfasoɔ": 3549,
      "nètsɔ": 3550,
      "nʼani": 3551,
      "seesei": 3552,
      "Yeremya": 3553,
      "Ɛhɔ": 3554,
      "yerɛ": 3555,
      "guui": 3556,
      "firila": 3557,
      "woava": 3558,
      "fiae": 3559,
      "léle": 3560,
      "Reho": 3561,
      "ahuhu": 3562,
      "ʋeʋẽ": 3563,
      "gbeƒãɖela": 3564,
      "ahi": 3565,
      "mano": 3566,
      "woka": 3567,
      "tinta": 3568,
      "komm": 3569,
      "bue": 3570,
      "Mikpɔ": 3571,
      "Woɖo": 3572,
      "miekpɔ": 3573,
      "ahonya": 3574,
      "kplɔm": 3575,
      "alilikpo": 3576,
      "wuhibu": 3577,
      "ketewa": 3578,
      "Abimelek": 3579,
      "hyerɛn": 3580,
      "Abia": 3581,
      "enum": 3582,
      "sto": 3583,
      "ɔkɔɔ": 3584,
      "dzĩ": 3585,
      "ŋub": 3586,
      "enelia": 3587,
      "chandi": 3588,
      "kpiimba": 3589,
      "Gibea": 3590,
      "nwanwa": 3591,
      "tega": 3592,
      "bolo": 3593,
      "Kar": 3594,
      "nkra": 3595,
      "anyiehe": 3596,
      "gooni": 3597,
      "nkae": 3598,
      "Sodom": 3599,
      "wɔɣilim": 3600,
      "ahohora": 3601,
      "Asɔredan": 3602,
      "Ax": 3603,
      "ɔtoo": 3604,
      "ɔwoo": 3605,
      "lita": 3606,
      "were": 3607,
      "tegbe": 3608,
      "Gil": 3609,
      "mprɛ": 3610,
      "nananom": 3611,
      "tiliginsim": 3612,
      "afena": 3613,
      "twɛn": 3614,
      "magblɔ": 3615,
      "meda": 3616,
      "wòtso": 3617,
      "bobɔ": 3618,
      "ɔbɛtumi": 3619,
      "asɔ": 3620,
      "mmma": 3621,
      "dabisi": 3622,
      "wɔtete": 3623,
      "wuame": 3624,
      "tɔxɛ": 3625,
      "suhiri": 3626,
      "xɔlɔ̃": 3627,
      "ɔbɛyɛ": 3628,
      "ɛbɛba": 3629,
      "lahibal": 3630,
      "apa": 3631,
      "ntaa": 3632,
      "dola": 3633,
      "gahi": 3634,
      "dɔeɛ": 3635,
      "nnanson": 3636,
      "ɖoɖoe": 3637,
      "kokoko": 3638,
      "Tsi": 3639,
      "ave": 3640,
      "woda": 3641,
      "bed": 3642,
      "yiyi": 3643,
      "dihi": 3644,
      "tahiri": 3645,
      "gyata": 3646,
      "Nyamiya": 3647,
      "lãme": 3648,
      "blaeve": 3649,
      "hwehwɛɛ": 3650,
      "Ado": 3651,
      "asɔfo": 3652,
      "chee": 3653,
      "hɔn": 3654,
      "pene": 3655,
      "wea": 3656,
      "amena": 3657,
      "dunoli": 3658,
      "woana": 3659,
      "Yudatɔ": 3660,
      "adegbe": 3661,
      "nnomaa": 3662,
      "Samuɛl": 3663,
      "woyɔna": 3664,
      "nol": 3665,
      "sorɔ": 3666,
      "nusiawo": 3667,
      "baɣa": 3668,
      "woakpɔ": 3669,
      "lɔlɔ̃nu": 3670,
      "nnompe": 3671,
      "Yudea": 3672,
      "Balaam": 3673,
      "Ata": 3674,
      "Ahe": 3675,
      "anni": 3676,
      "abɛn": 3677,
      "nuka": 3678,
      "bɛmaŋmaŋ": 3679,
      "akofoɔ": 3680,
      "nʼagya": 3681,
      "ahem": 3682,
      "kpoxɔ": 3683,
      "ɛba": 3684,
      "woga": 3685,
      "res": 3686,
      "alaafee": 3687,
      "atene": 3688,
      "Yɛlim": 3689,
      "afuo": 3690,
      "numeme": 3691,
      "Hɛzɛ": 3692,
      "Hɛzɛkia": 3693,
      "ptai": 3694,
      "wokplɔ": 3695,
      "bemi": 3696,
      "dɔdrɔ̃": 3697,
      "kyera": 3698,
      "tiŋkpa": 3699,
      "mmɔfra": 3700,
      "subɔla": 3701,
      "piɛla": 3702,
      "asieke": 3703,
      "nyaɣisim": 3704,
      "ahemfie": 3705,
      "edo": 3706,
      "sizu": 3707,
      "leam": 3708,
      "sɔɣ": 3709,
      "gbedada": 3710,
      "woawu": 3711,
      "lum": 3712,
      "ahon": 3713,
      "aduɔson": 3714,
      "eyama": 3715,
      "Fiagã": 3716,
      "Bileam": 3717,
      "sizuura": 3718,
      "asɛe": 3719,
      "pra": 3720,
      "Ɖo": 3721,
      "mava": 3722,
      "tiawo": 3723,
      "bie": 3724,
      "dziehe": 3725,
      "kataa": 3726,
      "amat": 3727,
      "twee": 3728,
      "nʼanim": 3729,
      "dolibu": 3730,
      "gɔmesese": 3731,
      "mfom": 3732,
      "Nyini": 3733,
      "Ntoma": 3734,
      "ekpɔ": 3735,
      "yeƒe": 3736,
      "ʒiɛm": 3737,
      "gbogbo": 3738,
      "kluvi": 3739,
      "afoforɔ": 3740,
      "klɔ": 3741,
      "dilan": 3742,
      "ŋutrɔ": 3743,
      "kɔsɔ": 3744,
      "hoho": 3745,
      "ten": 3746,
      "dziɖuɖu": 3747,
      "vin": 3748,
      "rot": 3749,
      "mando": 3750,
      "asane": 3751,
      "fukpekpe": 3752,
      "sesẽwo": 3753,
      "niŋgbuna": 3754,
      "Hebron": 3755,
      "Farisifoɔ": 3756,
      "xexlẽme": 3757,
      "Via": 3758,
      "aware": 3759,
      "esa": 3760,
      "evɔ": 3761,
      "odwan": 3762,
      "ɔpa": 3763,
      "ɖeɖi": 3764,
      "bɛhunu": 3765,
      "Wole": 3766,
      "asiba": 3767,
      "Hes": 3768,
      "pahir": 3769,
      "mmea": 3770,
      "Zadok": 3771,
      "baligu": 3772,
      "tinzun": 3773,
      "situra": 3774,
      "zkiya": 3775,
      "wotsi": 3776,
      "dad": 3777,
      "wɔmaa": 3778,
      "bigi": 3779,
      "ŋutega": 3780,
      "tsɔa": 3781,
      "ɖanye": 3782,
      "Monn": 3783,
      "hɔ̃": 3784,
      "chihiri": 3785,
      "Gibeon": 3786,
      "Ŋusẽ": 3787,
      "nyɛviya": 3788,
      "klã": 3789,
      "nabi": 3790,
      "naɖo": 3791,
      "nadze": 3792,
      "yɛne": 3793,
      "saɣisi": 3794,
      "daadaa": 3795,
      "sunti": 3796,
      "hea": 3797,
      "ɔbɛma": 3798,
      "Bena": 3799,
      "waazu": 3800,
      "dunɔdali": 3801,
      "Vuhim": 3802,
      "Aʋakɔwo": 3803,
      "mado": 3804,
      "sam": 3805,
      "bɛnya": 3806,
      "ŋunyɔnu": 3807,
      "kɔhi": 3808,
      "reka": 3809,
      "Wogblɔ": 3810,
      "ahome": 3811,
      "adihɔ": 3812,
      "Sera": 3813,
      "alɔbo": 3814,
      "ntuano": 3815,
      "xɔxɔnu": 3816,
      "Simei": 3817,
      "luhili": 3818,
      "Xizkiya": 3819,
      "dɔwɔwɔwo": 3820,
      "ptaizi": 3821,
      "us": 3822,
      "nakpɔ": 3823,
      "daamba": 3824,
      "ŋutɔe": 3825,
      "tuuli": 3826,
      "Asaf": 3827,
      "Ger": 3828,
      "Dziƒoʋakɔwo": 3829,
      "Betlehem": 3830,
      "Aser": 3831,
      "Tama": 3832,
      "mri": 3833,
      "moo": 3834,
      "woayɛ": 3835,
      "tsitsiwo": 3836,
      "gol": 3837,
      "yɔe": 3838,
      "Sidon": 3839,
      "nàtsɔ": 3840,
      "Misraimfoɔ": 3841,
      "biŋkɔbigu": 3842,
      "dunoya": 3843,
      "Pumpɔŋɔ": 3844,
      "Tim": 3845,
      "wiee": 3846,
      "ɖeŋu": 3847,
      "miy": 3848,
      "hetsɔ": 3849,
      "ŋutsua": 3850,
      "ŋmahi": 3851,
      "pɛpɛpɛ": 3852,
      "akuo": 3853,
      "ɛde": 3854,
      "nakyi": 3855,
      "dekia": 3856,
      "boaboa": 3857,
      "gil": 3858,
      "hyɛne": 3859,
      "aduru": 3860,
      "nuabaa": 3861,
      "mawunya": 3862,
      "naŋgban": 3863,
      "Yeriko": 3864,
      "Zebaot": 3865,
      "Aʋakɔwokplɔla": 3866,
      "ɔteneneeni": 3867,
      "tome": 3868,
      "gbea": 3869,
      "zuɣulana": 3870,
      "aran": 3871,
      "Yakobo": 3872,
      "nukunu": 3873,
      "amumuyɛfoɔ": 3874,
      "adidibea": 3875,
      "fee": 3876,
      "ɔkwa": 3877,
      "tiatia": 3878,
      "kplu": 3879,
      "sɛpɛ": 3880,
      "vava": 3881,
      "Silo": 3882,
      "adehunu": 3883,
      "drɔ̃e": 3884,
      "nyansafoɔ": 3885,
      "nnaadaa": 3886,
      "gbedadaƒo": 3887,
      "Ari": 3888,
      "Nyin": 3889,
      "niɣi": 3890,
      "nabu": 3891,
      "makoma": 3892,
      "fifi": 3893,
      "Yona": 3894,
      "aboaa": 3895,
      "amfiri": 3896,
      "aƒea": 3897,
      "Esime": 3898,
      "Dindali": 3899,
      "dzɔdzɔewo": 3900,
      "twerɛɛ": 3901,
      "Jɔnatan": 3902,
      "alẽvi": 3903,
      "Eleasa": 3904,
      "ayɔbu": 3905,
      "kli": 3906,
      "nake": 3907,
      "ɖeko": 3908,
      "dziwo": 3909,
      "montie": 3910,
      "Yebusi": 3911,
      "ronk": 3912,
      "woanye": 3913,
      "nsafoɔ": 3914,
      "dzodzo": 3915,
      "tamdi": 3916,
      "ƒuƒ": 3917,
      "ʋua": 3918,
      "akpeda": 3919,
      "Monhwɛ": 3920,
      "atenaeɛ": 3921,
      "Hadad": 3922,
      "ssar": 3923,
      "um": 3924,
      "Ɛha": 3925,
      "kawo": 3926,
      "sagbana": 3927,
      "anima": 3928,
      "mowɔ": 3929,
      "wɔnkɔ": 3930,
      "helĩ": 3931,
      "miatsɔ": 3932,
      "afɔwo": 3933,
      "Sekem": 3934,
      "mmeranteɛ": 3935,
      "ebinom": 3936,
      "Nebukadnessar": 3937,
      "aŋutrɔ": 3938,
      "bɛyi": 3939,
      "sedede": 3940,
      "wakoma": 3941,
      "palli": 3942,
      "tuɣi": 3943,
      "tusaa": 3944,
      "nimdi": 3945,
      "nnansa": 3946,
      "ʒili": 3947,
      "tamfo": 3948,
      "Ben": 3949,
      "abufuhyeɛ": 3950,
      "fewu": 3951,
      "mawutsi": 3952,
      "miriya": 3953,
      "Ntomadan": 3954,
      "Bara": 3955,
      "Twa": 3956,
      "ewiem": 3957,
      "nasuafoɔ": 3958,
      "wɔtu": 3959,
      "nunye": 3960,
      "tar": 3961,
      "nyewo": 3962,
      "Natan": 3963,
      "gbadɔ": 3964,
      "nsoro": 3965,
      "pua": 3966,
      "adwi": 3967,
      "kpiŋ": 3968,
      "dunol": 3969,
      "Yɔ": 3970,
      "ɛnni": 3971,
      "nue": 3972,
      "taɣiri": 3973,
      "tampi": 3974,
      "aƒedo": 3975,
      "Zaŋmiya": 3976,
      "gbɔ̃tsu": 3977,
      "nnyinasoɔ": 3978,
      "Ŋkeke": 3979,
      "dadaa": 3980,
      "yinsi": 3981,
      "pina": 3982,
      "zaawuni": 3983,
      "amaneɛ": 3984,
      "ŋutinya": 3985,
      "wòawɔ": 3986,
      "ŋkɔwo": 3987,
      "lée": 3988,
      "nyɔnuvi": 3989,
      "fofowò": 3990,
      "dwennini": 3991,
      "afiase": 3992,
      "nnommum": 3993,
      "ɔfirii": 3994,
      "titire": 3995,
      "wulin": 3996,
      "lɔni": 3997,
      "duŋ": 3998,
      "dɔwuame": 3999,
      "woaɖo": 4000,
      "popo": 4001,
      "nkaa": 4002,
      "hyiraa": 4003,
      "nyɔnua": 4004,
      "kpihim": 4005,
      "kilɔ": 4006,
      "kpambaliba": 4007,
      "lɛk": 4008,
      "Amonfoɔ": 4009,
      "Amorifoɔ": 4010,
      "wulinluhili": 4011,
      "Dzu": 4012,
      "osu": 4013,
      "mea": 4014,
      "mekaa": 4015,
      "nea": 4016,
      "leb": 4017,
      "wɔfaa": 4018,
      "lɔri": 4019,
      "bɔhyɛ": 4020,
      "gul": 4021,
      "miaga": 4022,
      "nɛli": 4023,
      "ŋkuwò": 4024,
      "aʋã": 4025,
      "neen": 4026,
      "Aleke": 4027,
      "alizin": 4028,
      "wɔbɛka": 4029,
      "gbuɣi": 4030,
      "bidib": 4031,
      "Gat": 4032,
      "nado": 4033,
      "maɣi": 4034,
      "wobu": 4035,
      "woxɔ": 4036,
      "nenɔ": 4037,
      "yɛyɛ": 4038,
      "busim": 4039,
      "viɖe": 4040,
      "woado": 4041,
      "nandaamba": 4042,
      "nkɔsi": 4043,
      "duane": 4044,
      "ɔyɛeɛ": 4045,
      "ʋɔnudɔdrɔ̃": 4046,
      "kesinɔnu": 4047,
      "api": 4048,
      "rya": 4049,
      "mexɔ": 4050,
      "tatɔ": 4051,
      "wòxɔ": 4052,
      "nyabu": 4053,
      "pili": 4054,
      "Israelhene": 4055,
      "Mia": 4056,
      "eneawo": 4057,
      "luri": 4058,
      "fetu": 4059,
      "ahanu": 4060,
      "deeg": 4061,
      "asɔrefie": 4062,
      "wuntia": 4063,
      "adzɔge": 4064,
      "luɣilikam": 4065,
      "Gilgal": 4066,
      "eɖe": 4067,
      "edin": 4068,
      "yihiri": 4069,
      "ƒeme": 4070,
      "nusia": 4071,
      "baasa": 4072,
      "buɣi": 4073,
      "paŋ": 4074,
      "lém": 4075,
      "akatua": 4076,
      "kwafoɔ": 4077,
      "kpaŋsi": 4078,
      "Ilaija": 4079,
      "Axa": 4080,
      "Ahyiaeɛ": 4081,
      "ahwe": 4082,
      "tiee": 4083,
      "sofoɔ": 4084,
      "rado": 4085,
      "hoa": 4086,
      "forɔ": 4087,
      "ntia": 4088,
      "Nyagblɔɖi": 4089,
      "nunɔlagã": 4090,
      "Asiriahene": 4091,
      "nuɖuvɔsa": 4092,
      "mamlɛawo": 4093,
      "cheechi": 4094,
      "ronkro": 4095,
      "ɔbisaa": 4096,
      "noya": 4097,
      "himiya": 4098,
      "set": 4099,
      "kɔba": 4100,
      "buro": 4101,
      "lɔɣu": 4102,
      "Kaleb": 4103,
      "poma": 4104,
      "mienya": 4105,
      "karimba": 4106,
      "Bɔzuɣu": 4107,
      "laɣiŋgu": 4108,
      "Seir": 4109,
      "mfuturo": 4110,
      "Giliad": 4111,
      "chirigibu": 4112,
      "tintariga": 4113,
      "akpoxɔ": 4114,
      "mfunumu": 4115,
      "ɔbu": 4116,
      "ɔbɔ": 4117,
      "ɔbɔnefoɔ": 4118,
      "ɛdɔm": 4119,
      "mammɔ": 4120,
      "mewu": 4121,
      "karim": 4122,
      "wɔbaa": 4123,
      "fiɛ": 4124,
      "honi": 4125,
      "korɔn": 4126,
      "hunta": 4127,
      "kyerɛma": 4128,
      "mienye": 4129,
      "Yosia": 4130,
      "yonyeme": 4131,
      "ntaban": 4132,
      "Niŋ": 4133,
      "Hibu": 4134,
      "dahewo": 4135,
      "Nyɔnu": 4136,
      "afunumu": 4137,
      "Biɛ": 4138,
      "ɔhɔhoɔ": 4139,
      "nawɔ": 4140,
      "kɔre": 4141,
      "kɔduruu": 4142,
      "maai": 4143,
      "wòtrɔ": 4144,
      "dun": 4145,
      "Mor": 4146,
      "Miawo": 4147,
      "ŋahi": 4148,
      "adwo": 4149,
      "nnane": 4150,
      "nkata": 4151,
      "abrɛ": 4152,
      "Per": 4153,
      "taŋkpa": 4154,
      "kilɔgiram": 4155,
      "ɔsɛeɛ": 4156,
      "men": 4157,
      "tir": 4158,
      "benkum": 4159,
      "dekai": 4160,
      "bɛkaa": 4161,
      "hiani": 4162,
      "daanta": 4163,
      "vɔ̃a": 4164,
      "Adoni": 4165,
      "Mordekai": 4166,
      "Uzi": 4167,
      "kron": 4168,
      "ɛtene": 4169,
      "naɖe": 4170,
      "nayili": 4171,
      "menim": 4172,
      "beam": 4173,
      "yil": 4174,
      "dzɛ": 4175,
      "yakim": 4176,
      "haɖe": 4177,
      "toe": 4178,
      "Matsɔ": 4179,
      "dɔteɛ": 4180,
      "tsiɖi": 4181,
      "ŋkunye": 4182,
      "ƒua": 4183,
      "kpɛri": 4184,
      "tasiaɖamwo": 4185,
      "Adam": 4186,
      "Gawu": 4187,
      "Lot": 4188,
      "atua": 4189,
      "yanim": 4190,
      "womega": 4191,
      "Wode": 4192,
      "adum": 4193,
      "tɛbena": 4194,
      "Asase": 4195,
      "vovovowo": 4196,
      "Sɔre": 4197,
      "ɔhunu": 4198,
      "nin": 4199,
      "yɛre": 4200,
      "beka": 4201,
      "dedie": 4202,
      "tɛkyerɛma": 4203,
      "mpoano": 4204,
      "kukua": 4205,
      "ʒiini": 4206,
      "Zaŋm": 4207,
      "Beer": 4208,
      "asɛnnua": 4209,
      "awa": 4210,
      "omi": 4211,
      "ɔsane": 4212,
      "dal": 4213,
      "wɔto": 4214,
      "ber": 4215,
      "tatɔwo": 4216,
      "kiri": 4217,
      "ahantan": 4218,
      "Rebeka": 4219,
      "ɖaseɖiɖi": 4220,
      "Ilaisha": 4221,
      "nnwetɛbena": 4222,
      "sorɔmmea": 4223,
      "Anaa": 4224,
      "nahe": 4225,
      "woku": 4226,
      "wogblẽ": 4227,
      "karia": 4228,
      "sini": 4229,
      "wɔpɛ": 4230,
      "roo": 4231,
      "hud": 4232,
      "mpaebɔ": 4233,
      "sorɔnsorɔmmea": 4234,
      "monkɔ": 4235,
      "paligi": 4236,
      "miate": 4237,
      "ɛndi": 4238,
      "yɛlli": 4239,
      "yaaŋa": 4240,
      "mpata": 4241,
      "agbowo": 4242,
      "Elea": 4243,
      "gliwo": 4244,
      "xlãe": 4245,
      "nusrɔ̃la": 4246,
      "Kora": 4247,
      "darigibo": 4248,
      "Rehoboam": 4249,
      "Ammɔn": 4250,
      "sidzedze": 4251,
      "yia": 4252,
      "bɛna": 4253,
      "bɛmaŋ": 4254,
      "pagɔ": 4255,
      "fiam": 4256,
      "niŋmi": 4257,
      "ɖagblɔ": 4258,
      "tiŋgbana": 4259,
      "Paɣi": 4260,
      "mmarato": 4261,
      "bindir": 4262,
      "tarili": 4263,
      "Esiae": 4264,
      "nnɔbaeɛ": 4265,
      "Levitɔwo": 4266,
      "laya": 4267,
      "mepɛ": 4268,
      "leela": 4269,
      "wɔwoo": 4270,
      "nufia": 4271,
      "dɔwo": 4272,
      "woagblɔ": 4273,
      "Monkɔ": 4274,
      "kyie": 4275,
      "galimi": 4276,
      "chɛchɛbunsi": 4277,
      "ayam": 4278,
      "ahɔhoɔ": 4279,
      "omaŋa": 4280,
      "wodi": 4281,
      "hoahoa": 4282,
      "buyi": 4283,
      "kpari": 4284,
      "katãtɔ": 4285,
      "wɔaka": 4286,
      "wɔatwa": 4287,
      "wòava": 4288,
      "chin": 4289,
      "akora": 4290,
      "ateasefoɔ": 4291,
      "kluviwo": 4292,
      "ntwene": 4293,
      "Nebukadnezar": 4294,
      "Twam": 4295,
      "akronkron": 4296,
      "ahiafoɔ": 4297,
      "kla": 4298,
      "tania": 4299,
      "xeƒe": 4300,
      "ʋaʋã": 4301,
      "wotrɔ": 4302,
      "fitaa": 4303,
      "yab": 4304,
      "zahindi": 4305,
      "nkan": 4306,
      "anyigbadzi": 4307,
      "Filipo": 4308,
      "tibidarigibo": 4309,
      "tatabo": 4310,
      "ayuo": 4311,
      "Baba": 4312,
      "Sha": 4313,
      "ahye": 4314,
      "eva": 4315,
      "hĩ": 4316,
      "wono": 4317,
      "wɔma": 4318,
      "kpaa": 4319,
      "kuhiri": 4320,
      "pari": 4321,
      "boaa": 4322,
      "siae": 4323,
      "gindi": 4324,
      "Mitsɔ": 4325,
      "wɔayi": 4326,
      "aleke": 4327,
      "ƒuƒo": 4328,
      "aƒewo": 4329,
      "wɔbɛyɛ": 4330,
      "Amoritɔwo": 4331,
      "Roma": 4332,
      "awɛmfoɔ": 4333,
      "Boa": 4334,
      "Hela": 4335,
      "asiwo": 4336,
      "eɖo": 4337,
      "mfuo": 4338,
      "ɔto": 4339,
      "nade": 4340,
      "maha": 4341,
      "melɔ̃": 4342,
      "binom": 4343,
      "ɖeviwo": 4344,
      "miɖo": 4345,
      "kukoli": 4346,
      "wòm": 4347,
      "nɔwo": 4348,
      "henɔ": 4349,
      "woade": 4350,
      "nkonto": 4351,
      "Mixa": 4352,
      "nkasa": 4353,
      "biɛɣ": 4354,
      "wumdi": 4355,
      "xem": 4356,
      "deeri": 4357,
      "Kiria": 4358,
      "Gomna": 4359,
      "nnebɔneyɛfoɔ": 4360,
      "Adeɛ": 4361,
      "ahwɛ": 4362,
      "baba": 4363,
      "tɔtɔ": 4364,
      "sun": 4365,
      "dumegãwo": 4366,
      "miaɖu": 4367,
      "Miɖo": 4368,
      "goli": 4369,
      "nyura": 4370,
      "jaaŋ": 4371,
      "amfa": 4372,
      "ɛpɛ": 4373,
      "wogbe": 4374,
      "libarika": 4375,
      "nuxeƒe": 4376,
      "bobɔɔ": 4377,
      "Merari": 4378,
      "nnwo": 4379,
      "nàwɔ": 4380,
      "ewolia": 4381,
      "sɔŋsim": 4382,
      "èle": 4383,
      "ɛtwa": 4384,
      "mahunu": 4385,
      "wone": 4386,
      "dahima": 4387,
      "nuyi": 4388,
      "wòku": 4389,
      "yɛnkɔ": 4390,
      "woaxɔ": 4391,
      "vuvu": 4392,
      "ɛnsɛ": 4393,
      "kurom": 4394,
      "monhwɛ": 4395,
      "tiŋkpansi": 4396,
      "Aʋ": 4397,
      "odwennini": 4398,
      "maku": 4399,
      "ɖekɛ": 4400,
      "Mar": 4401,
      "Make": 4402,
      "dɔɣiri": 4403,
      "woatso": 4404,
      "mɔ̃": 4405,
      "Mese": 4406,
      "Yoram": 4407,
      "ɖekae": 4408,
      "ŋutsuawo": 4409,
      "akafu": 4410,
      "nenem": 4411,
      "Eleazar": 4412,
      "wotu": 4413,
      "menyɛ": 4414,
      "dabari": 4415,
      "rib": 4416,
      "yɛwɔ": 4417,
      "woatsrɔ̃": 4418,
      "yɛliŋ": 4419,
      "wɔan": 4420,
      "nyuiwo": 4421,
      "kulibɔ": 4422,
      "Yerobeam": 4423,
      "Nukaŋuti": 4424,
      "akum": 4425,
      "nii": 4426,
      "wɔfa": 4427,
      "boaboaa": 4428,
      "ɖia": 4429,
      "míawɔ": 4430,
      "hyehyɛɛ": 4431,
      "dziƒowo": 4432,
      "wɔrekɔ": 4433,
      "Kis": 4434,
      "galisiya": 4435,
      "dzikpɔlawo": 4436,
      "muɣisigu": 4437,
      "oyi": 4438,
      "ɔkra": 4439,
      "makyerɛ": 4440,
      "mema": 4441,
      "menni": 4442,
      "wira": 4443,
      "dem": 4444,
      "mumuyɛ": 4445,
      "tof": 4446,
      "wɔahunu": 4447,
      "Nyateƒe": 4448,
      "wummiya": 4449,
      "nantwinini": 4450,
      "hyiae": 4451,
      "tɔbutuhiri": 4452,
      "nhunumu": 4453,
      "nunanawo": 4454,
      "Daalikauli": 4455,
      "mfomsoɔ": 4456,
      "Dzudzɔgbe": 4457,
      "Enye": 4458,
      "nhyehyɛ": 4459,
      "nayi": 4460,
      "wɔren": 4461,
      "rianim": 4462,
      "bɛsane": 4463,
      "suu": 4464,
      "suɣa": 4465,
      "ganɔ": 4466,
      "tsoa": 4467,
      "ƒode": 4468,
      "niŋm": 4469,
      "kilogram": 4470,
      "Asubɔ": 4471,
      "Lɔ": 4472,
      "mdi": 4473,
      "tohehe": 4474,
      "elé": 4475,
      "malibu": 4476,
      "ruba": 4477,
      "zina": 4478,
      "yɔri": 4479,
      "Bɛna": 4480,
      "ɔbɛdi": 4481,
      "dzudzɔgbe": 4482,
      "Babilon": 4483,
      "ŋugbedodo": 4484,
      "edu": 4485,
      "Israelvi": 4486,
      "abusu": 4487,
      "Baru": 4488,
      "adaŋu": 4489,
      "Evɔ": 4490,
      "Obi": 4491,
      "Rahe": 4492,
      "ahwɛfoɔ": 4493,
      "eɖanye": 4494,
      "mpi": 4495,
      "rat": 4496,
      "deasi": 4497,
      "ŋutɔwo": 4498,
      "seba": 4499,
      "fire": 4500,
      "tea": 4501,
      "gagblɔ": 4502,
      "zuɣulan": 4503,
      "woadi": 4504,
      "biam": 4505,
      "suhukpeeni": 4506,
      "Lea": 4507,
      "amrado": 4508,
      "zaligunima": 4509,
      "twerɛsɛm": 4510,
      "totorobɛnto": 4511,
      "blema": 4512,
      "Rahel": 4513,
      "Aza": 4514,
      "Sɔ": 4515,
      "ɔfa": 4516,
      "ʋlaya": 4517,
      "made": 4518,
      "sansa": 4519,
      "yih": 4520,
      "dzii": 4521,
      "Naomi": 4522,
      "Meɖe": 4523,
      "mieɖo": 4524,
      "mietsɔ": 4525,
      "yɔm": 4526,
      "nnwom": 4527,
      "bɛmaŋa": 4528,
      "wuntitali": 4529,
      "binyɛrigu": 4530,
      "ɔyare": 4531,
      "magbe": 4532,
      "woligi": 4533,
      "wɔbu": 4534,
      "tipa": 4535,
      "bad": 4536,
      "kɔtenaa": 4537,
      "woaƒo": 4538,
      "nipadua": 4539,
      "tomsi": 4540,
      "Cham": 4541,
      "Nʼ": 4542,
      "Obed": 4543,
      "dzigbeme": 4544,
      "rema": 4545,
      "woayi": 4546,
      "nkokoɔ": 4547,
      "rubim": 4548,
      "wɔabɔ": 4549,
      "Sint": 4550,
      "akasa": 4551,
      "gyinagyina": 4552,
      "atokoɔ": 4553,
      "akuakuo": 4554,
      "Ester": 4555,
      "Tamar": 4556,
      "nsoromma": 4557,
      "Sintani": 4558,
      "Afa": 4559,
      "mae": 4560,
      "nuno": 4561,
      "kɔtomsi": 4562,
      "asadeɛ": 4563,
      "yɔɣu": 4564,
      "hirili": 4565,
      "Jɛrɔbɔ": 4566,
      "ƒometɔwo": 4567,
      "anyansafoɔ": 4568,
      "susuu": 4569,
      "nkontompo": 4570,
      "Jɛrɔbɔam": 4571,
      "Aane": 4572,
      "Iso": 4573,
      "medɔ": 4574,
      "bes": 4575,
      "aniso": 4576,
      "suh": 4577,
      "tal": 4578,
      "moayɛ": 4579,
      "Mekpɔ": 4580,
      "abakan": 4581,
      "aʋawɔwɔ": 4582,
      "gɔmedzedze": 4583,
      "Vinye": 4584,
      "Kanaanfoɔ": 4585,
      "bometsila": 4586,
      "Oho": 4587,
      "mfe": 4588,
      "ɔbabarima": 4589,
      "naɖu": 4590,
      "mii": 4591,
      "bɛbu": 4592,
      "sem": 4593,
      "buta": 4594,
      "buɣili": 4595,
      "pal": 4596,
      "tsɔtsɔ": 4597,
      "Mawue": 4598,
      "Montie": 4599,
      "Miaƒe": 4600,
      "puhiri": 4601,
      "zoo": 4602,
      "mpan": 4603,
      "wʼanim": 4604,
      "abusuafoɔ": 4605,
      "Tar": 4606,
      "Nokorɛ": 4607,
      "asomafoɔ": 4608,
      "Asera": 4609,
      "Eyome": 4610,
      "Kp": 4611,
      "lla": 4612,
      "or": 4613,
      "Ɔsoro": 4614,
      "Ɛhe": 4615,
      "ɔhwɛ": 4616,
      "ɔfrɛɛ": 4617,
      "manye": 4618,
      "wonim": 4619,
      "kanya": 4620,
      "dala": 4621,
      "wɔsane": 4622,
      "yidan": 4623,
      "vɔvɔ": 4624,
      "yɛlim": 4625,
      "ruwa": 4626,
      "imɔn": 4627,
      "adwumayɛfoɔ": 4628,
      "nnome": 4629,
      "Barnaba": 4630,
      "tipawum": 4631,
      "Aka": 4632,
      "Hamat": 4633,
      "Jo": 4634,
      "ɔnim": 4635,
      "ɔsii": 4636,
      "ɔboɔ": 4637,
      "ɛza": 4638,
      "ʋɛ": 4639,
      "sin": 4640,
      "wɔyii": 4641,
      "fokuo": 4642,
      "kol": 4643,
      "dolawo": 4644,
      "keklẽ": 4645,
      "xɔasi": 4646,
      "aboyome": 4647,
      "nàgblɔ": 4648,
      "Mɛma": 4649,
      "akpoxɔnu": 4650,
      "Hasa": 4651,
      "eba": 4652,
      "mmfa": 4653,
      "osuo": 4654,
      "ɔpe": 4655,
      "ɛkɔ": 4656,
      "wopɛ": 4657,
      "wɔsuro": 4658,
      "wòkplɔ": 4659,
      "rekyie": 4660,
      "ɣilo": 4661,
      "dɔma": 4662,
      "anyigbeme": 4663,
      "Mewɔ": 4664,
      "wɔato": 4665,
      "aʋawɔ": 4666,
      "ɔrekɔ": 4667,
      "waingble": 4668,
      "adrelia": 4669,
      "binyɛr": 4670,
      "Samson": 4671,
      "Persia": 4672,
      "akronkronneɛ": 4673,
      "Asur": 4674,
      "Oo": 4675,
      "atwerɛ": 4676,
      "madze": 4677,
      "wolé": 4678,
      "sitsoƒe": 4679,
      "kɔri": 4680,
      "yafunu": 4681,
      "guni": 4682,
      "Yiɣisi": 4683,
      "akɔnnɔ": 4684,
      "wòakpɔ": 4685,
      "chihi": 4686,
      "abura": 4687,
      "Tiŋ": 4688,
      "ahanum": 4689,
      "nyanyanya": 4690,
      "mmɔborɔhunu": 4691,
      "Kpi": 4692,
      "wɔsiee": 4693,
      "yeatsɔ": 4694,
      "bira": 4695,
      "bɛda": 4696,
      "han": 4697,
      "tui": 4698,
      "gblɔna": 4699,
      "wɔahyɛ": 4700,
      "tumtum": 4701,
      "wumfoɔ": 4702,
      "Sedekia": 4703,
      "tuuba": 4704,
      "womate": 4705,
      "kwata": 4706,
      "ɔbotan": 4707,
      "mommma": 4708,
      "vinvamli": 4709,
      "taŋkpaɣu": 4710,
      "Ja": 4711,
      "agyi": 4712,
      "awadeɛ": 4713,
      "ɔgyaa": 4714,
      "memee": 4715,
      "wɔhyɛ": 4716,
      "wɔhunu": 4717,
      "mitsɔ": 4718,
      "daai": 4719,
      "daazichi": 4720,
      "daalibarika": 4721,
      "tawo": 4722,
      "wòƒo": 4723,
      "wòtsi": 4724,
      "wòlé": 4725,
      "nyiwo": 4726,
      "booi": 4727,
      "zaŋmiya": 4728,
      "manfoɔ": 4729,
      "xɔwo": 4730,
      "ananafoɔ": 4731,
      "srɔ̃wo": 4732,
      "fofonye": 4733,
      "agblẽ": 4734,
      "yiini": 4735,
      "tɔbbi": 4736,
      "ɔtenaa": 4737,
      "Gerson": 4738,
      "Bin": 4739,
      "ehu": 4740,
      "fta": 4741,
      "matrɔ": 4742,
      "mel": 4743,
      "melé": 4744,
      "wɔhyɛɛ": 4745,
      "wɔkan": 4746,
      "tifi": 4747,
      "yiyim": 4748,
      "der": 4749,
      "nyinsɛ": 4750,
      "Mali": 4751,
      "woazu": 4752,
      "asaawa": 4753,
      "Dari": 4754,
      "cham": 4755,
      "afisia": 4756,
      "akodeɛ": 4757,
      "mmusuo": 4758,
      "Wula": 4759,
      "lãnyiƒe": 4760,
      "Mʼ": 4761,
      "ɔgyee": 4762,
      "nadeɛ": 4763,
      "meeɛ": 4764,
      "risii": 4765,
      "yiya": 4766,
      "bɛfa": 4767,
      "moli": 4768,
      "ketɔwo": 4769,
      "piso": 4770,
      "kpem": 4771,
      "aɖee": 4772,
      "pɔi": 4773,
      "Farisii": 4774,
      "Anti": 4775,
      "Enu": 4776,
      "dã": 4777,
      "kyɛɛ": 4778,
      "kwaa": 4779,
      "nazu": 4780,
      "matso": 4781,
      "notsi": 4782,
      "nuxaxa": 4783,
      "teaseɛnam": 4784,
      "heva": 4785,
      "pin": 4786,
      "animtia": 4787,
      "ɣaɣla": 4788,
      "karibu": 4789,
      "yimtali": 4790,
      "viɛli": 4791,
      "naŋgba": 4792,
      "madzɔmadzɔ": 4793,
      "prɛko": 4794,
      "nwunu": 4795,
      "abla": 4796,
      "she": 4797,
      "ɛkyerɛ": 4798,
      "daya": 4799,
      "dapu": 4800,
      "yibɔ": 4801,
      "daalikauli": 4802,
      "hoɔden": 4803,
      "reyɛ": 4804,
      "ameka": 4805,
      "miese": 4806,
      "ʋuu": 4807,
      "ntonto": 4808,
      "adagya": 4809,
      "beaeɛ": 4810,
      "womekpɔ": 4811,
      "wʼani": 4812,
      "aduosia": 4813,
      "yiŋnim": 4814,
      "pɛpɛɛpɛ": 4815,
      "Amalek": 4816,
      "Axab": 4817,
      "Yɔdan": 4818,
      "Anaasɛ": 4819,
      "Kɛ": 4820,
      "abaa": 4821,
      "rimi": 4822,
      "yeawɔ": 4823,
      "kuna": 4824,
      "tɔgbe": 4825,
      "fiƒode": 4826,
      "tentene": 4827,
      "bɔɣili": 4828,
      "woaka": 4829,
      "blanu": 4830,
      "nkɔnsɔ": 4831,
      "ƒomeawo": 4832,
      "Kpe": 4833,
      "apɛ": 4834,
      "meyi": 4835,
      "sol": 4836,
      "badwa": 4837,
      "Naza": 4838,
      "dumienu": 4839,
      "woaga": 4840,
      "miakpɔ": 4841,
      "anyigbawo": 4842,
      "ƒuwo": 4843,
      "ɔbɛnya": 4844,
      "ateaa": 4845,
      "zooi": 4846,
      "barina": 4847,
      "Rut": 4848,
      "ayeforɔ": 4849,
      "Teeku": 4850,
      "stolo": 4851,
      "Asubɔnten": 4852,
      "Eɖe": 4853,
      "Ita": 4854,
      "Ishi": 4855,
      "bna": 4856,
      "tɛn": 4857,
      "siɣim": 4858,
      "tifoɔ": 4859,
      "anidie": 4860,
      "wòdzi": 4861,
      "wɔnnim": 4862,
      "sɔsɔ": 4863,
      "kyena": 4864,
      "rɔno": 4865,
      "pɔŋ": 4866,
      "Sal": 4867,
      "ŋutinye": 4868,
      "wòazu": 4869,
      "blaadre": 4870,
      "atike": 4871,
      "kyɛm": 4872,
      "menyae": 4873,
      "petee": 4874,
      "Ɛhab": 4875,
      "Aba": 4876,
      "atwene": 4877,
      "ɔnya": 4878,
      "nase": 4879,
      "nohoa": 4880,
      "sanku": 4881,
      "kɔmaa": 4882,
      "teeɛ": 4883,
      "waka": 4884,
      "wòbia": 4885,
      "pahiri": 4886,
      "zaɣis": 4887,
      "asiesie": 4888,
      "esiee": 4889,
      "Yosafat": 4890,
      "wɔbɛtumi": 4891,
      "mmisa": 4892,
      "Jɛrusalɛmnim": 4893,
      "maganɔ": 4894,
      "nunyalawo": 4895,
      "atɛntenenee": 4896,
      "Nyagblɔɖila": 4897,
      "vɔvɔli": 4898,
      "ahiã": 4899,
      "lkia": 4900,
      "spa": 4901,
      "ẽƒe": 4902,
      "mewò": 4903,
      "metrɔ": 4904,
      "lig": 4905,
      "biŋ": 4906,
      "wano": 4907,
      "tagba": 4908,
      "monim": 4909,
      "moan": 4910,
      "mommɔ": 4911,
      "ret": 4912,
      "fabili": 4913,
      "garigu": 4914,
      "nkyi": 4915,
      "Mesu": 4916,
      "goon": 4917,
      "viwoe": 4918,
      "biɛrim": 4919,
      "aʋawɔlawo": 4920,
      "Elam": 4921,
      "ʒiɛyimtali": 4922,
      "kɔbisiyi": 4923,
      "Vavã": 4924,
      "Woawoe": 4925,
      "ago": 4926,
      "meƒo": 4927,
      "gbili": 4928,
      "wɔmma": 4929,
      "wɔtoo": 4930,
      "yimaŋ": 4931,
      "tɔŋ": 4932,
      "temmu": 4933,
      "reb": 4934,
      "dɔe": 4935,
      "fuu": 4936,
      "anab": 4937,
      "somfoɔ": 4938,
      "nyom": 4939,
      "ʒiɛman": 4940,
      "nkurɔfokuo": 4941,
      "agbleme": 4942,
      "numevɔ": 4943,
      "amedzrowo": 4944,
      "Axaz": 4945,
      "Enyo": 4946,
      "ewɔ": 4947,
      "ɔtamfoɔ": 4948,
      "ɛha": 4949,
      "mebu": 4950,
      "lifi": 4951,
      "tiaseɛ": 4952,
      "didim": 4953,
      "kurim": 4954,
      "hanan": 4955,
      "ros": 4956,
      "nsoɔ": 4957,
      "kpana": 4958,
      "Yotam": 4959,
      "dzogoe": 4960,
      "ahosɛpɛ": 4961,
      "blaene": 4962,
      "pee": 4963,
      "zom": 4964,
      "Filistia": 4965,
      "nsusu": 4966,
      "nunyala": 4967,
      "tɛhiya": 4968,
      "dziɖula": 4969,
      "asɔfotadeɛ": 4970,
      "ntuanofoɔ": 4971,
      "Aga": 4972,
      "Fe": 4973,
      "lũ": 4974,
      "nahu": 4975,
      "katiŋ": 4976,
      "saŋma": 4977,
      "nufo": 4978,
      "monka": 4979,
      "Nabal": 4980,
      "bɔeɛ": 4981,
      "zabiri": 4982,
      "mmabaa": 4983,
      "woama": 4984,
      "anyitsi": 4985,
      "Alea": 4986,
      "kis": 4987,
      "ahunta": 4988,
      "nnwankuo": 4989,
      "Rubin": 4990,
      "nnuhwam": 4991,
      "nambɔzɔ": 4992,
      "gbeƒãɖelawo": 4993,
      "vodadawo": 4994,
      "ahonhommɔne": 4995,
      "burodo": 4996,
      "pisopɔin": 4997,
      "Enumake": 4998,
      "Amɔri": 4999,
      "Nno": 5000,
      "Uri": 5001,
      "ahwie": 5002,
      "mehyɛɛ": 5003,
      "meyii": 5004,
      "baɣi": 5005,
      "kɔbea": 5006,
      "waree": 5007,
      "fara": 5008,
      "hemmaa": 5009,
      "miadze": 5010,
      "kpewo": 5011,
      "poo": 5012,
      "Metsɔ": 5013,
      "gɔhi": 5014,
      "ababaa": 5015,
      "Sim": 5016,
      "atra": 5017,
      "nandahima": 5018,
      "nkwasea": 5019,
      "nkuraa": 5020,
      "shafat": 5021,
      "Ɛliɛza": 5022,
      "Gaad": 5023,
      "naŋgbankpeeni": 5024,
      "dundɔ": 5025,
      "Afahyɛ": 5026,
      "iba": 5027,
      "nd": 5028,
      "wɔsom": 5029,
      "aniwa": 5030,
      "mido": 5031,
      "wòme": 5032,
      "dɔa": 5033,
      "dzɔa": 5034,
      "miexɔ": 5035,
      "Sakaria": 5036,
      "ʒiʒiini": 5037,
      "neefoɔ": 5038,
      "vɔsawo": 5039,
      "mpoma": 5040,
      "nunɔlagãwo": 5041,
      "woawoe": 5042,
      "Ahas": 5043,
      "moahunu": 5044,
      "tuumbiɛ": 5045,
      "gudugudu": 5046,
      "Atwerɛsɛm": 5047,
      "meren": 5048,
      "bɛwu": 5049,
      "wòɖu": 5050,
      "moka": 5051,
      "keli": 5052,
      "gbarigi": 5053,
      "afla": 5054,
      "afrɛ": 5055,
      "asisi": 5056,
      "nkasɛɛ": 5057,
      "mɛka": 5058,
      "Bɛt": 5059,
      "abannwa": 5060,
      "anwea": 5061,
      "ŋkekenyuie": 5062,
      "sɔreɛ": 5063,
      "adwaman": 5064,
      "susɔe": 5065,
      "kalẽtɔ": 5066,
      "Kaldeafoɔ": 5067,
      "Yesaya": 5068,
      "Yesaia": 5069,
      "Yehoiada": 5070,
      "nwera": 5071,
      "Adoniya": 5072,
      "Ib": 5073,
      "Ɛwom": 5074,
      "ɔmma": 5075,
      "ɔsra": 5076,
      "mer": 5077,
      "meyɛɛ": 5078,
      "titɔwo": 5079,
      "tizo": 5080,
      "yee": 5081,
      "kuti": 5082,
      "bɔr": 5083,
      "Yefta": 5084,
      "gaƒoƒo": 5085,
      "gbagbã": 5086,
      "huru": 5087,
      "Miɖe": 5088,
      "goglo": 5089,
      "ɛlɛ": 5090,
      "yur": 5091,
      "ŋkuagbã": 5092,
      "Amesiwo": 5093,
      "wòadze": 5094,
      "gãa": 5095,
      "nsie": 5096,
      "akane": 5097,
      "kitɔwo": 5098,
      "xexeme": 5099,
      "xexeame": 5100,
      "egbea": 5101,
      "Mɔabnim": 5102,
      "ƒuƒlu": 5103,
      "Xo": 5104,
      "awie": 5105,
      "adzoe": 5106,
      "ɔtwe": 5107,
      "mehunu": 5108,
      "menkɔ": 5109,
      "yem": 5110,
      "mihi": 5111,
      "dzilawo": 5112,
      "butu": 5113,
      "tofoɔ": 5114,
      "vinyɔnuwo": 5115,
      "tun": 5116,
      "dɔro": 5117,
      "woakɔ": 5118,
      "fialawo": 5119,
      "Miyi": 5120,
      "mɔne": 5121,
      "amamfo": 5122,
      "Sadok": 5123,
      "Salum": 5124,
      "tɛtrɛ": 5125,
      "zaligubaŋ": 5126,
      "mʼanim": 5127,
      "Ammɔnnim": 5128,
      "nufiafia": 5129,
      "Efe": 5130,
      "eha": 5131,
      "ohiani": 5132,
      "Ɛnneɛ": 5133,
      "ɔgyina": 5134,
      "wɔduruu": 5135,
      "nudzra": 5136,
      "bɛl": 5137,
      "pasaa": 5138,
      "pira": 5139,
      "míakpɔ": 5140,
      "pampam": 5141,
      "adua": 5142,
      "aʋafia": 5143,
      "Timote": 5144,
      "mobɛhunu": 5145,
      "amehawo": 5146,
      "borɔdɔma": 5147,
      "jɛra": 5148,
      "Jɛhɔshafat": 5149,
      "Karmel": 5150,
      "ronkronni": 5151,
      "Timoteo": 5152,
      "sis": 5153,
      "lilikpo": 5154,
      "wɔama": 5155,
      "tɔnye": 5156,
      "tuaa": 5157,
      "woanya": 5158,
      "ƒoe": 5159,
      "fui": 5160,
      "nɛza": 5161,
      "ɔbɛka": 5162,
      "siawoe": 5163,
      "pea": 5164,
      "aʋawɔla": 5165,
      "shihirili": 5166,
      "megali": 5167,
      "ɖɔɖɔ": 5168,
      "mfitiaseɛ": 5169,
      "kakraa": 5170,
      "Ramot": 5171,
      "nachim": 5172,
      "huhuo": 5173,
      "Vin": 5174,
      "ena": 5175,
      "enyo": 5176,
      "nha": 5177,
      "vaa": 5178,
      "ɛsi": 5179,
      "nae": 5180,
      "mesrɛ": 5181,
      "wɔso": 5182,
      "samba": 5183,
      "nugbe": 5184,
      "bata": 5185,
      "kunafoɔ": 5186,
      "lɔŋ": 5187,
      "aseda": 5188,
      "Woŋlɔ": 5189,
      "asinu": 5190,
      "Safan": 5191,
      "wòado": 5192,
      "abotire": 5193,
      "atim": 5194,
      "bimbin": 5195,
      "ʒiɛɣu": 5196,
      "shan": 5197,
      "Mmara": 5198,
      "kpiŋkpa": 5199,
      "Mbusim": 5200,
      "odwa": 5201,
      "Ɛnsɛ": 5202,
      "wɔfirii": 5203,
      "nyanyui": 5204,
      "amesia": 5205,
      "bot": 5206,
      "asabu": 5207,
      "amaŋ": 5208,
      "suhugarigu": 5209,
      "ntente": 5210,
      "Nun": 5211,
      "ahanan": 5212,
      "akpata": 5213,
      "aʋakɔwo": 5214,
      "apostolo": 5215,
      "dwoodwoo": 5216,
      "nnamfo": 5217,
      "Alẽ": 5218,
      "Ebia": 5219,
      "bron": 5220,
      "ʋli": 5221,
      "wosi": 5222,
      "sigbe": 5223,
      "titɔ": 5224,
      "baptaizi": 5225,
      "sena": 5226,
      "dzia": 5227,
      "donu": 5228,
      "tufoɔ": 5229,
      "huri": 5230,
      "Saha": 5231,
      "yoma": 5232,
      "ahotefoɔ": 5233,
      "nyɔtaɣiri": 5234,
      "abosome": 5235,
      "aʋala": 5236,
      "nàkpɔ": 5237,
      "Nir": 5238,
      "sɔŋdi": 5239,
      "kwaeɛ": 5240,
      "mʼani": 5241,
      "yinoyino": 5242,
      "Rex": 5243,
      "ndana": 5244,
      "Kus": 5245,
      "woɖii": 5246,
      "Timna": 5247,
      "sansani": 5248,
      "tipawumli": 5249,
      "Farisiinim": 5250,
      "nufosuo": 5251,
      "ntentensoɔ": 5252,
      "Nna": 5253,
      "eŋkume": 5254,
      "Ɔbarima": 5255,
      "Ɛ̃": 5256,
      "ɛhyeɛ": 5257,
      "nanima": 5258,
      "mafa": 5259,
      "wotia": 5260,
      "sotefoɔ": 5261,
      "yimaŋa": 5262,
      "bɛgu": 5263,
      "bɛdane": 5264,
      "kus": 5265,
      "sesa": 5266,
      "tɔhi": 5267,
      "dzidada": 5268,
      "amee": 5269,
      "ɔnnim": 5270,
      "gom": 5271,
      "goma": 5272,
      "domee": 5273,
      "ʒiya": 5274,
      "ɖekaɖeka": 5275,
      "Ameka": 5276,
      "bubuu": 5277,
      "nʼakyi": 5278,
      "Sebulon": 5279,
      "nyuli": 5280,
      "tsam": 5281,
      "Fofonye": 5282,
      "bukadnɛza": 5283,
      "Nɛbukadnɛza": 5284,
      "nuteƒewɔwɔ": 5285,
      "Woayra": 5286,
      "takɔbiri": 5287,
      "Baruk": 5288,
      "dundɔŋ": 5289,
      "Ani": 5290,
      "Bɛm": 5291,
      "Dzo": 5292,
      "age": 5293,
      "onyame": 5294,
      "ɛbɛn": 5295,
      "ɛwoɔ": 5296,
      "nadab": 5297,
      "madi": 5298,
      "livi": 5299,
      "wɔtee": 5300,
      "bɛsɛe": 5301,
      "ŋubiri": 5302,
      "kuɣili": 5303,
      "wòyɔ": 5304,
      "kel": 5305,
      "turi": 5306,
      "duni": 5307,
      "Kades": 5308,
      "mmaŋmaŋ": 5309,
      "Mikafu": 5310,
      "mieva": 5311,
      "Yesua": 5312,
      "nsiesie": 5313,
      "ɣemaɣi": 5314,
      "nkura": 5315,
      "saɣiŋgu": 5316,
      "adwamammɔ": 5317,
      "ɖasefo": 5318,
      "nkyɛre": 5319,
      "Samsin": 5320,
      "tampiŋ": 5321,
      "Bɛmbɔŋɔ": 5322,
      "Abo": 5323,
      "Doo": 5324,
      "ayɔ": 5325,
      "ɛteɛ": 5326,
      "siesiee": 5327,
      "kɔkuti": 5328,
      "tɔgbi": 5329,
      "wabu": 5330,
      "mohunu": 5331,
      "amedɔdɔ": 5332,
      "fali": 5333,
      "sraa": 5334,
      "Yabes": 5335,
      "nnwi": 5336,
      "twetia": 5337,
      "ɔmanfoɔ": 5338,
      "susuwo": 5339,
      "puhibu": 5340,
      "tɔgbuiyɔ": 5341,
      "malaikanim": 5342,
      "vinyewo": 5343,
      "aklala": 5344,
      "kalẽtɔwo": 5345,
      "ŋmɛri": 5346,
      "Ŋusẽkatãtɔ": 5347,
      "tɛtrɛtɛ": 5348,
      "Gye": 5349,
      "Hɔ": 5350,
      "Tɛ": 5351,
      "azichi": 5352,
      "ede": 5353,
      "ɔren": 5354,
      "nasase": 5355,
      "wɔkura": 5356,
      "muɔden": 5357,
      "kodoɔ": 5358,
      "dzie": 5359,
      "Nadab": 5360,
      "wɔntumi": 5361,
      "duo": 5362,
      "ntinn": 5363,
      "pintinn": 5364,
      "mɔɣili": 5365,
      "Wowɔ": 5366,
      "Woɖe": 5367,
      "Saimɔn": 5368,
      "biɛhiŋ": 5369,
      "míayi": 5370,
      "Lee": 5371,
      "antumi": 5372,
      "wɔbɛdi": 5373,
      "frama": 5374,
      "kanea": 5375,
      "inka": 5376,
      "nakpe": 5377,
      "wodzo": 5378,
      "kafoɔ": 5379,
      "yaɣili": 5380,
      "fono": 5381,
      "toaa": 5382,
      "nyiŋgo": 5383,
      "hema": 5384,
      "Kaesa": 5385,
      "rɔd": 5386,
      "Yaɣi": 5387,
      "mɔ́": 5388,
      "wɔamfa": 5389,
      "blane": 5390,
      "Sila": 5391,
      "nʼasuafoɔ": 5392,
      "nàyi": 5393,
      "míewɔ": 5394,
      "Abisai": 5395,
      "ɛbɛma": 5396,
      "Aai": 5397,
      "vevesese": 5398,
      "dzadzɛ": 5399,
      "Xebron": 5400,
      "Itama": 5401,
      "Alikauli": 5402,
      "akra": 5403,
      "Ɔba": 5404,
      "metee": 5405,
      "wɔhwɛ": 5406,
      "wɔgye": 5407,
      "anii": 5408,
      "miɖe": 5409,
      "tɔwò": 5410,
      "wòto": 5411,
      "kosi": 5412,
      "dziŋɔ": 5413,
      "hyɛeɛ": 5414,
      "Amewo": 5415,
      "ahodwiri": 5416,
      "kekeake": 5417,
      "nteaseɛ": 5418,
      "aboso": 5419,
      "agbenɔnɔ": 5420,
      "abra": 5421,
      "nɔvinye": 5422,
      "ƒomewo": 5423,
      "Asamando": 5424,
      "dɛkia": 5425,
      "nukuwo": 5426,
      "adwane": 5427,
      "Kohat": 5428,
      "Zɛdɛkia": 5429,
      "safohene": 5430,
      "atwe": 5431,
      "game": 5432,
      "Ɛsiane": 5433,
      "̃e": 5434,
      "natso": 5435,
      "matsrɔ̃": 5436,
      "wɔgyaa": 5437,
      "wifoɔ": 5438,
      "nuaba": 5439,
      "nutowo": 5440,
      "animu": 5441,
      "fapem": 5442,
      "dɔwɔlawo": 5443,
      "poli": 5444,
      "Wone": 5445,
      "gyae": 5446,
      "biɛtali": 5447,
      "danse": 5448,
      "wòayi": 5449,
      "wɔbɛgye": 5450,
      "akata": 5451,
      "gbidi": 5452,
      "jɛmd": 5453,
      "ƒomea": 5454,
      "nsuro": 5455,
      "dometɔa": 5456,
      "didiƒe": 5457,
      "Lɛba": 5458,
      "tibigi": 5459,
      "Amnon": 5460,
      "rubabel": 5461,
      "kurimbuni": 5462,
      "Anuanom": 5463,
      "abubu": 5464,
      "gla": 5465,
      "ʋama": 5466,
      "dalawo": 5467,
      "wisie": 5468,
      "dira": 5469,
      "bab": 5470,
      "bɛhyiaa": 5471,
      "wahyɛ": 5472,
      "tanye": 5473,
      "wòda": 5474,
      "bɔhim": 5475,
      "dɔr": 5476,
      "ɖui": 5477,
      "rus": 5478,
      "ahoɔ": 5479,
      "pere": 5480,
      "ntofoɔ": 5481,
      "Jɛhu": 5482,
      "dwoɔ": 5483,
      "paɣibu": 5484,
      "dɔɣiriba": 5485,
      "ʋeʋĩ": 5486,
      "Herode": 5487,
      "ntweneduro": 5488,
      "Amɔrinim": 5489,
      "Yaɣigari": 5490,
      "al": 5491,
      "aŋɔ": 5492,
      "agyaa": 5493,
      "eƒo": 5494,
      "sta": 5495,
      "ŋdɔ": 5496,
      "Ɛbɛyɛ": 5497,
      "ɔsɔfo": 5498,
      "wotɔ": 5499,
      "woho": 5500,
      "wohunu": 5501,
      "meto": 5502,
      "mefiri": 5503,
      "menyo": 5504,
      "kab": 5505,
      "nuƒoƒo": 5506,
      "ŋudzɔ": 5507,
      "kɔnnua": 5508,
      "muna": 5509,
      "wayi": 5510,
      "bum": 5511,
      "pil": 5512,
      "ɖanɔ": 5513,
      "zaashee": 5514,
      "baalim": 5515,
      "zɔna": 5516,
      "gyefoɔ": 5517,
      "lãhawo": 5518,
      "wòaga": 5519,
      "somdwoeɛ": 5520,
      "atɔ̃lia": 5521,
      "ʒiɛya": 5522,
      "nahindi": 5523,
      "ɖiɖim": 5524,
      "naɣilaa": 5525,
      "Hesbon": 5526,
      "nusianu": 5527,
      "ʋamaʋã": 5528,
      "Eva": 5529,
      "dɛm": 5530,
      "kɛm": 5531,
      "nhini": 5532,
      "tà": 5533,
      "ɛsɔ": 5534,
      "natsi": 5535,
      "masi": 5536,
      "mes": 5537,
      "dai": 5538,
      "linli": 5539,
      "yɛka": 5540,
      "bah": 5541,
      "ŋugbetɔ": 5542,
      "kun": 5543,
      "muni": 5544,
      "tanti": 5545,
      "wòtsɔe": 5546,
      "duɣu": 5547,
      "fabila": 5548,
      "kpɔla": 5549,
      "aberanteɛ": 5550,
      "gyenkwa": 5551,
      "mɛbu": 5552,
      "nègblɔ": 5553,
      "aƒeli": 5554,
      "vɔsalã": 5555,
      "teeg": 5556,
      "fɛfɛ": 5557,
      "Galili": 5558,
      "ʋĩi": 5559,
      "Maaka": 5560,
      "togbɛwo": 5561,
      "ateneneefoɔ": 5562,
      "Makedo": 5563,
      "anisoadehunu": 5564,
      "nuabarima": 5565,
      "ɔyi": 5566,
      "maxɔ": 5567,
      "matsi": 5568,
      "wofa": 5569,
      "mefia": 5570,
      "wɔkum": 5571,
      "yimaŋmaŋ": 5572,
      "ɖevia": 5573,
      "kudura": 5574,
      "fiaa": 5575,
      "dɔvɔ̃": 5576,
      "mɔa": 5577,
      "Megblɔ": 5578,
      "tumd": 5579,
      "mɛyi": 5580,
      "iada": 5581,
      "aboo": 5582,
      "ilikia": 5583,
      "wumbu": 5584,
      "mmorɔno": 5585,
      "gbilli": 5586,
      "nenemae": 5587,
      "Zalla": 5588,
      "mpanimfie": 5589,
      "hiãtɔwo": 5590,
      "dwanekɔbea": 5591,
      "nuwɔnawo": 5592,
      "gahinda": 5593,
      "hohoro": 5594,
      "Hiburɔn": 5595,
      "Zallakudura": 5596,
      "Ayu": 5597,
      "ose": 5598,
      "ohoni": 5599,
      "xat": 5600,
      "kabi": 5601,
      "lili": 5602,
      "wii": 5603,
      "bai": 5604,
      "buri": 5605,
      "butuu": 5606,
      "remma": 5607,
      "bɔɣu": 5608,
      "dunan": 5609,
      "rofoɔ": 5610,
      "hedo": 5611,
      "yɛlimi": 5612,
      "tsikɔ": 5613,
      "Menya": 5614,
      "ƒuƒu": 5615,
      "nèdo": 5616,
      "nàɖe": 5617,
      "bliboa": 5618,
      "fɛfoɔ": 5619,
      "dɔmenyo": 5620,
      "lɛt": 5621,
      "Zebulon": 5622,
      "kɔbisinahi": 5623,
      "nturo": 5624,
      "biŋkɔbbaligu": 5625,
      "ahonyadeɛ": 5626,
      "ɔkwasea": 5627,
      "Mesulam": 5628,
      "Kyerɛ": 5629,
      "Lã": 5630,
      "Uria": 5631,
      "Ɔka": 5632,
      "ɔmmɛ": 5633,
      "kɔƒe": 5634,
      "suɣilo": 5635,
      "tadua": 5636,
      "nyama": 5637,
      "bun": 5638,
      "buna": 5639,
      "tovo": 5640,
      "keme": 5641,
      "tus": 5642,
      "srafo": 5643,
      "ŋɔŋlɔ": 5644,
      "Naaman": 5645,
      "Mido": 5646,
      "Miva": 5647,
      "vuui": 5648,
      "mɛba": 5649,
      "alali": 5650,
      "atiri": 5651,
      "Jɛzi": 5652,
      "hyiadan": 5653,
      "mawufiaɖuƒe": 5654,
      "Heze": 5655,
      "Bil": 5656,
      "Paɣimiya": 5657,
      "dapulli": 5658,
      "Lɛbanɔn": 5659,
      "eyi": 5660,
      "ɛhia": 5661,
      "nadɔeɛ": 5662,
      "mahi": 5663,
      "mato": 5664,
      "makplɔ": 5665,
      "meyɔ": 5666,
      "sida": 5667,
      "dedi": 5668,
      "anibereɛ": 5669,
      "bɛte": 5670,
      "wòkɔ": 5671,
      "patee": 5672,
      "toɖoɖo": 5673,
      "nyivi": 5674,
      "yɛnnim": 5675,
      "afra": 5676,
      "Woatsɔ": 5677,
      "yɔhim": 5678,
      "blaade": 5679,
      "abosom": 5680,
      "Nunya": 5681,
      "Yisai": 5682,
      "mmɔden": 5683,
      "subɔe": 5684,
      "Nil": 5685,
      "asotwe": 5686,
      "ɔbonsam": 5687,
      "Tarsis": 5688,
      "nambɔzɔbo": 5689,
      "dunianim": 5690,
      "Makedonia": 5691,
      "Cha": 5692,
      "Susa": 5693,
      "Wʼ": 5694,
      "amɔ": 5695,
      "nkete": 5696,
      "taai": 5697,
      "Ɔbaa": 5698,
      "wogbã": 5699,
      "wedeɛ": 5700,
      "tɔsi": 5701,
      "bul": 5702,
      "tonyigba": 5703,
      "gbedeasi": 5704,
      "tsiẽƒe": 5705,
      "Medi": 5706,
      "amapa": 5707,
      "dansi": 5708,
      "ankyerɛ": 5709,
      "wɔbɛhunu": 5710,
      "ahum": 5711,
      "Biri": 5712,
      "ayeyie": 5713,
      "kɛseyɛ": 5714,
      "jaaŋgbee": 5715,
      "Ad": 5716,
      "jɛndi": 5717,
      "nhwi": 5718,
      "nhoma": 5719,
      "un": 5720,
      "xam": 5721,
      "ɔsɔre": 5722,
      "ɛbɔ": 5723,
      "nagblɔ": 5724,
      "wonoo": 5725,
      "memfa": 5726,
      "rizi": 5727,
      "tiba": 5728,
      "wuɣi": 5729,
      "teti": 5730,
      "boset": 5731,
      "fiakuku": 5732,
      "ponkɛseɛ": 5733,
      "Satana": 5734,
      "wòaɖu": 5735,
      "inwii": 5736,
      "aƒekɔ": 5737,
      "fɔe": 5738,
      "Pai": 5739,
      "nɔvinyɔnu": 5740,
      "Mía": 5741,
      "Ahaz": 5742,
      "rannaa": 5743,
      "nnɔmmarima": 5744,
      "viŋutsuwoe": 5745,
      "ash": 5746,
      "ablɔɖe": 5747,
      "ahohiahia": 5748,
      "ehavi": 5749,
      "kpiŋkpama": 5750,
      "Hezekia": 5751,
      "Agyenkwa": 5752,
      "ahyira": 5753,
      "ega": 5754,
      "zpa": 5755,
      "Ɔyɛ": 5756,
      "mamle": 5757,
      "metia": 5758,
      "kamina": 5759,
      "wɔyi": 5760,
      "aniwuo": 5761,
      "ŋuʋaʋã": 5762,
      "wuu": 5763,
      "seder": 5764,
      "dziŋgɔ": 5765,
      "molo": 5766,
      "pata": 5767,
      "Yesre": 5768,
      "dɔwɔla": 5769,
      "woayɔ": 5770,
      "pie": 5771,
      "ɖim": 5772,
      "tsito": 5773,
      "Wodo": 5774,
      "Nyanyui": 5775,
      "lãgbalẽ": 5776,
      "ntoɔ": 5777,
      "míekpɔ": 5778,
      "tuhibu": 5779,
      "afebɔɔ": 5780,
      "adwennini": 5781,
      "dwirii": 5782,
      "ŋgɔgbevi": 5783,
      "Ibram": 5784,
      "Vinvamli": 5785,
      "Yesreel": 5786,
      "Haran": 5787,
      "Omri": 5788,
      "ika": 5789,
      "laasabu": 5790,
      "metɔ": 5791,
      "metu": 5792,
      "siɣisi": 5793,
      "kuhigu": 5794,
      "tɔeɛ": 5795,
      "daan": 5796,
      "wòwu": 5797,
      "kyerɛkyerɛɛ": 5798,
      "kpala": 5799,
      "zilima": 5800,
      "míate": 5801,
      "ahosi": 5802,
      "ʋunya": 5803,
      "adekyeeɛ": 5804,
      "teƒea": 5805,
      "mmoɔ": 5806,
      "fɔɖiɖi": 5807,
      "abɔdeɛ": 5808,
      "kyɛre": 5809,
      "agbonu": 5810,
      "ɔsorosoro": 5811,
      "Baasa": 5812,
      "Kɔkɔ": 5813,
      "Gera": 5814,
      "kpekpeme": 5815,
      "Gbeɖe": 5816,
      "Arnon": 5817,
      "Maase": 5818,
      "Araba": 5819,
      "kulibɔŋ": 5820,
      "Bɛtɛl": 5821,
      "pateesa": 5822,
      "Amina": 5823,
      "Ekron": 5824,
      "glia": 5825,
      "zre": 5826,
      "meɖi": 5827,
      "nehas": 5828,
      "nuŋe": 5829,
      "kɔrigi": 5830,
      "fii": 5831,
      "momono": 5832,
      "rekasa": 5833,
      "dod": 5834,
      "heli": 5835,
      "ɔnkɔ": 5836,
      "mmakan": 5837,
      "binnyura": 5838,
      "akodie": 5839,
      "agyan": 5840,
      "monnyɛ": 5841,
      "mpomma": 5842,
      "tsri": 5843,
      "bimbina": 5844,
      "atuate": 5845,
      "fɔntin": 5846,
      "nanomu": 5847,
      "ŋutasẽ": 5848,
      "asubɔnten": 5849,
      "gbogboawo": 5850,
      "nuyiwo": 5851,
      "Aminadab": 5852,
      "Edo": 5853,
      "Piɛ": 5854,
      "Zaka": 5855,
      "adzi": 5856,
      "bbu": 5857,
      "mmiya": 5858,
      "makoa": 5859,
      "lama": 5860,
      "binna": 5861,
      "dzaa": 5862,
      "kumaa": 5863,
      "yada": 5864,
      "maan": 5865,
      "wamma": 5866,
      "Kari": 5867,
      "Kain": 5868,
      "Mari": 5869,
      "xɔ̃": 5870,
      "wɔantie": 5871,
      "wɔadã": 5872,
      "Sisera": 5873,
      "akorɔ": 5874,
      "wɔbɛma": 5875,
      "Jɛho": 5876,
      "subɔm": 5877,
      "etɔ̃awo": 5878,
      "kpoo": 5879,
      "nagyanom": 5880,
      "asoɔden": 5881,
      "Farisitɔwo": 5882,
      "weretɔ": 5883,
      "nkwaseafoɔ": 5884,
      "Chamiya": 5885,
      "Pailɛt": 5886,
      "Apam": 5887,
      "dà": 5888,
      "mpia": 5889,
      "ɔnyaa": 5890,
      "ɔtee": 5891,
      "ʋee": 5892,
      "nakɔ": 5893,
      "wonya": 5894,
      "wɔnya": 5895,
      "bahiri": 5896,
      "miwɔ": 5897,
      "bɛsɔre": 5898,
      "kuni": 5899,
      "kɔma": 5900,
      "wòɖi": 5901,
      "mora": 5902,
      "rekorɔ": 5903,
      "Maha": 5904,
      "chɛri": 5905,
      "Dahin": 5906,
      "wɔagye": 5907,
      "gyegyee": 5908,
      "mɛto": 5909,
      "chira": 5910,
      "ahansia": 5911,
      "alɔwo": 5912,
      "Kundi": 5913,
      "naɣilahi": 5914,
      "Gomora": 5915,
      "dwira": 5916,
      "Elkana": 5917,
      "maɖifɔ": 5918,
      "ntotorobɛnto": 5919,
      "Esiawoe": 5920,
      "ahuhudeɛ": 5921,
      "nhyehyɛeɛ": 5922,
      "Leeban": 5923,
      "Ayuba": 5924,
      "Kɔkɔeƒe": 5925,
      "Aho": 5926,
      "Afe": 5927,
      "ashi": 5928,
      "tsiawo": 5929,
      "ɔkyena": 5930,
      "kamaa": 5931,
      "dalia": 5932,
      "yeakpɔ": 5933,
      "kpaai": 5934,
      "ɖedzi": 5935,
      "bɛso": 5936,
      "aane": 5937,
      "fidie": 5938,
      "suetɔ": 5939,
      "Maligu": 5940,
      "dɔfo": 5941,
      "mianya": 5942,
      "hyɛnee": 5943,
      "Meɖo": 5944,
      "saamba": 5945,
      "adrɔ̃": 5946,
      "ƒuta": 5947,
      "kikaa": 5948,
      "fɔŋ": 5949,
      "sɛefoɔ": 5950,
      "pirigibu": 5951,
      "Shɛkɛm": 5952,
      "trɔ̃subɔlawo": 5953,
      "blukɔ": 5954,
      "abooboo": 5955,
      "nhwiren": 5956,
      "kamaata": 5957,
      "Bra": 5958,
      "Owura": 5959,
      "ahyehyɛ": 5960,
      "tani": 5961,
      "Ɔkaa": 5962,
      "Ɛnnɛ": 5963,
      "mada": 5964,
      "mase": 5965,
      "maɖu": 5966,
      "magblẽ": 5967,
      "laara": 5968,
      "yidana": 5969,
      "twitwaa": 5970,
      "sekel": 5971,
      "kɔkaa": 5972,
      "bɔbili": 5973,
      "bobo": 5974,
      "woatsi": 5975,
      "pore": 5976,
      "kpaŋa": 5977,
      "wɔafa": 5978,
      "kumdi": 5979,
      "binshɛlikam": 5980,
      "xevi": 5981,
      "ayitoma": 5982,
      "Haga": 5983,
      "esiam": 5984,
      "Isaka": 5985,
      "Amazia": 5986,
      "atwam": 5987,
      "nublanuikpɔkpɔ": 5988,
      "atemmufoɔ": 5989,
      "ɖekakpuiwo": 5990,
      "blɔtɔ": 5991,
      "ɛfata": 5992,
      "ʋɔnudrɔ̃lawo": 5993,
      "tegbetegbe": 5994,
      "Aro": 5995,
      "Kpa": 5996,
      "omununkum": 5997,
      "mekpe": 5998,
      "kawa": 5999,
      "tio": 6000,
      "tilig": 6001,
      "badia": 6002,
      "ɖeti": 6003,
      "wun": 6004,
      "kur": 6005,
      "tɔdzi": 6006,
      "wara": 6007,
      "wakyi": 6008,
      "wɔnnya": 6009,
      "naanu": 6010,
      "Maɖe": 6011,
      "woada": 6012,
      "namda": 6013,
      "Yosi": 6014,
      "alaka": 6015,
      "atitso": 6016,
      "monhunu": 6017,
      "Gidi": 6018,
      "Asaria": 6019,
      "ŋmari": 6020,
      "nnwane": 6021,
      "Hadade": 6022,
      "Abimelex": 6023,
      "teaam": 6024,
      "ʋeʋẽe": 6025,
      "Mariama": 6026,
      "Lo": 6027,
      "Nim": 6028,
      "flu": 6029,
      "ŋm": 6030,
      "ɔsuro": 6031,
      "woto": 6032,
      "womfoɔ": 6033,
      "sarika": 6034,
      "bɛgyinaa": 6035,
      "ŋudɔ": 6036,
      "daanabi": 6037,
      "wòka": 6038,
      "nyan": 6039,
      "pola": 6040,
      "miena": 6041,
      "zilinli": 6042,
      "Kerubi": 6043,
      "Nebat": 6044,
      "mɛdi": 6045,
      "wòate": 6046,
      "Sika": 6047,
      "nnepa": 6048,
      "Misraimhene": 6049,
      "Jɔsia": 6050,
      "akpanya": 6051,
      "dzidzimevi": 6052,
      "dɛde": 6053,
      "Míaƒe": 6054,
      "alɔme": 6055,
      "kuriti": 6056,
      "Jɛriko": 6057,
      "Yerixo": 6058,
      "suntidua": 6059,
      "daantalisi": 6060,
      "Zara": 6061,
      "kristo": 6062,
      "Ƒo": 6063,
      "naim": 6064,
      "neeɛ": 6065,
      "wuia": 6066,
      "sukɔm": 6067,
      "wasɛm": 6068,
      "hɛm": 6069,
      "renyɛ": 6070,
      "pako": 6071,
      "sɔhira": 6072,
      "mmaŋ": 6073,
      "mmasoɔ": 6074,
      "kpɔtɔ": 6075,
      "woabu": 6076,
      "woakplɔ": 6077,
      "piɛl": 6078,
      "nsakyera": 6079,
      "funya": 6080,
      "hwɛe": 6081,
      "ahoma": 6082,
      "Six": 6083,
      "adesoa": 6084,
      "pefee": 6085,
      "Nufiala": 6086,
      "wɔbɛfa": 6087,
      "aʋakplɔla": 6088,
      "daliri": 6089,
      "paɣir": 6090,
      "balime": 6091,
      "Hilkia": 6092,
      "Isakar": 6093,
      "Damaskus": 6094,
      "nkyekyɛ": 6095,
      "daadamnim": 6096,
      "Benaia": 6097,
      "ƒuƒoƒe": 6098,
      "Azaria": 6099,
      "nsusuiɛ": 6100,
      "dziŋgɔli": 6101,
      "En": 6102,
      "Mlɔ": 6103,
      "Nsuro": 6104,
      "Xana": 6105,
      "awe": 6106,
      "efa": 6107,
      "ini": 6108,
      "nsubɔ": 6109,
      "ɔkasa": 6110,
      "mabi": 6111,
      "maʋamaʋã": 6112,
      "wozu": 6113,
      "mekyerɛ": 6114,
      "dak": 6115,
      "dati": 6116,
      "nokwafoɔ": 6117,
      "nuto": 6118,
      "banin": 6119,
      "kɔbiri": 6120,
      "tem": 6121,
      "modi": 6122,
      "mopɛ": 6123,
      "buhi": 6124,
      "kemɛ": 6125,
      "wɔnɛ": 6126,
      "tugbe": 6127,
      "Yezre": 6128,
      "zana": 6129,
      "Mag": 6130,
      "vari": 6131,
      "woahunu": 6132,
      "chɛrubi": 6133,
      "Mesrɛ": 6134,
      "wɔanhunu": 6135,
      "ʒin": 6136,
      "akɔta": 6137,
      "ahom": 6138,
      "Sixem": 6139,
      "Yerusalemfoɔ": 6140,
      "Bepɔ": 6141,
      "yaansi": 6142,
      "womete": 6143,
      "dabitim": 6144,
      "akumaa": 6145,
      "lɛb": 6146,
      "boafoɔ": 6147,
      "tarimba": 6148,
      "Ahazia": 6149,
      "Siriafoɔ": 6150,
      "Asdod": 6151,
      "ntwamu": 6152,
      "ʋɔnudrɔ̃la": 6153,
      "bɔnhwa": 6154,
      "Antio": 6155,
      "Rɛhɔ": 6156,
      "apete": 6157,
      "naxɔ": 6158,
      "mabɔ": 6159,
      "woƒu": 6160,
      "meku": 6161,
      "wɔtumi": 6162,
      "bɛkyɛ": 6163,
      "mua": 6164,
      "wasase": 6165,
      "takpekpe": 6166,
      "bɔhiri": 6167,
      "woadze": 6168,
      "tsɔtsrɔ̃": 6169,
      "Monyi": 6170,
      "Mommma": 6171,
      "ruya": 6172,
      "kpakpɛ": 6173,
      "Mizpa": 6174,
      "afɛ": 6175,
      "amaŋmaŋ": 6176,
      "ɛntɛn": 6177,
      "yɔa": 6178,
      "Ameawo": 6179,
      "wòaɖo": 6180,
      "wɔwɔwo": 6181,
      "ʋuƒo": 6182,
      "kpowo": 6183,
      "aɖabɛ": 6184,
      "pihiyɔbu": 6185,
      "Hiram": 6186,
      "Gedalia": 6187,
      "ɣletiviwo": 6188,
      "ŋukpena": 6189,
      "gbemelãwo": 6190,
      "kotoku": 6191,
      "Rax": 6192,
      "Benaya": 6193,
      "Kpiɔŋ": 6194,
      "Yezreel": 6195,
      "Mu": 6196,
      "Ree": 6197,
      "mda": 6198,
      "nnyɛ": 6199,
      "nsene": 6200,
      "Ɛlia": 6201,
      "siliga": 6202,
      "bis": 6203,
      "biã": 6204,
      "miiɛ": 6205,
      "kɔƒewo": 6206,
      "tɔɣis": 6207,
      "muhu": 6208,
      "wòdzo": 6209,
      "bunsi": 6210,
      "bɔkɔɔ": 6211,
      "dunum": 6212,
      "zaia": 6213,
      "botan": 6214,
      "dɔfoɔ": 6215,
      "gblɔa": 6216,
      "woatɔ": 6217,
      "ntimita": 6218,
      "ɖii": 6219,
      "Mispa": 6220,
      "asetena": 6221,
      "zɔr": 6222,
      "aʋli": 6223,
      "ɔbɛgye": 6224,
      "aburoo": 6225,
      "Hagar": 6226,
      "dwerɛ": 6227,
      "gbãtɔwo": 6228,
      "gɔmee": 6229,
      "lɔlɔ̃tɔ": 6230,
      "tsalawo": 6231,
      "Amasa": 6232,
      "nnwammaa": 6233,
      "asrafowo": 6234,
      "kplakpla": 6235,
      "tuɣindi": 6236,
      "Barak": 6237,
      "gbuɣinli": 6238,
      "gɔmedzedzea": 6239,
      "ahwiesa": 6240,
      "lɔŋni": 6241,
      "ashilɔni": 6242,
      "atitsoga": 6243,
      "Ashi": 6244,
      "Taai": 6245,
      "nitɔwo": 6246,
      "wotsrɔ̃": 6247,
      "wɔnim": 6248,
      "deda": 6249,
      "bar": 6250,
      "bansi": 6251,
      "ŋue": 6252,
      "kɔhyiaa": 6253,
      "tɔtrɔ": 6254,
      "teƒetɔ": 6255,
      "wòsi": 6256,
      "kodeɛ": 6257,
      "dona": 6258,
      "kenkan": 6259,
      "naayi": 6260,
      "naaya": 6261,
      "sɔɣiri": 6262,
      "woatsɔe": 6263,
      "piti": 6264,
      "yɛligi": 6265,
      "Yehoram": 6266,
      "Mawudɔla": 6267,
      "kyink": 6268,
      "binnɛma": 6269,
      "tɛhiri": 6270,
      "hwene": 6271,
      "vɔsae": 6272,
      "ahemman": 6273,
      "ɔsoma": 6274,
      "Hekpe": 6275,
      "onipadua": 6276,
      "Nimaani": 6277,
      "dɛre": 6278,
      "adɔɔso": 6279,
      "laannima": 6280,
      "trɛɛ": 6281,
      "nkyɛmu": 6282,
      "akwaa": 6283,
      "Eliab": 6284,
      "viwòwo": 6285,
      "konyifa": 6286,
      "Hanania": 6287,
      "Kplɔ": 6288,
      "samban": 6289,
      "Zakaria": 6290,
      "ntwamutam": 6291,
      "Agbadɔ": 6292,
      "Iti": 6293,
      "fli": 6294,
      "onyansafoɔ": 6295,
      "nahim": 6296,
      "woɖa": 6297,
      "dabindi": 6298,
      "wɔsii": 6299,
      "tital": 6300,
      "yipa": 6301,
      "minɔ": 6302,
      "wali": 6303,
      "monyi": 6304,
      "paee": 6305,
      "torɔ": 6306,
      "chɛl": 6307,
      "porɔ": 6308,
      "asetɔ": 6309,
      "hãe": 6310,
      "Kerubim": 6311,
      "mɛbɔ": 6312,
      "abupɛn": 6313,
      "nànɔ": 6314,
      "ahasa": 6315,
      "gblẽm": 6316,
      "didime": 6317,
      "ʒiɛla": 6318,
      "nukunuwo": 6319,
      "klosaloga": 6320,
      "kesinɔtɔ": 6321,
      "kɔbisiyɔbu": 6322,
      "Hɛrɔd": 6323,
      "Wummiya": 6324,
      "Semaya": 6325,
      "Semaia": 6326,
      "ɖusime": 6327,
      "Ahennie": 6328,
      "karimbaani": 6329,
      "sankuo": 6330,
      "Efeso": 6331,
      "ahene": 6332,
      "ir": 6333,
      "mfɛfoɔ": 6334,
      "onua": 6335,
      "sh": 6336,
      "ŋmaai": 6337,
      "ɔkura": 6338,
      "ɖegbe": 6339,
      "milé": 6340,
      "taɣ": 6341,
      "nyanyuie": 6342,
      "pan": 6343,
      "wɔnhunu": 6344,
      "dɔre": 6345,
      "gogo": 6346,
      "biabia": 6347,
      "kpila": 6348,
      "nàna": 6349,
      "nnedua": 6350,
      "shihira": 6351,
      "mawudɔlawo": 6352,
      "nɔviŋutsu": 6353,
      "ntra": 6354,
      "Zede": 6355,
      "agbadɔwo": 6356,
      "dzadza": 6357,
      "sãa": 6358,
      "Hor": 6359,
      "Babiloniahene": 6360,
      "ʋĩtɔ": 6361,
      "tedziwo": 6362,
      "bibire": 6363,
      "nwono": 6364,
      "awɛi": 6365,
      "Gidiɔn": 6366,
      "akye": 6367,
      "fre": 6368,
      "ɛreba": 6369,
      "nanan": 6370,
      "matu": 6371,
      "mesɔ": 6372,
      "memma": 6373,
      "liawo": 6374,
      "deƒo": 6375,
      "milɛk": 6376,
      "kɔkyeree": 6377,
      "filim": 6378,
      "mum": 6379,
      "nyemaga": 6380,
      "tuuni": 6381,
      "dubu": 6382,
      "dubaako": 6383,
      "woaɖa": 6384,
      "Monyɛ": 6385,
      "Menim": 6386,
      "gota": 6387,
      "ɛmfiri": 6388,
      "Satan": 6389,
      "nnkɔ": 6390,
      "lɔ̃e": 6391,
      "nyɔnuviwo": 6392,
      "mmoro": 6393,
      "abɔwo": 6394,
      "mawuxɔ": 6395,
      "kasaŋku": 6396,
      "ŋlɔla": 6397,
      "Abimilɛk": 6398,
      "wotsɔe": 6399,
      "nnwanten": 6400,
      "noonsi": 6401,
      "Wunti": 6402,
      "triakɔ": 6403,
      "akoradeɛ": 6404,
      "sunsua": 6405,
      "Nnome": 6406,
      "ɔsrane": 6407,
      "nnwinneɛ": 6408,
      "Itamar": 6409,
      "Eu": 6410,
      "Nwoma": 6411,
      "adz": 6412,
      "abia": 6413,
      "ahyɛn": 6414,
      "mfrɛ": 6415,
      "nhye": 6416,
      "twɛ": 6417,
      "ur": 6418,
      "Ɖewo": 6419,
      "wohe": 6420,
      "wobɛyɛ": 6421,
      "kakɛ": 6422,
      "let": 6423,
      "yɛr": 6424,
      "bilim": 6425,
      "bɛyɛɛ": 6426,
      "bɛduru": 6427,
      "rebɔ": 6428,
      "farigu": 6429,
      "boasetɔ": 6430,
      "lododo": 6431,
      "kpɔna": 6432,
      "woalé": 6433,
      "woawui": 6434,
      "nnidi": 6435,
      "baason": 6436,
      "akɔfa": 6437,
      "agbu": 6438,
      "fet": 6439,
      "abɔsoɔ": 6440,
      "dimnima": 6441,
      "kɔkɔeawo": 6442,
      "damdi": 6443,
      "adreawo": 6444,
      "Amasia": 6445,
      "atɔfoɔ": 6446,
      "sunsum": 6447,
      "tsyɔ̃e": 6448,
      "firafoɔ": 6449,
      "mmuaeɛ": 6450,
      "Biɛhiŋ": 6451,
      "abususɛm": 6452,
      "Biribiara": 6453,
      "Yosiya": 6454,
      "Mlɔeba": 6455,
      "Ak": 6456,
      "Asia": 6457,
      "Asomdwoeɛ": 6458,
      "Dzɔ": 6459,
      "Etio": 6460,
      "Ham": 6461,
      "Raba": 6462,
      "atsu": 6463,
      "mpu": 6464,
      "ŋman": 6465,
      "ɛhe": 6466,
      "ɛboro": 6467,
      "nisuo": 6468,
      "mavɔ̃": 6469,
      "mesu": 6470,
      "mebia": 6471,
      "kurigi": 6472,
      "kɔr": 6473,
      "tɔɣu": 6474,
      "wabɔ": 6475,
      "renu": 6476,
      "kekaa": 6477,
      "rɛma": 6478,
      "tub": 6479,
      "duɣi": 6480,
      "sɔti": 6481,
      "gbesigbe": 6482,
      "hel": 6483,
      "Mate": 6484,
      "Maki": 6485,
      "dɔléle": 6486,
      "tsoe": 6487,
      "Meyɛ": 6488,
      "nɛl": 6489,
      "nèkpɔ": 6490,
      "somm": 6491,
      "mmuada": 6492,
      "Tir": 6493,
      "kasaeɛ": 6494,
      "risigu": 6495,
      "Ahikam": 6496,
      "Bubu": 6497,
      "basabasa": 6498,
      "zɔzɔme": 6499,
      "ntotosoɔ": 6500,
      "mprɛnsa": 6501,
      "tsiɖitsiɖi": 6502,
      "nahennie": 6503,
      "nuxeƒewo": 6504,
      "tofel": 6505,
      "fiig": 6506,
      "nkyekyɛmu": 6507,
      "Zedekiya": 6508,
      "Atwerɛfoɔ": 6509,
      "Eden": 6510,
      "Obadia": 6511,
      "anyo": 6512,
      "enɔƒe": 6513,
      "prannaa": 6514,
      "rna": 6515,
      "ŋgba": 6516,
      "woli": 6517,
      "wowɔa": 6518,
      "megblẽ": 6519,
      "kpeƒe": 6520,
      "balim": 6521,
      "mikpɔ": 6522,
      "bɛhwɛ": 6523,
      "wasefoɔ": 6524,
      "taim": 6525,
      "wòwo": 6526,
      "wòdi": 6527,
      "wòtɔ": 6528,
      "koŋ": 6529,
      "dzideƒo": 6530,
      "renka": 6531,
      "pakoli": 6532,
      "fari": 6533,
      "Mal": 6534,
      "dɔɣ": 6535,
      "woaku": 6536,
      "wɔate": 6537,
      "gyeeɛ": 6538,
      "yoya": 6539,
      "lalam": 6540,
      "akaka": 6541,
      "xar": 6542,
      "kpuie": 6543,
      "tsyo": 6544,
      "womeɖo": 6545,
      "paag": 6546,
      "atemmudeɛ": 6547,
      "laɣindi": 6548,
      "laɣibaligu": 6549,
      "Aizaia": 6550,
      "Rimon": 6551,
      "Sarai": 6552,
      "dziɖulawo": 6553,
      "Keenannim": 6554,
      "sededewo": 6555,
      "klalo": 6556,
      "fononoo": 6557,
      "Ali": 6558,
      "Bani": 6559,
      "Hafi": 6560,
      "Og": 6561,
      "aƒ": 6562,
      "nasɛm": 6563,
      "kabii": 6564,
      "dami": 6565,
      "sana": 6566,
      "dihiri": 6567,
      "kɔto": 6568,
      "kɔmewu": 6569,
      "daannim": 6570,
      "talahi": 6571,
      "hadad": 6572,
      "kerubi": 6573,
      "tuh": 6574,
      "far": 6575,
      "gula": 6576,
      "guiɛ": 6577,
      "woatrɔ": 6578,
      "Monka": 6579,
      "Mommra": 6580,
      "baal": 6581,
      "Meka": 6582,
      "wɔanya": 6583,
      "miegbe": 6584,
      "zɔnim": 6585,
      "Sihon": 6586,
      "atiawo": 6587,
      "nèɖe": 6588,
      "melek": 6589,
      "Seru": 6590,
      "xarya": 6591,
      "fer": 6592,
      "yihibu": 6593,
      "xɔasiwo": 6594,
      "jɛrigu": 6595,
      "aklama": 6596,
      "Herodes": 6597,
      "Ŋutifafa": 6598,
      "Bɛtili": 6599,
      "saŋmarisi": 6600,
      "nachimbil": 6601,
      "Adi": 6602,
      "Anka": 6603,
      "chɔ": 6604,
      "yrɔ": 6605,
      "ènya": 6606,
      "nalé": 6607,
      "napɔŋ": 6608,
      "labiri": 6609,
      "dapuhi": 6610,
      "wɔtwa": 6611,
      "sanee": 6612,
      "bɛtɔ": 6613,
      "ŋudzedze": 6614,
      "kuŋ": 6615,
      "sere": 6616,
      "wanya": 6617,
      "wòtu": 6618,
      "wòfɔ": 6619,
      "nyemate": 6620,
      "redi": 6621,
      "toƒe": 6622,
      "dutun": 6623,
      "ɣie": 6624,
      "nkoraa": 6625,
      "pooi": 6626,
      "ɖuɖɔ": 6627,
      "dzɔla": 6628,
      "nɛr": 6629,
      "míanɔ": 6630,
      "mɛgye": 6631,
      "ahodeɛ": 6632,
      "subɔa": 6633,
      "kikahi": 6634,
      "míenya": 6635,
      "merehyɛ": 6636,
      "amanneɛ": 6637,
      "nahiŋgu": 6638,
      "ninsala": 6639,
      "jɛrilim": 6640,
      "mmɔborɔni": 6641,
      "nuwɔwɔwo": 6642,
      "sulinsi": 6643,
      "Kiriat": 6644,
      "Dario": 6645,
      "ayra": 6646,
      "frɔ": 6647,
      "èna": 6648,
      "èwɔ": 6649,
      "maba": 6650,
      "wodɔ": 6651,
      "mehe": 6652,
      "mewɔa": 6653,
      "linsi": 6654,
      "weros": 6655,
      "nufi": 6656,
      "sen": 6657,
      "kɔbɔɔ": 6658,
      "tale": 6659,
      "koo": 6660,
      "moma": 6661,
      "hatsotso": 6662,
      "vihi": 6663,
      "mmani": 6664,
      "tsom": 6665,
      "wɔakɔ": 6666,
      "saawara": 6667,
      "San": 6668,
      "biɛli": 6669,
      "biɛyanim": 6670,
      "ahobrɛ": 6671,
      "kekeme": 6672,
      "Sirianim": 6673,
      "perɛ": 6674,
      "bahindi": 6675,
      "Tie": 6676,
      "Filistitɔ": 6677,
      "mʼakoma": 6678,
      "tɔɣisibu": 6679,
      "ntwɛn": 6680,
      "Zaxarya": 6681,
      "ɣlidodo": 6682,
      "honhommɔne": 6683,
      "agbalẽfialawo": 6684,
      "Yohanan": 6685,
      "ʋetsu": 6686,
      "Midiantɔwo": 6687,
      "Zuliya": 6688,
      "ŋutasesẽ": 6689,
      "biinsi": 6690,
      "Ahemfo": 6691,
      "pagɔrisigu": 6692,
      "Boas": 6693,
      "Abosam": 6694,
      "tɔdziʋu": 6695,
      "Kpiɔŋlan": 6696,
      "Bɛtilihɛm": 6697,
      "Nkuro": 6698,
      "ax": 6699,
      "akyekyere": 6700,
      "eŋgɔ": 6701,
      "mbihi": 6702,
      "Ɔbɛ": 6703,
      "naso": 6704,
      "mai": 6705,
      "metɔwo": 6706,
      "netsɔ": 6707,
      "sak": 6708,
      "sodifoɔ": 6709,
      "nuwò": 6710,
      "nufoɔ": 6711,
      "seƒoƒo": 6712,
      "kɔfaa": 6713,
      "nyateƒetɔ": 6714,
      "wɔnte": 6715,
      "tumo": 6716,
      "shɛhi": 6717,
      "gbadz": 6718,
      "baanan": 6719,
      "gyaee": 6720,
      "kyini": 6721,
      "nnante": 6722,
      "nkanea": 6723,
      "anhunu": 6724,
      "akyinnye": 6725,
      "atikplɔ": 6726,
      "fofoe": 6727,
      "Sem": 6728,
      "nàdo": 6729,
      "Gibi": 6730,
      "kukuawo": 6731,
      "piɛma": 6732,
      "kware": 6733,
      "wɔrebɛ": 6734,
      "ƒãa": 6735,
      "ɔwɔtwe": 6736,
      "bɔbɔe": 6737,
      "Anania": 6738,
      "agado": 6739,
      "kɔbisita": 6740,
      "Elisama": 6741,
      "Libna": 6742,
      "nuteƒewɔla": 6743,
      "anukware": 6744,
      "bometsilawo": 6745,
      "Niŋmiya": 6746,
      "gbilisi": 6747,
      "kawana": 6748,
      "agbugbɔ": 6749,
      "Lé": 6750,
      "Shu": 6751,
      "Teƒe": 6752,
      "akwa": 6753,
      "ntɛ": 6754,
      "nketewa": 6755,
      "Ɛnam": 6756,
      "naku": 6757,
      "mamfoɔ": 6758,
      "katiŋa": 6759,
      "neva": 6760,
      "wɔba": 6761,
      "wɔsɔre": 6762,
      "wɔgyina": 6763,
      "bibim": 6764,
      "mim": 6765,
      "mudeɛ": 6766,
      "watamfo": 6767,
      "dzim": 6768,
      "mobɛyɛ": 6769,
      "palɔni": 6770,
      "tutuu": 6771,
      "yɛnni": 6772,
      "dinn": 6773,
      "asamando": 6774,
      "Mizi": 6775,
      "dzelawo": 6776,
      "amaŋa": 6777,
      "Yoel": 6778,
      "ntenten": 6779,
      "wumpaɣi": 6780,
      "bahira": 6781,
      "monnye": 6782,
      "fesre": 6783,
      "azɔli": 6784,
      "Pinehas": 6785,
      "vɔsamlekpuia": 6786,
      "vɔsamlekpuiwo": 6787,
      "Hosea": 6788,
      "asiekɛ": 6789,
      "nnuru": 6790,
      "bometsitsi": 6791,
      "nnwene": 6792,
      "Yehoiakim": 6793,
      "Atalia": 6794,
      "kɔsɔkɔsɔ": 6795,
      "Oholiba": 6796,
      "tumtumda": 6797,
      "tɔgbuiyɔvi": 6798,
      "wumpaɣibo": 6799,
      "Al": 6800,
      "Az": 6801,
      "Enɔ": 6802,
      "awi": 6803,
      "nhwa": 6804,
      "okunafoɔ": 6805,
      "olivi": 6806,
      "Ŋɔ": 6807,
      "ɔbrɛ": 6808,
      "ɛkorɔn": 6809,
      "nakwan": 6810,
      "nakoa": 6811,
      "megã": 6812,
      "leg": 6813,
      "yɛmfa": 6814,
      "bebu": 6815,
      "sopo": 6816,
      "mise": 6817,
      "kusi": 6818,
      "kɔra": 6819,
      "wɔnnye": 6820,
      "mɔt": 6821,
      "mɔzɔzɔ": 6822,
      "wɔabu": 6823,
      "wɔannya": 6824,
      "vuhi": 6825,
      "Sane": 6826,
      "Nee": 6827,
      "Amegã": 6828,
      "kplɔa": 6829,
      "abotan": 6830,
      "birini": 6831,
      "agbenɔ": 6832,
      "mpaboa": 6833,
      "krataa": 6834,
      "talima": 6835,
      "Abinɛr": 6836,
      "Ahasia": 6837,
      "ŋeŋe": 6838,
      "firani": 6839,
      "vɔvɔ̃m": 6840,
      "mamlɛa": 6841,
      "lãnyiƒewo": 6842,
      "nkotosrɛ": 6843,
      "Wuntizɔ": 6844,
      "Ju": 6845,
      "lui": 6846,
      "tsɛ": 6847,
      "ɔtuu": 6848,
      "ʋi": 6849,
      "ʋui": 6850,
      "mekplɔ": 6851,
      "kame": 6852,
      "wɔtenaa": 6853,
      "tini": 6854,
      "dilana": 6855,
      "miɔn": 6856,
      "wua": 6857,
      "hare": 6858,
      "rewa": 6859,
      "lɔbu": 6860,
      "gaɖo": 6861,
      "firim": 6862,
      "miayi": 6863,
      "miase": 6864,
      "miado": 6865,
      "nsateaa": 6866,
      "Minɔ": 6867,
      "Mena": 6868,
      "hwɛeɛ": 6869,
      "ɔbɛyi": 6870,
      "xeviwo": 6871,
      "wɔbɛtwa": 6872,
      "fenaa": 6873,
      "ahanson": 6874,
      "kraman": 6875,
      "dware": 6876,
      "bɔrila": 6877,
      "womenya": 6878,
      "mʼagya": 6879,
      "nkuropɔn": 6880,
      "ninsali": 6881,
      "laakum": 6882,
      "hwiee": 6883,
      "ɔpapo": 6884,
      "dzidadawo": 6885,
      "Silas": 6886,
      "Rɛhɔbɔ": 6887,
      "etrɔ": 6888,
      "hũ": 6889,
      "ɔfoforɔ": 6890,
      "ɔkumm": 6891,
      "nabihi": 6892,
      "masɔ": 6893,
      "wokpe": 6894,
      "wɔame": 6895,
      "ɖesia": 6896,
      "miaa": 6897,
      "kɔtoo": 6898,
      "teateaa": 6899,
      "bula": 6900,
      "Nan": 6901,
      "Nane": 6902,
      "duh": 6903,
      "rɔt": 6904,
      "zuɣulaannima": 6905,
      "woahe": 6906,
      "nsoa": 6907,
      "miegblɔ": 6908,
      "annye": 6909,
      "frate": 6910,
      "mmobɔeɛ": 6911,
      "mpataa": 6912,
      "mereka": 6913,
      "merekɔ": 6914,
      "nnwanhwɛfoɔ": 6915,
      "saɣindi": 6916,
      "ayera": 6917,
      "Mmarima": 6918,
      "afotuo": 6919,
      "ablɔwo": 6920,
      "nnommumfa": 6921,
      "agbɔsɔsɔ": 6922,
      "Ishima": 6923,
      "atɛ": 6924,
      "iza": 6925,
      "zɔn": 6926,
      "nate": 6927,
      "maeɛ": 6928,
      "wodzra": 6929,
      "daŋa": 6930,
      "wɔtuu": 6931,
      "wɔmmɔ": 6932,
      "yɛnim": 6933,
      "yɛnam": 6934,
      "kpani": 6935,
      "soo": 6936,
      "biɖi": 6937,
      "kɔduru": 6938,
      "fifiri": 6939,
      "ɖodzinu": 6940,
      "hede": 6941,
      "guhiri": 6942,
      "fiafi": 6943,
      "niŋmiya": 6944,
      "ɖiŋu": 6945,
      "fune": 6946,
      "Ner": 6947,
      "suhusaɣiŋgu": 6948,
      "adelia": 6949,
      "birili": 6950,
      "wɔbɛsɛe": 6951,
      "Asahel": 6952,
      "dzidzɔkpɔkpɔ": 6953,
      "amiti": 6954,
      "alahichinim": 6955,
      "akunafoɔ": 6956,
      "mekpɔa": 6957,
      "Babelhene": 6958,
      "Goli": 6959,
      "nkyene": 6960,
      "tinzunnim": 6961,
      "Gaza": 6962,
      "nachimba": 6963,
      "nabufuo": 6964,
      "Yiɣisim": 6965,
      "Eufrate": 6966,
      "ɖesiaɖe": 6967,
      "Zɔ": 6968,
      "eku": 6969,
      "etso": 6970,
      "etsi": 6971,
      "ƒia": 6972,
      "wobia": 6973,
      "menam": 6974,
      "dalim": 6975,
      "wɔkumm": 6976,
      "yɛnyɛ": 6977,
      "sabiri": 6978,
      "anifirafoɔ": 6979,
      "kuɣi": 6980,
      "filiŋ": 6981,
      "koaa": 6982,
      "nyemele": 6983,
      "nyala": 6984,
      "dodom": 6985,
      "tusa": 6986,
      "gail": 6987,
      "heɖo": 6988,
      "gbaliŋ": 6989,
      "kpɔkplɔ": 6990,
      "tsɔm": 6991,
      "pila": 6992,
      "tsitsiawo": 6993,
      "Woakafu": 6994,
      "abeam": 6995,
      "wɔantumi": 6996,
      "ʒila": 6997,
      "pɛyɛ": 6998,
      "wòagblɔ": 6999,
      "evea": 7000,
      "ɔbɛhunu": 7001,
      "ɔbɛtena": 7002,
      "Bashan": 7003,
      "nkwase": 7004,
      "piɛlaa": 7005,
      "Abigail": 7006,
      "ɔreba": 7007,
      "Babilɔ": 7008,
      "tumdila": 7009,
      "ʒiɛri": 7010,
      "ɖɔli": 7011,
      "fiaɖuƒewo": 7012,
      "meɖoa": 7013,
      "Yufre": 7014,
      "kurili": 7015,
      "mpema": 7016,
      "Jɛhɔiada": 7017,
      "tiiz": 7018,
      "ŋmɛli": 7019,
      "mmɔntene": 7020,
      "nukaŋuti": 7021,
      "tamdigu": 7022,
      "duŋtaa": 7023,
      "Rexabeam": 7024,
      "duonu": 7025,
      "tɔsisiwo": 7026,
      "Yufretiiz": 7027,
      "Ade": 7028,
      "Eber": 7029,
      "Uzia": 7030,
      "aya": 7031,
      "axe": 7032,
      "ayare": 7033,
      "tni": 7034,
      "nasɔ": 7035,
      "nadwa": 7036,
      "makyi": 7037,
      "woxlẽ": 7038,
      "menhunu": 7039,
      "damena": 7040,
      "tiwala": 7041,
      "sabili": 7042,
      "yeaɖe": 7043,
      "yibu": 7044,
      "yinima": 7045,
      "kuntu": 7046,
      "Nabot": 7047,
      "zabili": 7048,
      "galim": 7049,
      "hewɔ": 7050,
      "Matania": 7051,
      "kyeɛ": 7052,
      "miaɖe": 7053,
      "mianye": 7054,
      "miaxɔ": 7055,
      "Mil": 7056,
      "enea": 7057,
      "wɔagya": 7058,
      "Yok": 7059,
      "Kehat": 7060,
      "dzowo": 7061,
      "tsuwo": 7062,
      "biɛlim": 7063,
      "Nege": 7064,
      "pamm": 7065,
      "afidie": 7066,
      "Alesi": 7067,
      "shini": 7068,
      "agboa": 7069,
      "Wɔka": 7070,
      "Pas": 7071,
      "mprenu": 7072,
      "asodie": 7073,
      "ƒometɔ": 7074,
      "wotsɔa": 7075,
      "amiliya": 7076,
      "agblede": 7077,
      "kalinsi": 7078,
      "adrẽlia": 7079,
      "ɔdanee": 7080,
      "ŋubbu": 7081,
      "apiti": 7082,
      "apɛdeɛ": 7083,
      "atirimuɔden": 7084,
      "nsubɔntene": 7085,
      "Fɔ": 7086,
      "Tili": 7087,
      "ahlẽ": 7088,
      "kyɛn": 7089,
      "lí": 7090,
      "okum": 7091,
      "ɔtua": 7092,
      "ẽe": 7093,
      "naƒo": 7094,
      "wofɔ": 7095,
      "wɔriba": 7096,
      "bebe": 7097,
      "rai": 7098,
      "ŋua": 7099,
      "fiboset": 7100,
      "wal": 7101,
      "kotoo": 7102,
      "movi": 7103,
      "red": 7104,
      "doma": 7105,
      "bɔhigu": 7106,
      "sɔdolawo": 7107,
      "hedze": 7108,
      "woatu": 7109,
      "nsono": 7110,
      "maliya": 7111,
      "Wowu": 7112,
      "Wonye": 7113,
      "Mefiboset": 7114,
      "lugbɔ": 7115,
      "wòaku": 7116,
      "atiwo": 7117,
      "neebu": 7118,
      "adamfo": 7119,
      "nnuane": 7120,
      "Refa": 7121,
      "yewoawɔ": 7122,
      "adansefoɔ": 7123,
      "Amalɛk": 7124,
      "aɖui": 7125,
      "mlɔe": 7126,
      "ntwemu": 7127,
      "apɔnkɔsotefoɔ": 7128,
      "Tɔ́nye": 7129,
      "Amalekitɔwo": 7130,
      "ŋahili": 7131,
      "mumuyɛfoɔ": 7132,
      "Karimba": 7133,
      "gyegyeegye": 7134,
      "Etiopia": 7135,
      "Negeb": 7136,
      "Mba": 7137,
      "Rɛ": 7138,
      "ahyeɛ": 7139,
      "ahwehwɛ": 7140,
      "apini": 7141,
      "Ɔsɔfo": 7142,
      "Ɛpo": 7143,
      "ɛmaa": 7144,
      "ɛhyɛ": 7145,
      "ɛboɔ": 7146,
      "mennim": 7147,
      "sigɛ": 7148,
      "wɔdɔ": 7149,
      "yɛrigi": 7150,
      "yɛayɛ": 7151,
      "mir": 7152,
      "suban": 7153,
      "subonhwa": 7154,
      "tawò": 7155,
      "bulɔn": 7156,
      "haw": 7157,
      "zaɣim": 7158,
      "bosuo": 7159,
      "miagblɔ": 7160,
      "suhuyubu": 7161,
      "Amea": 7162,
      "Simiɔn": 7163,
      "Siiza": 7164,
      "aduɔwɔtwe": 7165,
      "nèɖo": 7166,
      "miyana": 7167,
      "Nuhu": 7168,
      "Jɛsi": 7169,
      "aʋalawo": 7170,
      "agbagbe": 7171,
      "mpapo": 7172,
      "Haza": 7173,
      "wowɔna": 7174,
      "gboti": 7175,
      "nokorɛdie": 7176,
      "kpuɣiri": 7177,
      "bobesa": 7178,
      "Zɛbulɔn": 7179,
      "enyilia": 7180,
      "zahimbu": 7181,
      "Abel": 7182,
      "subɔsubɔdɔ": 7183,
      "mahyɛdeɛ": 7184,
      "Dukɔwo": 7185,
      "pradada": 7186,
      "Yebusifoɔ": 7187,
      "ɔyaredɔm": 7188,
      "nudzraɖoƒe": 7189,
      "Edze": 7190,
      "Vɔ": 7191,
      "abisa": 7192,
      "ema": 7193,
      "jin": 7194,
      "ŋmaa": 7195,
      "ŋoo": 7196,
      "mas": 7197,
      "mekyerɛɛ": 7198,
      "baɣisi": 7199,
      "bɛgyina": 7200,
      "wòdɔ": 7201,
      "moanya": 7202,
      "zua": 7203,
      "ɖonu": 7204,
      "Kape": 7205,
      "woato": 7206,
      "Miwɔ": 7207,
      "asibi": 7208,
      "Media": 7209,
      "fua": 7210,
      "amama": 7211,
      "wɔakum": 7212,
      "miedo": 7213,
      "Yudani": 7214,
      "ahosiwo": 7215,
      "pepa": 7216,
      "Wɔre": 7217,
      "kyɛne": 7218,
      "ŋlɔm": 7219,
      "Ninsa": 7220,
      "bidibis": 7221,
      "Abinadab": 7222,
      "aɖatsi": 7223,
      "banbɔ": 7224,
      "akee": 7225,
      "kotokuo": 7226,
      "Mikal": 7227,
      "monnsuro": 7228,
      "Dziƒoʋĩtɔ": 7229,
      "kafukafuha": 7230,
      "Kaldeatɔwo": 7231,
      "numemevɔsa": 7232,
      "bidibbina": 7233,
      "dɔɣirikpamba": 7234,
      "rnaum": 7235,
      "Rɛhɔbɔam": 7236,
      "Ishimail": 7237,
      "Kapernaum": 7238,
      "Duni": 7239,
      "Dze": 7240,
      "ayo": 7241,
      "aprannaa": 7242,
      "tsra": 7243,
      "ɛren": 7244,
      "nafa": 7245,
      "natadeɛ": 7246,
      "manyo": 7247,
      "woyɛɛ": 7248,
      "melã": 7249,
      "mefrɛ": 7250,
      "yɛbɛyɛ": 7251,
      "sagbani": 7252,
      "beli": 7253,
      "dila": 7254,
      "sɛsɛɛ": 7255,
      "kɔguu": 7256,
      "kɔnyuri": 7257,
      "mumu": 7258,
      "wagye": 7259,
      "monom": 7260,
      "buŋ": 7261,
      "ton": 7262,
      "farisi": 7263,
      "heɖe": 7264,
      "Manoa": 7265,
      "kyekyerɛ": 7266,
      "miana": 7267,
      "pipia": 7268,
      "hyɛdeɛ": 7269,
      "nɛɔŋ": 7270,
      "animgu": 7271,
      "toondana": 7272,
      "tummɛ": 7273,
      "Baptaizi": 7274,
      "twafoɔ": 7275,
      "nunɔamesiwo": 7276,
      "tenatenaa": 7277,
      "baŋdi": 7278,
      "wuiɖekɛ": 7279,
      "kposɔ": 7280,
      "duruiɛ": 7281,
      "Peka": 7282,
      "fɛw": 7283,
      "teneneefoɔ": 7284,
      "amanamanmufoɔ": 7285,
      "nyɛvil": 7286,
      "Geba": 7287,
      "Ahimaa": 7288,
      "hinhim": 7289,
      "mpaeɛbɔ": 7290,
      "Shɛma": 7291,
      "godoƒe": 7292,
      "wɔɣila": 7293,
      "dunɔdaya": 7294,
      "kyerɛkyerɛfoɔ": 7295,
      "nantee": 7296,
      "xlɔ̃m": 7297,
      "saɣisigu": 7298,
      "Baraba": 7299,
      "popoɔ": 7300,
      "fiɛb": 7301,
      "Mbaye": 7302,
      "Bat": 7303,
      "Oyi": 7304,
      "dwumfoɔ": 7305,
      "fla": 7306,
      "nde": 7307,
      "limiya": 7308,
      "wɔɣa": 7309,
      "wɔhwehwɛ": 7310,
      "wɔtwaa": 7311,
      "tiel": 7312,
      "yɛahunu": 7313,
      "ŋunyɔnuwo": 7314,
      "yaɣa": 7315,
      "hor": 7316,
      "wainka": 7317,
      "Nasa": 7318,
      "Kanaani": 7319,
      "miaɖo": 7320,
      "niŋda": 7321,
      "puɣisi": 7322,
      "miedi": 7323,
      "mienyae": 7324,
      "yooi": 7325,
      "bubumewo": 7326,
      "wummi": 7327,
      "Nusrɔ̃": 7328,
      "fofoawo": 7329,
      "mmɔreka": 7330,
      "mpaperɛ": 7331,
      "pahila": 7332,
      "ŋusẽtɔ": 7333,
      "Egiptenyigba": 7334,
      "Nini": 7335,
      "piɛbi": 7336,
      "piɛɣu": 7337,
      "tɔɣisirila": 7338,
      "wobɛhunu": 7339,
      "xɔsetɔ": 7340,
      "Amos": 7341,
      "mlɔenu": 7342,
      "vinyenye": 7343,
      "Lakis": 7344,
      "Aramtɔwo": 7345,
      "kɔbiliga": 7346,
      "aflaga": 7347,
      "Mizipa": 7348,
      "Tiligi": 7349,
      "Eyi": 7350,
      "Frat": 7351,
      "asiane": 7352,
      "exɔ": 7353,
      "eŋkɔ": 7354,
      "rã": 7355,
      "xaa": 7356,
      "ɔsɔ": 7357,
      "ɔforo": 7358,
      "medzi": 7359,
      "menka": 7360,
      "nyẽ": 7361,
      "lel": 7362,
      "yiɣiri": 7363,
      "nutome": 7364,
      "sɛntimita": 7365,
      "kulawo": 7366,
      "tɔnn": 7367,
      "wòvi": 7368,
      "mor": 7369,
      "bɔzuɣu": 7370,
      "faani": 7371,
      "Kasa": 7372,
      "wɛmfoɔ": 7373,
      "kpɔɖeŋu": 7374,
      "woasubɔ": 7375,
      "ntira": 7376,
      "pirim": 7377,
      "rub": 7378,
      "ŋutitoto": 7379,
      "biɛr": 7380,
      "Nebu": 7381,
      "asɛmmɔne": 7382,
      "gãnyenye": 7383,
      "teebu": 7384,
      "abɔta": 7385,
      "gblẽa": 7386,
      "mpofirim": 7387,
      "ŋlɔe": 7388,
      "gariti": 7389,
      "ɔkaeɛ": 7390,
      "drɔ̃a": 7391,
      "akpɔe": 7392,
      "tsatsam": 7393,
      "Anato": 7394,
      "Kuro": 7395,
      "nɔƒewo": 7396,
      "Nɔvi": 7397,
      "Kɔkɔetɔ": 7398,
      "weingble": 7399,
      "metsovɔ": 7400,
      "Asɛmpa": 7401,
      "Ŋutitoto": 7402,
      "Abiatar": 7403,
      "Yebusitɔwo": 7404,
      "Sɔdom": 7405,
      "nyinsɛnee": 7406,
      "Baptaizira": 7407,
      "Akyire": 7408,
      "Taa": 7409,
      "Trɔ": 7410,
      "Tene": 7411,
      "aforo": 7412,
      "krɛma": 7413,
      "otitire": 7414,
      "zya": 7415,
      "àte": 7416,
      "mala": 7417,
      "masɛm": 7418,
      "wɔfrɛɛ": 7419,
      "yeawu": 7420,
      "sono": 7421,
      "rante": 7422,
      "yisɛm": 7423,
      "kusuu": 7424,
      "kɔnu": 7425,
      "wadɔeɛ": 7426,
      "koogya": 7427,
      "pasapa": 7428,
      "toli": 7429,
      "totɔ": 7430,
      "vidzĩ": 7431,
      "gatrɔ": 7432,
      "Kai": 7433,
      "rɔm": 7434,
      "ntim": 7435,
      "Milé": 7436,
      "ɛnte": 7437,
      "akɔkoraa": 7438,
      "pɛfoɔ": 7439,
      "wòade": 7440,
      "ŋutsuviwo": 7441,
      "nyuitɔwo": 7442,
      "nʼakodɔm": 7443,
      "frankaa": 7444,
      "biɛrisuŋ": 7445,
      "Jɛrusalɛmnima": 7446,
      "kafui": 7447,
      "niŋdiba": 7448,
      "nsɛn": 7449,
      "mobɛnya": 7450,
      "shai": 7451,
      "agbalẽŋlɔla": 7452,
      "viɛlim": 7453,
      "gliawo": 7454,
      "Kores": 7455,
      "kaneadua": 7456,
      "abirekyie": 7457,
      "woŋlɔe": 7458,
      "nkɔmhyɛ": 7459,
      "nsɔano": 7460,
      "Huram": 7461,
      "Zuɣu": 7462,
      "gbɔdzɔe": 7463,
      "Abiata": 7464,
      "nunono": 7465,
      "Simson": 7466,
      "susɔeawo": 7467,
      "amɔwɔ": 7468,
      "nneduafoɔ": 7469,
      "koogyan": 7470,
      "pasapasa": 7471,
      "Ava": 7472,
      "Asha": 7473,
      "Chu": 7474,
      "Mfa": 7475,
      "Mel": 7476,
      "Ste": 7477,
      "kri": 7478,
      "Ŋku": 7479,
      "ɔkum": 7480,
      "matɔ": 7481,
      "wiinwii": 7482,
      "nuda": 7483,
      "nutɔ": 7484,
      "bɛtwe": 7485,
      "kɔgyinaa": 7486,
      "fir": 7487,
      "wòkeke": 7488,
      "bui": 7489,
      "hadzilawo": 7490,
      "Maɖo": 7491,
      "zaŋmi": 7492,
      "ɖatɔ": 7493,
      "anyinam": 7494,
      "mɔ̀": 7495,
      "golo": 7496,
      "hunuiɛ": 7497,
      "ŋutiwò": 7498,
      "míatsɔ": 7499,
      "afiã": 7500,
      "wɔbɛfrɛ": 7501,
      "atentene": 7502,
      "kɔkɔetɔ": 7503,
      "dwanee": 7504,
      "mmirekyie": 7505,
      "tsitretsitsi": 7506,
      "beble": 7507,
      "kpekpeɖeŋu": 7508,
      "ɔsetie": 7509,
      "Teman": 7510,
      "nyitsuvi": 7511,
      "dwumadie": 7512,
      "Mereka": 7513,
      "Raxel": 7514,
      "Reechɛl": 7515,
      "Makir": 7516,
      "Ɔsɔfopanin": 7517,
      "godoƒegbadɔ": 7518,
      "Stefa": 7519,
      "Aki": 7520,
      "Kronkronni": 7521,
      "adzra": 7522,
      "ɔbuu": 7523,
      "—.": 7524,
      "natifi": 7525,
      "meɖu": 7526,
      "liʋĩ": 7527,
      "wɔbuu": 7528,
      "rimaa": 7529,
      "riil": 7530,
      "yika": 7531,
      "bɛkyerɛ": 7532,
      "ŋutete": 7533,
      "tenee": 7534,
      "kea": 7535,
      "gayibɔ": 7536,
      "Kaman": 7537,
      "Mah": 7538,
      "gbɔa": 7539,
      "vɔwo": 7540,
      "ɖila": 7541,
      "dzɔm": 7542,
      "Migblɔ": 7543,
      "Woyɛ": 7544,
      "abere": 7545,
      "zɔhira": 7546,
      "wòatsi": 7547,
      "riam": 7548,
      "tɛkrɛma": 7549,
      "nèna": 7550,
      "nʼakoma": 7551,
      "hwere": 7552,
      "faashee": 7553,
      "mpene": 7554,
      "Abihu": 7555,
      "tuatua": 7556,
      "Elifa": 7557,
      "mforo": 7558,
      "ntwonoo": 7559,
      "afenaa": 7560,
      "alẽha": 7561,
      "Suko": 7562,
      "ahummɔborɔ": 7563,
      "atsɔe": 7564,
      "Moabfoɔ": 7565,
      "Ahitub": 7566,
      "tɔ́wò": 7567,
      "avɔwo": 7568,
      "pinaanahi": 7569,
      "ɛsono": 7570,
      "zɔzɔm": 7571,
      "owuyadeɛ": 7572,
      "Ɛdomnim": 7573,
      "Jɛziriil": 7574,
      "tsyɔ̃eviwo": 7575,
      "gbadzaƒe": 7576,
      "agbenɔɣi": 7577,
      "Ah": 7578,
      "Aya": 7579,
      "Jee": 7580,
      "Mmom": 7581,
      "egodo": 7582,
      "ezer": 7583,
      "èkpɔ": 7584,
      "Ʒiɛ": 7585,
      "ɛna": 7586,
      "madzudzɔ": 7587,
      "wosa": 7588,
      "mebe": 7589,
      "dapaɣa": 7590,
      "siel": 7591,
      "dzẽ": 7592,
      "bɛtwa": 7593,
      "bɛbrɛ": 7594,
      "fitii": 7595,
      "team": 7596,
      "wòwɔa": 7597,
      "wòbɔbɔ": 7598,
      "wɔnhwɛ": 7599,
      "rɛt": 7600,
      "gbemagbe": 7601,
      "Karea": 7602,
      "woagblẽ": 7603,
      "asau": 7604,
      "Miele": 7605,
      "tsidzadza": 7606,
      "wuranom": 7607,
      "Sidɔn": 7608,
      "hirimi": 7609,
      "onifirani": 7610,
      "Semes": 7611,
      "agyata": 7612,
      "Heman": 7613,
      "Hetifoɔ": 7614,
      "meganɔ": 7615,
      "piɛli": 7616,
      "tirinwi": 7617,
      "Kɔhat": 7618,
      "Kul": 7619,
      "balat": 7620,
      "Levitɔ": 7621,
      "manɔmee": 7622,
      "Mègana": 7623,
      "Arta": 7624,
      "Laza": 7625,
      "ɔdasani": 7626,
      "akaɖiti": 7627,
      "Amram": 7628,
      "busunya": 7629,
      "dzodzom": 7630,
      "helĩhelĩ": 7631,
      "nkɔnsɔn": 7632,
      "nkɔnsɔnkɔnsɔn": 7633,
      "ʒiʒiinikpee": 7634,
      "chɛrubinim": 7635,
      "wɔribariba": 7636,
      "Chuɣu": 7637,
      "Usia": 7638,
      "azã": 7639,
      "rmon": 7640,
      "Ɔman": 7641,
      "Ɔteneneeni": 7642,
      "ɛse": 7643,
      "ɛgu": 7644,
      "ɛsom": 7645,
      "matsɔe": 7646,
      "matamfoɔ": 7647,
      "mennya": 7648,
      "lir": 7649,
      "saeɛ": 7650,
      "miame": 7651,
      "kuvia": 7652,
      "kɔa": 7653,
      "kɔfoɔ": 7654,
      "fita": 7655,
      "nyaɣi": 7656,
      "buruwa": 7657,
      "dudu": 7658,
      "gbegbɔgblɔ": 7659,
      "fata": 7660,
      "siam": 7661,
      "siagbe": 7662,
      "Mata": 7663,
      "yura": 7664,
      "ɛnne": 7665,
      "gyegye": 7666,
      "mɛtumi": 7667,
      "tweti": 7668,
      "maŋlɔ": 7669,
      "bɔneyɛ": 7670,
      "gãtɔ": 7671,
      "bihim": 7672,
      "wɔbɛnya": 7673,
      "kɛtɛ": 7674,
      "dweti": 7675,
      "dalinli": 7676,
      "kposɔwo": 7677,
      "kwasea": 7678,
      "mmire": 7679,
      "anantwinini": 7680,
      "kpɛh": 7681,
      "kokoɔ": 7682,
      "Fifia": 7683,
      "Migana": 7684,
      "ntutummɛ": 7685,
      "avifafa": 7686,
      "ʋuʋudedi": 7687,
      "Hur": 7688,
      "nkotokuo": 7689,
      "ahinta": 7690,
      "mprɛnson": 7691,
      "ntaaboɔ": 7692,
      "fewuɖu": 7693,
      "Ala": 7694,
      "Azar": 7695,
      "Gya": 7696,
      "Kesi": 7697,
      "Wa": 7698,
      "aŋgba": 7699,
      "ɔtene": 7700,
      "ɔduruu": 7701,
      "ɔsusuu": 7702,
      "naɖi": 7703,
      "laawo": 7704,
      "yevu": 7705,
      "himi": 7706,
      "kukol": 7707,
      "daakye": 7708,
      "wahunu": 7709,
      "har": 7710,
      "bɔra": 7711,
      "duraa": 7712,
      "dunwɔtwe": 7713,
      "sɔhi": 7714,
      "fae": 7715,
      "gbala": 7716,
      "ŋɔti": 7717,
      "miava": 7718,
      "niŋd": 7719,
      "kpeɖe": 7720,
      "xɔmetsovɔ": 7721,
      "dzɔna": 7722,
      "Medo": 7723,
      "adwumfoɔ": 7724,
      "Sai": 7725,
      "tiŋli": 7726,
      "Kena": 7727,
      "lubu": 7728,
      "mɛi": 7729,
      "akɔduru": 7730,
      "nyɔhi": 7731,
      "Bɛnaaya": 7732,
      "binda": 7733,
      "Dunɔ": 7734,
      "ahat": 7735,
      "akpewo": 7736,
      "Eyaŋuti": 7737,
      "Jɔash": 7738,
      "mmoadoma": 7739,
      "wobɛtumi": 7740,
      "adanse": 7741,
      "hwanhwam": 7742,
      "Migavɔ̃": 7743,
      "Afika": 7744,
      "sapashinnim": 7745,
      "Mikaya": 7746,
      "Mikaia": 7747,
      "mommfa": 7748,
      "Shimɛi": 7749,
      "ninkunu": 7750,
      "jaande": 7751,
      "penee": 7752,
      "Alẽvi": 7753,
      "aƒekɔwo": 7754,
      "binnana": 7755,
      "kyinkyini": 7756,
      "Judia": 7757,
      "sabilifaa": 7758,
      "Sukot": 7759,
      "dwetikɛseɛ": 7760,
      "Azarya": 7761,
      "Dwom": 7762,
      "Ezra": 7763,
      "Gɔ": 7764,
      "er": 7765,
      "gri": 7766,
      "ohwam": 7767,
      "Ɔma": 7768,
      "ɔbuaa": 7769,
      "ɔpɔnkɔ": 7770,
      "ɔwuiɛ": 7771,
      "natrɔ": 7772,
      "wosɔ": 7773,
      "wofiri": 7774,
      "wokaa": 7775,
      "wogbugbɔ": 7776,
      "medoa": 7777,
      "kala": 7778,
      "gbin": 7779,
      "sinu": 7780,
      "yeana": 7781,
      "banaa": 7782,
      "wònya": 7783,
      "nyemekpɔ": 7784,
      "nyemenya": 7785,
      "dzitsi": 7786,
      "bura": 7787,
      "lɔnim": 7788,
      "duawo": 7789,
      "gbesiagbe": 7790,
      "kpena": 7791,
      "baanum": 7792,
      "Miriam": 7793,
      "mɔɣi": 7794,
      "puli": 7795,
      "wɔafiri": 7796,
      "gon": 7797,
      "míaga": 7798,
      "ɔdefoɔ": 7799,
      "wòanya": 7800,
      "ahopopoɔ": 7801,
      "aʋu": 7802,
      "srɔ̃wò": 7803,
      "zalikpana": 7804,
      "aƒewò": 7805,
      "Tito": 7806,
      "ahaz": 7807,
      "fɔre": 7808,
      "ndina": 7809,
      "ŋgɔwò": 7810,
      "piɛlabi": 7811,
      "merema": 7812,
      "wobɛdi": 7813,
      "Amanaman": 7814,
      "dwetɛbena": 7815,
      "Adulam": 7816,
      "nanimuonyam": 7817,
      "dzidzenu": 7818,
      "Nɔvinyewo": 7819,
      "Ɣeyiɣi": 7820,
      "afieboa": 7821,
      "nkwaseasɛm": 7822,
      "lugbɔƒe": 7823,
      "And": 7824,
      "Husa": 7825,
      "aweretɔ": 7826,
      "dro": 7827,
      "feɛ": 7828,
      "msi": 7829,
      "nden": 7830,
      "ɛyi": 7831,
      "ɛbere": 7832,
      "nama": 7833,
      "wokplɔe": 7834,
      "mehyɛ": 7835,
      "mesee": 7836,
      "dahim": 7837,
      "yewoƒe": 7838,
      "dek": 7839,
      "banim": 7840,
      "miligi": 7841,
      "tase": 7842,
      "dziblanu": 7843,
      "bɔɣi": 7844,
      "zuli": 7845,
      "nɔna": 7846,
      "ɔnka": 7847,
      "Max": 7848,
      "Mawɔ": 7849,
      "gbɔlo": 7850,
      "kpea": 7851,
      "gido": 7852,
      "wɔasɛe": 7853,
      "miedze": 7854,
      "zɔm": 7855,
      "wòatrɔ": 7856,
      "anhyɛ": 7857,
      "nʼase": 7858,
      "Jɛbusi": 7859,
      "bilikɔ": 7860,
      "monnim": 7861,
      "akpedada": 7862,
      "dendee": 7863,
      "atotɔ": 7864,
      "yiedie": 7865,
      "wʼagya": 7866,
      "Judanima": 7867,
      "damli": 7868,
      "nuvɔ̃wɔlawo": 7869,
      "agbovi": 7870,
      "Baana": 7871,
      "ogyaframa": 7872,
      "Bio": 7873,
      "sariakari": 7874,
      "tɔ́nye": 7875,
      "Zaŋmi": 7876,
      "ayeyɛ": 7877,
      "mègana": 7878,
      "wɔɣira": 7879,
      "Daniɛl": 7880,
      "chɛchɛbuŋ": 7881,
      "Hiburu": 7882,
      "Lɔt": 7883,
      "biŋkpam": 7884,
      "Kaesare": 7885,
      "Itiɔ": 7886,
      "akyinnyeɛ": 7887,
      "dendeenden": 7888,
      "Asɔfoɔ": 7889,
      "Agbalẽ": 7890,
      "Bel": 7891,
      "Egbe": 7892,
      "Fu": 7893,
      "mã": 7894,
      "ntum": 7895,
      "naƒu": 7896,
      "woren": 7897,
      "metsrɔ̃": 7898,
      "nyè": 7899,
      "dar": 7900,
      "dabo": 7901,
      "wɔmmu": 7902,
      "wɔbisaa": 7903,
      "sal": 7904,
      "kpara": 7905,
      "bituuli": 7906,
      "raeɛ": 7907,
      "baɖa": 7908,
      "ɖeanyi": 7909,
      "wuro": 7910,
      "kuu": 7911,
      "muɣis": 7912,
      "terɛ": 7913,
      "dzike": 7914,
      "hawòvi": 7915,
      "Nahor": 7916,
      "tokuro": 7917,
      "ɖodzi": 7918,
      "gado": 7919,
      "ɔnnye": 7920,
      "gballi": 7921,
      "huro": 7922,
      "Mayɛ": 7923,
      "mmabanin": 7924,
      "miaku": 7925,
      "Wova": 7926,
      "wɔagu": 7927,
      "ziɔ": 7928,
      "Sil": 7929,
      "nnipakuo": 7930,
      "amaama": 7931,
      "kpiri": 7932,
      "atete": 7933,
      "shih": 7934,
      "teeri": 7935,
      "mmfiri": 7936,
      "nɔvinyewo": 7937,
      "Abiya": 7938,
      "hwanyan": 7939,
      "Judas": 7940,
      "adwumayɛ": 7941,
      "bɔhira": 7942,
      "Lewini": 7943,
      "zãmu": 7944,
      "korɔno": 7945,
      "paana": 7946,
      "Amaria": 7947,
      "Yɛhudianima": 7948,
      "atukɔfoɔ": 7949,
      "pinii": 7950,
      "nnwennini": 7951,
      "Gɛris": 7952,
      "Luɣ": 7953,
      "xɔnametɔ": 7954,
      "ahonhom": 7955,
      "adwini": 7956,
      "Aroer": 7957,
      "Ɖewohĩ": 7958,
      "Babilɔnnim": 7959,
      "sononko": 7960,
      "Stefano": 7961,
      "twetiatwa": 7962,
      "Ako": 7963,
      "Ekplɔ": 7964,
      "Gb": 7965,
      "Nsɛm": 7966,
      "edɔ": 7967,
      "ebunu": 7968,
      "ètsɔ": 7969,
      "Ƒu": 7970,
      "ɔtu": 7971,
      "madzi": 7972,
      "woʋu": 7973,
      "mebɔ": 7974,
      "kasia": 7975,
      "wɔsu": 7976,
      "wɔnyi": 7977,
      "wɔtaa": 7978,
      "wɔasiesie": 7979,
      "tila": 7980,
      "yewoma": 7981,
      "bet": 7982,
      "miel": 7983,
      "kuui": 7984,
      "fowa": 7985,
      "wɔnka": 7986,
      "nyinɔ": 7987,
      "Yedutun": 7988,
      "Maika": 7989,
      "rɔs": 7990,
      "poro": 7991,
      "fufuo": 7992,
      "goewo": 7993,
      "ŋutigbalẽ": 7994,
      "afika": 7995,
      "kaai": 7996,
      "abasa": 7997,
      "chihira": 7998,
      "ntotɔeɛ": 7999,
      "xewo": 8000,
      "Sele": 8001,
      "Seal": 8002,
      "mmufoɔ": 8003,
      "Gibia": 8004,
      "dɔlanyɔnu": 8005,
      "asoa": 8006,
      "meremfa": 8007,
      "Míawo": 8008,
      "mobɛdi": 8009,
      "abɛduru": 8010,
      "agblewo": 8011,
      "ahoɔdenfoɔ": 8012,
      "ɖewohĩ": 8013,
      "yirina": 8014,
      "ninkura": 8015,
      "Hanani": 8016,
      "numemevɔ": 8017,
      "klag": 8018,
      "temmuo": 8019,
      "nnamfonom": 8020,
      "abrabɔ": 8021,
      "Jɛhoyakim": 8022,
      "pakoya": 8023,
      "Aku": 8024,
      "Anye": 8025,
      "Bela": 8026,
      "Ef": 8027,
      "Etso": 8028,
      "Hanan": 8029,
      "Twe": 8030,
      "ahɔ": 8031,
      "abɛyɛ": 8032,
      "antie": 8033,
      "nanya": 8034,
      "maho": 8035,
      "wobla": 8036,
      "wolɔ̃": 8037,
      "wosubɔ": 8038,
      "mezu": 8039,
      "kama": 8040,
      "nehunu": 8041,
      "wɔtie": 8042,
      "yeayi": 8043,
      "sor": 8044,
      "nugɔme": 8045,
      "bɛtu": 8046,
      "bɛhye": 8047,
      "bɛsii": 8048,
      "ŋuɖoɖo": 8049,
      "kɔko": 8050,
      "nyea": 8051,
      "buɣ": 8052,
      "dor": 8053,
      "gbewo": 8054,
      "gbeɖeɖe": 8055,
      "boɖa": 8056,
      "Kasia": 8057,
      "vanɛ": 8058,
      "woadzi": 8059,
      "woafa": 8060,
      "woagbã": 8061,
      "ɖuɣi": 8062,
      "mɔŋ": 8063,
      "veviwo": 8064,
      "mɛkyerɛ": 8065,
      "abantenten": 8066,
      "nsisi": 8067,
      "bubua": 8068,
      "ɔbɛba": 8069,
      "adehyeɛ": 8070,
      "kpira": 8071,
      "yaag": 8072,
      "Paɣ": 8073,
      "piig": 8074,
      "tsro": 8075,
      "waawaa": 8076,
      "niŋdila": 8077,
      "Ziba": 8078,
      "ɔtemmufoɔ": 8079,
      "kokoƒoƒo": 8080,
      "dzudzɔdonu": 8081,
      "moantie": 8082,
      "sabbu": 8083,
      "wɔɣinli": 8084,
      "kilomita": 8085,
      "Zuŋɔ": 8086,
      "Gaal": 8087,
      "ahasiwɔwɔ": 8088,
      "pisinaayi": 8089,
      "manomu": 8090,
      "odwanhwɛfoɔ": 8091,
      "ntuanoni": 8092,
      "Malimiya": 8093,
      "nyɔtaɣirisi": 8094,
      "mahili": 8095,
      "sunsuanee": 8096,
      "nufiame": 8097,
      "ʋetsuviwo": 8098,
      "Neetan": 8099,
      "Jeemsi": 8100,
      "dzitsinya": 8101,
      "Ase": 8102,
      "Ekpɔ": 8103,
      "Iin": 8104,
      "Mpo": 8105,
      "apaa": 8106,
      "kɛntɛn": 8107,
      "mpam": 8108,
      "sma": 8109,
      "Ɔyɛɛ": 8110,
      "ɔkɛseɛ": 8111,
      "ɛwom": 8112,
      "nakyiri": 8113,
      "mefa": 8114,
      "kabiri": 8115,
      "dae": 8116,
      "sifoɔ": 8117,
      "wɔrentumi": 8118,
      "wɔbobɔɔ": 8119,
      "sakuɣa": 8120,
      "teasefoɔ": 8121,
      "tagbɔ": 8122,
      "taɖa": 8123,
      "Yese": 8124,
      "zabad": 8125,
      "fabindi": 8126,
      "Yair": 8127,
      "ɖakpe": 8128,
      "pɔnna": 8129,
      "kparima": 8130,
      "Midzi": 8131,
      "dzem": 8132,
      "vuvɔ": 8133,
      "dzogbe": 8134,
      "sania": 8135,
      "Simɔn": 8136,
      "adiyisɛm": 8137,
      "akokoɔ": 8138,
      "ŋutɔŋutɔ": 8139,
      "nʼadwene": 8140,
      "See": 8141,
      "baŋya": 8142,
      "gyinaeɛ": 8143,
      "atorofoɔ": 8144,
      "wuhiya": 8145,
      "Filistini": 8146,
      "waintsetse": 8147,
      "agboawo": 8148,
      "Lewitɔwo": 8149,
      "ʋɔnui": 8150,
      "enuenu": 8151,
      "alɔnu": 8152,
      "Isaxar": 8153,
      "nnware": 8154,
      "zɔriya": 8155,
      "xɔsetɔwo": 8156,
      "bobeturo": 8157,
      "sanʒiɛɣu": 8158,
      "manyamanya": 8159,
      "ntɔn": 8160,
      "Ribɛka": 8161,
      "asrafoawo": 8162,
      "piligim": 8163,
      "dzĩtɔ": 8164,
      "Mahanaim": 8165,
      "ayowa": 8166,
      "Ati": 8167,
      "Rabi": 8168,
      "Tin": 8169,
      "Zali": 8170,
      "akuro": 8171,
      "enɔ": 8172,
      "eser": 8173,
      "okuo": 8174,
      "ólo": 8175,
      "Ɔmaa": 8176,
      "ɔwo": 8177,
      "ɔtumi": 8178,
      "ɔhwɛɛ": 8179,
      "mebɔɔ": 8180,
      "kaɣi": 8181,
      "kandina": 8182,
      "daia": 8183,
      "sirigi": 8184,
      "lih": 8185,
      "nedo": 8186,
      "wɔnyaa": 8187,
      "yɛte": 8188,
      "sahene": 8189,
      "saŋku": 8190,
      "sakyera": 8191,
      "rax": 8192,
      "yilli": 8193,
      "diya": 8194,
      "miyi": 8195,
      "mitso": 8196,
      "bɛsɔ": 8197,
      "bɛboa": 8198,
      "yame": 8199,
      "wahu": 8200,
      "wòse": 8201,
      "nyaya": 8202,
      "haha": 8203,
      "lɔrigu": 8204,
      "fatia": 8205,
      "Kalɛb": 8206,
      "ɔnnya": 8207,
      "woase": 8208,
      "woakpe": 8209,
      "ɖiƒe": 8210,
      "malia": 8211,
      "chɛmi": 8212,
      "polli": 8213,
      "Monkae": 8214,
      "Wonɔ": 8215,
      "mienɔ": 8216,
      "vɔ̃m": 8217,
      "dzovɔsa": 8218,
      "Netania": 8219,
      "Onyame": 8220,
      "gena": 8221,
      "Ameha": 8222,
      "wòaxɔ": 8223,
      "wòalé": 8224,
      "annya": 8225,
      "nèbe": 8226,
      "mmɔho": 8227,
      "míedze": 8228,
      "nkumaa": 8229,
      "voya": 8230,
      "etɔ̃a": 8231,
      "kyɛw": 8232,
      "dwammaa": 8233,
      "wotsɔna": 8234,
      "Mɛrari": 8235,
      "alẽawo": 8236,
      "Reu": 8237,
      "paaya": 8238,
      "alɔmeɖe": 8239,
      "matemmu": 8240,
      "Kum": 8241,
      "adwadifoɔ": 8242,
      "Homeda": 8243,
      "Ahitofel": 8244,
      "Amonitɔwo": 8245,
      "kesinɔtɔwo": 8246,
      "asɛnni": 8247,
      "aseyetsotso": 8248,
      "makɔmakɔwo": 8249,
      "biriginsim": 8250,
      "karimbaa": 8251,
      "Marta": 8252,
      "Axazya": 8253,
      "Agag": 8254,
      "amesiamina": 8255,
      "agbonudzɔlawo": 8256,
      "dàda": 8257,
      "Wuntizɔriba": 8258,
      "animguaseɛ": 8259,
      "kpeɖeŋutɔ": 8260,
      "Andrea": 8261,
      "waawaayili": 8262,
      "Ashɛ": 8263,
      "Ansa": 8264,
      "Hyɛ": 8265,
      "Nsuo": 8266,
      "Paran": 8267,
      "Tabo": 8268,
      "adaa": 8269,
      "agɔ": 8270,
      "atumfoɔ": 8271,
      "ahɔn": 8272,
      "eto": 8273,
      "jɛn": 8274,
      "Ɖela": 8275,
      "Ʋu": 8276,
      "ɛsene": 8277,
      "nasini": 8278,
      "madɔ": 8279,
      "wolisi": 8280,
      "laɣ": 8281,
      "mefrɛɛ": 8282,
      "kasaa": 8283,
      "sapi": 8284,
      "sodeɛ": 8285,
      "nukpɔkpɔ": 8286,
      "ŋumdi": 8287,
      "wòlɔ̃": 8288,
      "had": 8289,
      "ameƒo": 8290,
      "bɔrigi": 8291,
      "sɔtiawo": 8292,
      "Kae": 8293,
      "ɔntumi": 8294,
      "Mati": 8295,
      "kyene": 8296,
      "woano": 8297,
      "miade": 8298,
      "Monto": 8299,
      "pum": 8300,
      "Woaɖe": 8301,
      "mietrɔ": 8302,
      "chaŋla": 8303,
      "abarimaa": 8304,
      "abobo": 8305,
      "ammɛ": 8306,
      "nède": 8307,
      "nàɖo": 8308,
      "mmubu": 8309,
      "míeva": 8310,
      "awuo": 8311,
      "mpete": 8312,
      "paɣisa": 8313,
      "kpalimmi": 8314,
      "pihinii": 8315,
      "lɔlɔ̃a": 8316,
      "yrae": 8317,
      "Amazya": 8318,
      "gbeƒãe": 8319,
      "Moabtɔwo": 8320,
      "bipuɣin": 8321,
      "naɣikɔra": 8322,
      "palila": 8323,
      "Yuria": 8324,
      "Mègavɔ̃": 8325,
      "jɛmdila": 8326,
      "ŋgɔgbeviwo": 8327,
      "konyifafa": 8328,
      "wuntizɔra": 8329,
      "nkonimdie": 8330,
      "Amegbetɔvi": 8331,
      "xɔlɔ̃wo": 8332,
      "Boaz": 8333,
      "tumtumsa": 8334,
      "baptaizibu": 8335,
      "nuŋeɣi": 8336,
      "atuatefoɔ": 8337,
      "ŋmɛndi": 8338,
      "Dunia": 8339,
      "Ninive": 8340,
      "Sealtiel": 8341,
      "ahɔnɛ": 8342,
      "Aƒe": 8343,
      "Apolo": 8344,
      "Ega": 8345,
      "Exɔ": 8346,
      "Rab": 8347,
      "axlẽ": 8348,
      "amonom": 8349,
      "jee": 8350,
      "kin": 8351,
      "mbusim": 8352,
      "nnni": 8353,
      "ŋmali": 8354,
      "ɔnom": 8355,
      "wotsyɔ": 8356,
      "woklã": 8357,
      "meŋlɔ": 8358,
      "mehiã": 8359,
      "daku": 8360,
      "wɔkunkumm": 8361,
      "riel": 8362,
      "yɛanya": 8363,
      "sosɛm": 8364,
      "raya": 8365,
      "radan": 8366,
      "yirigi": 8367,
      "yirila": 8368,
      "bapɔmma": 8369,
      "ŋunyɔ": 8370,
      "sela": 8371,
      "yaka": 8372,
      "wasi": 8373,
      "tarigi": 8374,
      "mogye": 8375,
      "mokaka": 8376,
      "buee": 8377,
      "bulli": 8378,
      "rebe": 8379,
      "ameŋu": 8380,
      "Yefune": 8381,
      "zabi": 8382,
      "zaradan": 8383,
      "herɛ": 8384,
      "Mahe": 8385,
      "asaf": 8386,
      "dzesiwo": 8387,
      "tɔwoe": 8388,
      "wɔannye": 8389,
      "gomna": 8390,
      "yɔyɔ": 8391,
      "lãha": 8392,
      "Amevi": 8393,
      "wòato": 8394,
      "Simri": 8395,
      "kplɔvi": 8396,
      "srɔ̃nye": 8397,
      "neeg": 8398,
      "neeri": 8399,
      "nèdi": 8400,
      "ɔbɛkɔ": 8401,
      "Nuɖuɖu": 8402,
      "kpiya": 8403,
      "wɔbɛkum": 8404,
      "nkuruwa": 8405,
      "Sokam": 8406,
      "yiniyini": 8407,
      "Abiram": 8408,
      "bebrebe": 8409,
      "laɣimna": 8410,
      "mfrɔm": 8411,
      "akyerɛkyerɛfoɔ": 8412,
      "maligim": 8413,
      "kokoe": 8414,
      "kɔbil": 8415,
      "Benyaminfoɔ": 8416,
      "Firi": 8417,
      "Gosen": 8418,
      "sariakariti": 8419,
      "Edomtɔwo": 8420,
      "Yuun": 8421,
      "ɔbodan": 8422,
      "nnue": 8423,
      "Nɛgɛ": 8424,
      "Arabia": 8425,
      "Rom": 8426,
      "haara": 8427,
      "nnwontofoɔ": 8428,
      "aʋawɔnuwo": 8429,
      "hoɔdenfoɔ": 8430,
      "ŋkuagbãtɔ": 8431,
      "nyiŋgoli": 8432,
      "Sixon": 8433,
      "frɔmfrɔm": 8434,
      "farisitɔwo": 8435,
      "Batseba": 8436,
      "Anɔ": 8437,
      "Eɖu": 8438,
      "Eve": 8439,
      "Raha": 8440,
      "ar": 8441,
      "nsua": 8442,
      "Ɔdii": 8443,
      "ɔtena": 8444,
      "nintam": 8445,
      "naha": 8446,
      "nasefoɔ": 8447,
      "wonam": 8448,
      "womele": 8449,
      "wɔhu": 8450,
      "sasta": 8451,
      "sohwɛfoɔ": 8452,
      "biŋku": 8453,
      "mira": 8454,
      "kundi": 8455,
      "tebea": 8456,
      "waso": 8457,
      "dzika": 8458,
      "montena": 8459,
      "nyanu": 8460,
      "kerubim": 8461,
      "dunsia": 8462,
      "gahindi": 8463,
      "huu": 8464,
      "nkorɔ": 8465,
      "fiana": 8466,
      "dzela": 8467,
      "putɔɣu": 8468,
      "Meta": 8469,
      "mietso": 8470,
      "mielɔ̃": 8471,
      "zɔa": 8472,
      "yoo": 8473,
      "yowòme": 8474,
      "tampiligim": 8475,
      "aboro": 8476,
      "atizɔ": 8477,
      "nètso": 8478,
      "xea": 8479,
      "nʼano": 8480,
      "wɔbɛyi": 8481,
      "Serubabel": 8482,
      "mmoaboa": 8483,
      "kɔkɔwo": 8484,
      "monhyɛ": 8485,
      "míese": 8486,
      "pahira": 8487,
      "wuieveawo": 8488,
      "dwenee": 8489,
      "atoa": 8490,
      "esiae": 8491,
      "Misraimni": 8492,
      "Ɖeka": 8493,
      "mereba": 8494,
      "tiligira": 8495,
      "dɔɣibu": 8496,
      "nsɛsoɔ": 8497,
      "Zerubabel": 8498,
      "Zeruya": 8499,
      "nuɖuɖuvɔsa": 8500,
      "kɔbisinu": 8501,
      "migana": 8502,
      "nsramma": 8503,
      "Hɛshi": 8504,
      "nhyɛne": 8505,
      "Ɣemaɣi": 8506,
      "tsitsitɔ": 8507,
      "Xes": 8508,
      "awerɛkyekyerɛ": 8509,
      "Shilo": 8510,
      "gbolowɔwɔ": 8511,
      "takɔb": 8512,
      "Hebrifoɔ": 8513,
      "Monnsuro": 8514,
      "zaligubaŋdiba": 8515,
      "danseni": 8516,
      "srafowo": 8517,
      "Kanaanitɔwo": 8518,
      "fɔrebukyia": 8519,
      "Aman": 8520,
      "Adom": 8521,
      "Adɔni": 8522,
      "Akis": 8523,
      "Eg": 8524,
      "Hilikia": 8525,
      "Kre": 8526,
      "Lame": 8527,
      "Obɛ": 8528,
      "ekɔ": 8529,
      "ɛdidi": 8530,
      "nadza": 8531,
      "mapam": 8532,
      "maxe": 8533,
      "mahim": 8534,
      "wonyã": 8535,
      "mekasa": 8536,
      "dagba": 8537,
      "nena": 8538,
      "newe": 8539,
      "wɔawo": 8540,
      "wɔhye": 8541,
      "wɔkyeree": 8542,
      "tibu": 8543,
      "tibisa": 8544,
      "banima": 8545,
      "bandi": 8546,
      "tenten": 8547,
      "tempɔn": 8548,
      "wafenaa": 8549,
      "monto": 8550,
      "nyanee": 8551,
      "hadzidzi": 8552,
      "kenka": 8553,
      "bɔt": 8554,
      "zab": 8555,
      "sɔhwɛ": 8556,
      "lomi": 8557,
      "Mahunu": 8558,
      "nimmoo": 8559,
      "vana": 8560,
      "ɖuna": 8561,
      "Mitrɔ": 8562,
      "mieɖe": 8563,
      "zɔbu": 8564,
      "adekora": 8565,
      "alikama": 8566,
      "nʼankasa": 8567,
      "rishi": 8568,
      "abue": 8569,
      "nàɖu": 8570,
      "edziedzi": 8571,
      "aʋatsotso": 8572,
      "subɔna": 8573,
      "Filip": 8574,
      "ŋusẽe": 8575,
      "Ninewe": 8576,
      "kplikpli": 8577,
      "sɔŋda": 8578,
      "mʼakyi": 8579,
      "kafum": 8580,
      "ɛbɛsi": 8581,
      "dɛshi": 8582,
      "lɛbigi": 8583,
      "wɔmmfa": 8584,
      "zaŋdila": 8585,
      "Betania": 8586,
      "miawoe": 8587,
      "berempɔn": 8588,
      "hiãtɔ": 8589,
      "dwaneeɛ": 8590,
      "binyɛri": 8591,
      "mawɔe": 8592,
      "Bɛnkam": 8593,
      "sabiya": 8594,
      "korakora": 8595,
      "aponnwa": 8596,
      "buɣisibu": 8597,
      "zoligɔ": 8598,
      "aƒemetɔwo": 8599,
      "siɣina": 8600,
      "tizɔpaɣa": 8601,
      "mmɔfraase": 8602,
      "asiekelia": 8603,
      "nkatasoɔ": 8604,
      "ayamyɛ": 8605,
      "Uriya": 8606,
      "Bɛmbɔŋɔnim": 8607,
      "amedɔdɔawo": 8608,
      "Naneke": 8609,
      "Shɛmaya": 8610,
      "Anatot": 8611,
      "Kesinɔ": 8612,
      "dzikedzo": 8613,
      "Gbã": 8614,
      "alɔmeɖenu": 8615,
      "Eglon": 8616,
      "Ise": 8617,
      "Ido": 8618,
      "Xamat": 8619,
      "az": 8620,
      "dre": 8621,
      "kronkronni": 8622,
      "nhunuu": 8623,
      "ŋka": 8624,
      "ɔho": 8625,
      "ɔsɔɔ": 8626,
      "makpe": 8627,
      "mabrɛ": 8628,
      "wobɔbɔ": 8629,
      "laɣisi": 8630,
      "mem": 8631,
      "nomee": 8632,
      "wɔnu": 8633,
      "yeado": 8634,
      "binyi": 8635,
      "ŋuwo": 8636,
      "muel": 8637,
      "momaha": 8638,
      "tonto": 8639,
      "ɣila": 8640,
      "gbali": 8641,
      "mmaŋa": 8642,
      "zuɣupiligu": 8643,
      "woaɖi": 8644,
      "woadzo": 8645,
      "woadrɔ̃": 8646,
      "Dagon": 8647,
      "Miƒo": 8648,
      "adã": 8649,
      "lãa": 8650,
      "Amekae": 8651,
      "abobɔ": 8652,
      "wɔwɔm": 8653,
      "hwete": 8654,
      "nneyɛeɛ": 8655,
      "trɔna": 8656,
      "míegblɔ": 8657,
      "xax": 8658,
      "adadu": 8659,
      "ahas": 8660,
      "yiɣisibu": 8661,
      "Hagi": 8662,
      "ʋɔa": 8663,
      "hiahia": 8664,
      "tumdiba": 8665,
      "kpɛbu": 8666,
      "tsitrenu": 8667,
      "alẽhawo": 8668,
      "ɔteaa": 8669,
      "Kɔra": 8670,
      "Toma": 8671,
      "dzedzeme": 8672,
      "Kip": 8673,
      "wòwɔna": 8674,
      "mpempem": 8675,
      "Siriahene": 8676,
      "Eliakim": 8677,
      "ntɔkwa": 8678,
      "Rubenfoɔ": 8679,
      "tatawo": 8680,
      "liƒowo": 8681,
      "Shiiba": 8682,
      "kutsetsewo": 8683,
      "ƒuƒui": 8684,
      "osuani": 8685,
      "Korax": 8686,
      "Aʋa": 8687,
      "toflo": 8688,
      "nunovɔsa": 8689,
      "ɛlɛk": 8690,
      "batakari": 8691,
      "gbidigbidi": 8692,
      "ahoɔfɛ": 8693,
      "ŋugbetɔsrɔ̃": 8694,
      "gbilligbilli": 8695,
      "bɔɣusapi": 8696,
      "sederti": 8697,
      "Maligumaaniba": 8698,
      "Gibiɔn": 8699,
      "Kaisa": 8700,
      "adaaboɔ": 8701,
      "Xesbon": 8702,
      "Adan": 8703,
      "Gala": 8704,
      "Kilikia": 8705,
      "Ram": 8706,
      "ante": 8707,
      "atuu": 8708,
      "nnka": 8709,
      "Ɔbisaa": 8710,
      "ɔsɛ": 8711,
      "ɔhonam": 8712,
      "ɔboafoɔ": 8713,
      "ɛdɔɔso": 8714,
      "nab": 8715,
      "napɔn": 8716,
      "nahyɛdeɛ": 8717,
      "womaa": 8718,
      "mebaa": 8719,
      "menɔa": 8720,
      "kabisi": 8721,
      "wɔwo": 8722,
      "wɔwea": 8723,
      "rii": 8724,
      "tiɣ": 8725,
      "biaa": 8726,
      "aniwu": 8727,
      "mifoɔ": 8728,
      "kula": 8729,
      "kɔgbana": 8730,
      "tɔri": 8731,
      "tɔro": 8732,
      "teku": 8733,
      "fosɛm": 8734,
      "tasee": 8735,
      "dziɖegbe": 8736,
      "moadi": 8737,
      "rentena": 8738,
      "toku": 8739,
      "wɔnkum": 8740,
      "dukpi": 8741,
      "gbeta": 8742,
      "hum": 8743,
      "kyekyɛ": 8744,
      "yɛlila": 8745,
      "asinasini": 8746,
      "Meda": 8747,
      "Yopa": 8748,
      "yurisi": 8749,
      "ein": 8750,
      "mɛri": 8751,
      "Sif": 8752,
      "anwe": 8753,
      "nʼadeɛ": 8754,
      "nʼasomfoɔ": 8755,
      "nàva": 8756,
      "nuammarima": 8757,
      "Wɔyɛ": 8758,
      "nkuku": 8759,
      "nkuran": 8760,
      "yiɣisim": 8761,
      "dooi": 8762,
      "piɛbihi": 8763,
      "biɛɣuni": 8764,
      "teteete": 8765,
      "dzɔdzɔetɔ": 8766,
      "Hivi": 8767,
      "Hinom": 8768,
      "Tobia": 8769,
      "ɣletivi": 8770,
      "migawɔ": 8771,
      "tututue": 8772,
      "nhwɛsoɔ": 8773,
      "Gaat": 8774,
      "owufoɔ": 8775,
      "Yonadab": 8776,
      "anyigbadzitɔwo": 8777,
      "zoomba": 8778,
      "ayeforɔkunu": 8779,
      "siɣimsiɣim": 8780,
      "ahuntasɛm": 8781,
      "wɔkurakura": 8782,
      "agyaadwo": 8783,
      "Piɛbil": 8784,
      "wɔadãwo": 8785,
      "Hagai": 8786,
      "Seruia": 8787,
      "mpemaduonu": 8788,
      "Amalɛknim": 8789,
      "yevuboɖa": 8790,
      "daboya": 8791,
      "aboboano": 8792,
      "Aso": 8793,
      "Gasa": 8794,
      "Tafla": 8795,
      "Zaa": 8796,
      "ayɔnko": 8797,
      "bni": 8798,
      "ese": 8799,
      "efi": 8800,
      "edzo": 8801,
      "eŋku": 8802,
      "nsiane": 8803,
      "odum": 8804,
      "xoa": 8805,
      "Ɔre": 8806,
      "Ɔsane": 8807,
      "ɔtaa": 8808,
      "ɔmfiri": 8809,
      "ɛhyɛn": 8810,
      "nayɔ": 8811,
      "magye": 8812,
      "wɔgyee": 8813,
      "yire": 8814,
      "dianim": 8815,
      "dzram": 8816,
      "bɛsom": 8817,
      "ŋugble": 8818,
      "kɔtɛ": 8819,
      "yaɣiri": 8820,
      "sufrɛ": 8821,
      "wate": 8822,
      "wòʋu": 8823,
      "mokɔ": 8824,
      "momfiri": 8825,
      "buyopɔin": 8826,
      "Nail": 8827,
      "ameti": 8828,
      "tuel": 8829,
      "naayɔbu": 8830,
      "sianee": 8831,
      "ɔnɛ": 8832,
      "Mam": 8833,
      "Mahala": 8834,
      "dɔɔ": 8835,
      "kpɔdome": 8836,
      "woabia": 8837,
      "niŋya": 8838,
      "Yehoyakim": 8839,
      "awofoɔ": 8840,
      "kpakpa": 8841,
      "wɔadane": 8842,
      "Kedes": 8843,
      "lansi": 8844,
      "ŋutie": 8845,
      "Netane": 8846,
      "mɛhyɛ": 8847,
      "wòaxe": 8848,
      "aboson": 8849,
      "pehoma": 8850,
      "onii": 8851,
      "nʼasɛm": 8852,
      "ayɛyie": 8853,
      "monnya": 8854,
      "maligumaani": 8855,
      "Heno": 8856,
      "hiahiafoɔ": 8857,
      "piɛguliba": 8858,
      "piɛliga": 8859,
      "dziƒofiaɖuƒe": 8860,
      "ntampehoma": 8861,
      "viaŋutsuwo": 8862,
      "lɔlɔ̃tɔwo": 8863,
      "ŋmahindi": 8864,
      "zebel": 8865,
      "Anadwo": 8866,
      "asukɔ": 8867,
      "fɔntiŋ": 8868,
      "nhyɛsoɔ": 8869,
      "Yɛlimiya": 8870,
      "churi": 8871,
      "Tubal": 8872,
      "kpẽawo": 8873,
      "màga": 8874,
      "tweneduro": 8875,
      "Giligal": 8876,
      "aŋutrɔwo": 8877,
      "kulibɔna": 8878,
      "nyinsɛn": 8879,
      "mmorosoɔ": 8880,
      "ntɛtɛ": 8881,
      "agbagbeawo": 8882,
      "ŋmalig": 8883,
      "Nɛgɛb": 8884,
      "Kipro": 8885,
      "Esra": 8886,
      "Ira": 8887,
      "Nni": 8888,
      "Ngo": 8889,
      "Yɛm": 8890,
      "ewu": 8891,
      "ekuo": 8892,
      "fania": 8893,
      "kronkro": 8894,
      "nhia": 8895,
      "omumuyɛfoɔ": 8896,
      "xia": 8897,
      "yaai": 8898,
      "Ɔbuaa": 8899,
      "Ɔtwerɛfoɔ": 8900,
      "Ƒe": 8901,
      "ɔsɛe": 8902,
      "ɔware": 8903,
      "ɛkaa": 8904,
      "ɛwowɔ": 8905,
      "niɛm": 8906,
      "wokafu": 8907,
      "wogale": 8908,
      "menkyerɛ": 8909,
      "nufiala": 8910,
      "diriba": 8911,
      "baɣili": 8912,
      "bɛbisaa": 8913,
      "daannima": 8914,
      "wòakɔ": 8915,
      "monte": 8916,
      "reni": 8917,
      "resa": 8918,
      "paya": 8919,
      "vidzi": 8920,
      "tuɣili": 8921,
      "logo": 8922,
      "Kali": 8923,
      "Kamina": 8924,
      "Mado": 8925,
      "wɛi": 8926,
      "tsona": 8927,
      "gila": 8928,
      "nsarika": 8929,
      "baasi": 8930,
      "Mitso": 8931,
      "ŋaha": 8932,
      "asibaasi": 8933,
      "Mehunuu": 8934,
      "Kedar": 8935,
      "mɛla": 8936,
      "mɛsane": 8937,
      "bɔnefosɛm": 8938,
      "abodwo": 8939,
      "eŋumewo": 8940,
      "bihigu": 8941,
      "adedie": 8942,
      "alidziblanu": 8943,
      "Berɛ": 8944,
      "nkɔsoɔ": 8945,
      "nàse": 8946,
      "twaberɛ": 8947,
      "mpatadeɛ": 8948,
      "Harim": 8949,
      "gblẽe": 8950,
      "Yeiel": 8951,
      "asorɔ": 8952,
      "ƒomeviwo": 8953,
      "dzidzɔɣli": 8954,
      "awɔe": 8955,
      "alẽkplɔla": 8956,
      "magaɖo": 8957,
      "yiɣis": 8958,
      "Gesur": 8959,
      "Bɔaz": 8960,
      "Horeb": 8961,
      "mlɔeba": 8962,
      "vloe": 8963,
      "akwantuo": 8964,
      "piniyini": 8965,
      "ɖevime": 8966,
      "aɖaŋuɖoɖo": 8967,
      "Ribla": 8968,
      "ntwaho": 8969,
      "Bosome": 8970,
      "Pɛri": 8971,
      "akpedavɔ": 8972,
      "dalya": 8973,
      "Nyateƒee": 8974,
      "mfenaa": 8975,
      "Ɔsorosoro": 8976,
      "Maaseia": 8977,
      "momonoto": 8978,
      "nudanu": 8979,
      "asɛnniiɛ": 8980,
      "Rabsa": 8981,
      "Debi": 8982,
      "Kei": 8983,
      "Mfeɛ": 8984,
      "Or": 8985,
      "Vɔsa": 8986,
      "driba": 8987,
      "ekem": 8988,
      "kle": 8989,
      "odi": 8990,
      "àkpɔ": 8991,
      "èɖo": 8992,
      "Ɛbɛ": 8993,
      "ɔsi": 8994,
      "ɔnyi": 8995,
      "ɔbabaa": 8996,
      "ɔkron": 8997,
      "ɛr": 8998,
      "wodz": 8999,
      "wokpɔe": 9000,
      "meme": 9001,
      "mesuro": 9002,
      "kal": 9003,
      "danye": 9004,
      "silim": 9005,
      "lilĩ": 9006,
      "yɛate": 9007,
      "yɛyɛdeɛ": 9008,
      "sagban": 9009,
      "kutri": 9010,
      "kɔnuwo": 9011,
      "fohene": 9012,
      "waho": 9013,
      "takpe": 9014,
      "wòhe": 9015,
      "nyemewɔ": 9016,
      "mommɛ": 9017,
      "rez": 9018,
      "paemu": 9019,
      "tutɔwo": 9020,
      "ɣiwo": 9021,
      "Yehi": 9022,
      "faeɛ": 9023,
      "gbahiri": 9024,
      "nkora": 9025,
      "míaɖe": 9026,
      "Datan": 9027,
      "katãe": 9028,
      "Woho": 9029,
      "nnawɔtwe": 9030,
      "mɛnya": 9031,
      "mɛtwe": 9032,
      "gee": 9033,
      "mfam": 9034,
      "adidiiɛ": 9035,
      "nkɔtɔ": 9036,
      "firiiɛ": 9037,
      "ɖokuibɔbɔ": 9038,
      "kila": 9039,
      "mawuƒe": 9040,
      "Egiptetɔ": 9041,
      "Peres": 9042,
      "piɛligu": 9043,
      "ahyɛaseɛ": 9044,
      "afanan": 9045,
      "awɔba": 9046,
      "galisim": 9047,
      "ɛbɛka": 9048,
      "mekpɔe": 9049,
      "zãnu": 9050,
      "darigiri": 9051,
      "nnɔɔso": 9052,
      "Migawɔ": 9053,
      "ntweaso": 9054,
      "dunɔguliba": 9055,
      "akyɛm": 9056,
      "asuogya": 9057,
      "pisinaanu": 9058,
      "Seraia": 9059,
      "tusaayi": 9060,
      "mpire": 9061,
      "Kaesarea": 9062,
      "mamleawo": 9063,
      "tsitotsito": 9064,
      "Gerar": 9065,
      "Maaseya": 9066,
      "wuiatɔ̃": 9067,
      "Antioxia": 9068,
      "laakumnim": 9069,
      "Goliat": 9070,
      "ƒiaƒia": 9071,
      "Debir": 9072,
      "Keila": 9073,
      "AAWU": 9074,
      "Itai": 9075,
      "NI": 9076,
      "Nyi": 9077,
      "NAAWU": 9078,
      "Ofir": 9079,
      "Srɔ̃": 9080,
      "eɖi": 9081,
      "nkamfo": 9082,
      "ɔgu": 9083,
      "ɔgyeɛ": 9084,
      "nada": 9085,
      "nasi": 9086,
      "nadwene": 9087,
      "natamfo": 9088,
      "mafia": 9089,
      "wosoɔ": 9090,
      "woge": 9091,
      "medzɔ": 9092,
      "mebla": 9093,
      "neɖe": 9094,
      "wɔforo": 9095,
      "wɔtane": 9096,
      "wɔrenhunu": 9097,
      "sawa": 9098,
      "yenye": 9099,
      "bede": 9100,
      "yihim": 9101,
      "nun": 9102,
      "anisɔ": 9103,
      "ɖeme": 9104,
      "mielé": 9105,
      "wada": 9106,
      "wamfa": 9107,
      "wakwan": 9108,
      "wògbe": 9109,
      "moti": 9110,
      "sɔdola": 9111,
      "ɖolawo": 9112,
      "gawo": 9113,
      "loe": 9114,
      "Magya": 9115,
      "zaŋd": 9116,
      "nkoguo": 9117,
      "ntin": 9118,
      "pim": 9119,
      "ɖawɔ": 9120,
      "gilead": 9121,
      "Wodze": 9122,
      "wɔatu": 9123,
      "wansu": 9124,
      "wanhunu": 9125,
      "anomaa": 9126,
      "luɣa": 9127,
      "mɛtena": 9128,
      "pɛsɛɛ": 9129,
      "wòafia": 9130,
      "nyɔni": 9131,
      "maŋmaŋa": 9132,
      "Beor": 9133,
      "ŋkekea": 9134,
      "kpima": 9135,
      "kpibisi": 9136,
      "ateam": 9137,
      "ɣea": 9138,
      "monnni": 9139,
      "Dua": 9140,
      "Hewifoɔ": 9141,
      "tenaeɛ": 9142,
      "yiɣisila": 9143,
      "Hanun": 9144,
      "dodowo": 9145,
      "kasaŋkuwo": 9146,
      "garita": 9147,
      "kukuɖeɖe": 9148,
      "Perizi": 9149,
      "tiligim": 9150,
      "Baala": 9151,
      "Baanaba": 9152,
      "amim": 9153,
      "ɛbɛdi": 9154,
      "lɔlɔ̃awo": 9155,
      "Hitinim": 9156,
      "Gedalya": 9157,
      "Isai": 9158,
      "agbalẽa": 9159,
      "agbadɔa": 9160,
      "kpekpekpe": 9161,
      "adwammaa": 9162,
      "Yɛhudia": 9163,
      "amumuyɛsɛm": 9164,
      "vlododo": 9165,
      "Kanaantɔwo": 9166,
      "asutene": 9167,
      "Tal": 9168,
      "ɖevitɔ": 9169,
      "Gadfoɔ": 9170,
      "ʋãna": 9171,
      "ɔsafohene": 9172,
      "dzodzrowo": 9173,
      "Amesiame": 9174,
      "Amihud": 9175,
      "boori": 9176,
      "nyànyanya": 9177,
      "alilikpowo": 9178,
      "adwiri": 9179,
      "ŋutinyagbalẽ": 9180,
      "apira": 9181,
      "Uziya": 9182,
      "zoori": 9183,
      "Hasael": 9184,
      "Amalekfoɔ": 9185,
      "Aleae": 9186,
      "susɔea": 9187,
      "ŋkuagbãtɔwo": 9188,
      "ʋunyaʋunya": 9189,
      "momonotofoɔ": 9190,
      "Hadadezer": 9191,
      "ahobrɛaseɛ": 9192,
      "duŋtaariba": 9193,
      "asibidɛ": 9194,
      "Efron": 9195,
      "Pɛriʒi": 9196,
      "NAAWUNI": 9197,
      "bedeo": 9198,
      "Perizitɔwo": 9199,
      "Baanabas": 9200,
      "Asuafoɔ": 9201,
      "Ehud": 9202,
      "azi": 9203,
      "mAgya": 9204,
      "nhema": 9205,
      "ɔtie": 9206,
      "nanteɛ": 9207,
      "nakodeɛ": 9208,
      "maso": 9209,
      "melãwo": 9210,
      "noɔ": 9211,
      "wɔgu": 9212,
      "wɔdwane": 9213,
      "tib": 9214,
      "yeatsrɔ̃": 9215,
      "bɛyera": 9216,
      "seƒe": 9217,
      "susuo": 9218,
      "wafa": 9219,
      "wòano": 9220,
      "kokuro": 9221,
      "rehwɛ": 9222,
      "remfiri": 9223,
      "pamo": 9224,
      "wɔnku": 9225,
      "duna": 9226,
      "Yea": 9227,
      "bora": 9228,
      "gad": 9229,
      "Kanaa": 9230,
      "Masi": 9231,
      "guguu": 9232,
      "woasa": 9233,
      "nsoma": 9234,
      "fianyɔnu": 9235,
      "ɖikaa": 9236,
      "xɔta": 9237,
      "Monni": 9238,
      "puh": 9239,
      "asib": 9240,
      "Megido": 9241,
      "funtum": 9242,
      "goawo": 9243,
      "goŋgo": 9244,
      "mieɖu": 9245,
      "ɛntene": 9246,
      "míado": 9247,
      "míaɖu": 9248,
      "mɛhunu": 9249,
      "akɔnta": 9250,
      "Sihɔn": 9251,
      "bindoo": 9252,
      "hyehyeɛ": 9253,
      "angu": 9254,
      "kpimi": 9255,
      "nàte": 9256,
      "hwehwe": 9257,
      "leeri": 9258,
      "Yɛda": 9259,
      "yiɣisiri": 9260,
      "kplikpaa": 9261,
      "Perisi": 9262,
      "Perez": 9263,
      "mmee": 9264,
      "mmeamu": 9265,
      "bɔrimi": 9266,
      "wɔremfa": 9267,
      "aguo": 9268,
      "Eliasib": 9269,
      "wɔyɛeɛ": 9270,
      "wobɛnya": 9271,
      "Míele": 9272,
      "kokoam": 9273,
      "Gog": 9274,
      "kpuɣila": 9275,
      "Tekoa": 9276,
      "tasiaɖamfɔ": 9277,
      "Tapua": 9278,
      "gbibila": 9279,
      "aboyoe": 9280,
      "hamea": 9281,
      "Miekpɔ": 9282,
      "Midiannim": 9283,
      "ŋgonu": 9284,
      "mpena": 9285,
      "Debora": 9286,
      "ninkuntwe": 9287,
      "nkotodwe": 9288,
      "pisinaanahi": 9289,
      "mabufuo": 9290,
      "afuom": 9291,
      "tusaata": 9292,
      "amradofoɔ": 9293,
      "aʋawɔnu": 9294,
      "nahuna": 9295,
      "ababaawa": 9296,
      "nketenkete": 9297,
      "talento": 9298,
      "Rahab": 9299,
      "tofloko": 9300,
      "Perisifoɔ": 9301,
      "Agri": 9302,
      "Bali": 9303,
      "Etɔ": 9304,
      "Eƒo": 9305,
      "Hara": 9306,
      "Mɛyɛ": 9307,
      "efunu": 9308,
      "fɛm": 9309,
      "mbu": 9310,
      "nhwehwɛ": 9311,
      "ƒui": 9312,
      "Ɣleti": 9313,
      "nato": 9314,
      "nabia": 9315,
      "natsrɔ̃": 9316,
      "mahwɛ": 9317,
      "mamfa": 9318,
      "wonni": 9319,
      "wogye": 9320,
      "mekɔɔ": 9321,
      "dansarika": 9322,
      "lila": 9323,
      "noam": 9324,
      "wɔwiee": 9325,
      "tiatiawo": 9326,
      "kpim": 9327,
      "wila": 9328,
      "solɔri": 9329,
      "bimi": 9330,
      "midze": 9331,
      "kua": 9332,
      "kɔfa": 9333,
      "sus": 9334,
      "suewo": 9335,
      "tamia": 9336,
      "takpeƒe": 9337,
      "taterɛ": 9338,
      "wòfa": 9339,
      "pagya": 9340,
      "totoo": 9341,
      "amesiawo": 9342,
      "bɔpiɛligu": 9343,
      "zama": 9344,
      "gawu": 9345,
      "loya": 9346,
      "kyeaa": 9347,
      "elu": 9348,
      "woahyɛ": 9349,
      "woayra": 9350,
      "kpeawo": 9351,
      "Yehoas": 9352,
      "ginda": 9353,
      "Mole": 9354,
      "kpahim": 9355,
      "aseni": 9356,
      "Dibon": 9357,
      "Mesopo": 9358,
      "wuraa": 9359,
      "wɔahyehyɛ": 9360,
      "Yinima": 9361,
      "dzona": 9362,
      "míava": 9363,
      "ntentan": 9364,
      "aduɔkron": 9365,
      "evee": 9366,
      "aʋagbe": 9367,
      "ntoa": 9368,
      "nyɔnuawo": 9369,
      "nʼagyapadeɛ": 9370,
      "nkɔn": 9371,
      "nàlé": 9372,
      "mmue": 9373,
      "agyae": 9374,
      "xai": 9375,
      "mpasua": 9376,
      "fɔɖi": 9377,
      "renwu": 9378,
      "wuhir": 9379,
      "gɔmeɖo": 9380,
      "ɔnokwafoɔ": 9381,
      "womeɖe": 9382,
      "kpɛla": 9383,
      "nkurowa": 9384,
      "Geha": 9385,
      "Zedekia": 9386,
      "tameɖoɖo": 9387,
      "vevietɔ": 9388,
      "klosalogba": 9389,
      "nagyapadeɛ": 9390,
      "dimbɔŋɔnima": 9391,
      "migavɔ̃": 9392,
      "tɔgbuiawo": 9393,
      "nkaeɛfoɔ": 9394,
      "Tena": 9395,
      "apontoɔ": 9396,
      "mmɔborɔfoɔ": 9397,
      "anɔpahema": 9398,
      "gbaŋŋma": 9399,
      "mpea": 9400,
      "shihir": 9401,
      "gbɔdzɔgbɔdzɔ": 9402,
      "ɔgyefoɔ": 9403,
      "nahoɔden": 9404,
      "ɖetugbiwo": 9405,
      "nakomam": 9406,
      "firilatamdigu": 9407,
      "Niŋm": 9408,
      "ɔpedu": 9409,
      "ŋutasẽlawo": 9410,
      "daanabinim": 9411,
      "atizɔti": 9412,
      "Hɛshibɔn": 9413,
      "Isebel": 9414,
      "anweatam": 9415,
      "kronkronyɛ": 9416,
      "Rabsake": 9417,
      "wansuwa": 9418,
      "Agripa": 9419,
      "Mesopotamia": 9420,
      "An": 9421,
      "Efa": 9422,
      "Gɛda": 9423,
      "eda": 9424,
      "esu": 9425,
      "nkat": 9426,
      "oki": 9427,
      "èɖe": 9428,
      "ɔdwane": 9429,
      "ɔtwaa": 9430,
      "ɛri": 9431,
      "ɛtoɔ": 9432,
      "mage": 9433,
      "madwene": 9434,
      "woti": 9435,
      "wokaka": 9436,
      "wodzidze": 9437,
      "menyi": 9438,
      "medii": 9439,
      "lio": 9440,
      "wɔsee": 9441,
      "wɔsiane": 9442,
      "wɔdane": 9443,
      "wɔtɔn": 9444,
      "solɔɣu": 9445,
      "bir": 9446,
      "binnan": 9447,
      "rak": 9448,
      "nugɔmesese": 9449,
      "anigye": 9450,
      "misɛm": 9451,
      "sɛso": 9452,
[...]
