{
  "version": "1.0",
  "truncation": {
    "direction": "Right",
    "max_length": 128,
    "strategy": "LongestFirst",
    "stride": 0
  },
  "padding": null,
  "added_tokens": [
    {
      "id": 0,
      "content": "[PAD]",
      "single_word": false,
      "lstrip": false,
      "rstrip": false,
      "normalized": false,
      "special": true
    },
    {
      "id": 1,
      "content": "[UNK]",
      "single_word": false,
      "lstrip": false,
      "rstrip": false,
      "normalized": false,
      "special": true
    },
    {
      "id": 2,
      "content": "[CLS]",
      "single_word": false,
      "lstrip": false,
      "rstrip": false,
      "normalized": false,
      "special": true
    },
    {
      "id": 3,
      "content": "[SEP]",
      "single_word": false,
      "lstrip": false,
      "rstrip": false,
      "normalized": false,
      "special": true
    },
    {
      "id": 4,
      "content": "[MASK]",
      "single_word": false,
      "lstrip": false,
      "rstrip": false,
      "normalized": false,
      "special": true
    }
  ],
  "normalizer": {
    "type": "Sequence",
    "normalizers": [
      {
        "type": "NFC"
      }
    ]
  },
  "pre_tokenizer": {
    "type": "Whitespace"
  },
  "post_processor": {
    "type": "TemplateProcessing",
    "single": [
      {
        "SpecialToken": {
          "id": "[CLS]",
          "type_id": 0
        }
      },
      {
        "Sequence": {
          "id": "A",
          "type_id": 0
        }
      },
      {
        "SpecialToken": {
          "id": "[SEP]",
          "type_id": 0
        }
      }
    ],
    "pair": [
      {
        "SpecialToken": {
          "id": "[CLS]",
          "type_id": 0
        }
      },
      {
        "Sequence": {
          "id": "A",
          "type_id": 0
        }
      },
      {
        "SpecialToken": {
          "id": "[SEP]",
          "type_id": 0
        }
      },
      {
        "Sequence": {
          "id": "B",
          "type_id": 1
        }
      },
      {
        "SpecialToken": {
          "id": "[SEP]",
          "type_id": 1
        }
      }
    ],
    "special_tokens": {
      "[CLS]": {
        "id": "[CLS]",
        "ids": [
          2
        ],
        "tokens": [
          "[CLS]"
        ]
      },
      "[SEP]": {
        "id": "[SEP]",
        "ids": [
          3
        ],
        "tokens": [
          "[SEP]"
        ]
      }
    }
  },
  "decoder": null,
  "model": {
    "type": "Unigram",
    "unk_id": 1,
    "vocab": [
      [
        "[PAD]",
        0.0
      ],
      [
        "[UNK]",
        0.0
      ],
      [
        "[CLS]",
        0.0
      ],
      [
        "[SEP]",
        0.0
      ],
      [
        "[MASK]",
        0.0
      ],
      [
        "a",
        -2.459542647416576
      ],
      [
        "n",
        -2.559246382807334
      ],
      [
        "e",
        -3.219294848467804
      ],
      [
        ",",
        -3.239454342381835
      ],
      [
        "i",
        -3.4448144055975725
      ],
      [
        ".",
        -3.4821374648650103
      ],
      [
        "o",
        -3.504474597400943
      ],
      [
        "<",
        -3.7499731310124176
      ],
      [
        ">",
        -3.7499731310124176
      ],
      [
        "m",
        -4.0627023071606665
      ],
      [
        "la",
        -4.2137716831088134
      ],
      [
        "ka",
        -4.431729012148155
      ],
      [
        "l",
        -4.439183625329537
      ],
      [
        "wo",
        -4.545348141634085
      ],
      [
        "twi",
        -4.724557086485381
      ],
      [
        "ɛ",
        -4.731018281841678
      ],
      [
        "ewe",
        -4.733116547687668
      ],
      [
        "me",
        -4.810045775700845
      ],
      [
        "sɛ",
        -4.995241196629486
      ],
      [
        "be",
        -5.006795234768219
      ],
      [
        "d",
        -5.034308566792182
      ],
      [
        "si",
        -5.083559055551156
      ],
      [
        "u",
        -5.1072138546221595
      ],
      [
        "ɖe",
        -5.108925360993677
      ],
      [
        "yi",
        -5.113937408995836
      ],
      [
        "ƒe",
        -5.1167534443310885
      ],
      [
        "dagban",
        -5.138554179528034
      ],
      [
        "daa",
        -5.1720975380900125
      ],
      [
        "ti",
        -5.185923336667749
      ],
      [
        "b",
        -5.231726050330302
      ],
      [
        "ɔ",
        -5.239853114357047
      ],
      [
        "so",
        -5.296834660614071
      ],
      [
        "eye",
        -5.3525550080102064
      ],
      [
        "maa",
        -5.381251425872133
      ],
      [
        "mu",
        -5.4320809875528475
      ],
      [
        "Na",
        -5.479676621380616
      ],
      [
        "-",
        -5.492229238215042
      ],
      [
        "wɔ",
        -5.527331688542212
      ],
      [
        "bɛ",
        -5.5391905242266795
      ],
      [
        "wɔn",
        -5.552305184725121
      ],
      [
        "di",
        -5.589498886648027
      ],
      [
        "s",
        -5.597426949959999
      ],
      [
        "t",
        -5.611700931196198
      ],
      [
        ":",
        -5.613217158304048
      ],
      [
        "kple",
        -5.639439499148111
      ],
      [
        ";",
        -5.648074880684469
      ],
      [
        "nye",
        -5.705524676168629
      ],
      [
        "bi",
        -5.762026036815854
      ],
      [
        "deɛ",
        -5.762373047906916
      ],
      [
        "foɔ",
        -5.76714202266893
      ],
      [
        "dzi",
        -5.775980816550598
      ],
      [
        "y",
        -5.8270477263799485
      ],
      [
        "D",
        -5.836698899980613
      ],
      [
        "nyɛ",
        -5.899357604418839
      ],
      [
        "ho",
        -5.910279444780555
      ],
      [
        "N",
        -5.949537822389594
      ],
      [
        "k",
        -5.966271441335557
      ],
      [
        "yɛ",
        -5.969984846884309
      ],
      [
        "ŋu",
        -5.9923551742871695
      ],
      [
        "wò",
        -6.034614309610598
      ],
      [
        "E",
        -6.085637203465925
      ],
      [
        "Ka",
        -6.153506674726891
      ],
      [
        "?",
        -6.203682731583472
      ],
      [
        "nya",
        -6.300154909925039
      ],
      [
        "ame",
        -6.308008954369065
      ],
      [
        "nyina",
        -6.342203852604804
      ],
      [
        "zaŋ",
        -6.359483939137865
      ],
      [
        "din",
        -6.381501559088694
      ],
      [
        "siwo",
        -6.390434135652596
      ],
      [
        "O",
        -6.451023071213113
      ],
      [
        "zuɣu",
        -6.451200663314292
      ],
      [
        "ara",
        -6.455095269670885
      ],
      [
        "ŋɔ",
        -6.481243388834564
      ],
      [
        "ku",
        -6.498502309932682
      ],
      [
        "ɖ",
        -6.51297632616169
      ],
      [
        "to",
        -6.530709800360995
      ],
      [
        "v",
        -6.549565772343154
      ],
      [
        "!",
        -6.5587816640354895
      ],
      [
        "mini",
        -6.595806774892097
      ],
      [
        "AWU",
        -6.607838525114433
      ],
      [
        "tso",
        -6.610967564746403
      ],
      [
        "RA",
        -6.612214147383927
      ],
      [
        "pɔn",
        -6.614477884315061
      ],
      [
        "ŋun",
        -6.6260393745885455
      ],
      [
        "ɖo",
        -6.631701774817319
      ],
      [
        "Israel",
        -6.634340479712719
      ],
      [
        "A",
        -6.635457676844684
      ],
      [
        "Yaw",
        -6.642188614092024
      ],
      [
        "zaa",
        -6.643833776749327
      ],
      [
        "Mawu",
        -6.645771323486997
      ],
      [
        "Yehowa",
        -6.660170497521927
      ],
      [
        "eƒe",
        -6.667937910854063
      ],
      [
        "yɛli",
        -6.695057262024481
      ],
      [
        "yɛn",
        -6.699091713820026
      ],
      [
        "Naawuni",
        -6.705329457986371
      ],
      [
        "katã",
        -6.729171060085026
      ],
      [
        "niŋ",
        -6.729423792882423
      ],
      [
        "shɛli",
        -6.742736822842126
      ],
      [
        "chɛ",
        -6.751951763794748
      ],
      [
        "kyerɛ",
        -6.754297313228957
      ],
      [
        "gblɔ",
        -6.8242832808663945
      ],
      [
        "mma",
        -6.859184721896565
      ],
      [
        "h",
        -6.896534202096655
      ],
      [
        "bu",
        -6.9116589978563745
      ],
      [
        "gbe",
        -6.921353093995387
      ],
      [
        "hã",
        -6.929873734068327
      ],
      [
        "fia",
        -6.936435480592113
      ],
      [
        "bɛn",
        -6.948319790054422
      ],
      [
        "Aƒetɔ",
        -6.951877649179526
      ],
      [
        "hɔ",
        -6.955796342994514
      ],
      [
        "kɔ",
        -6.965261894083806
      ],
      [
        "gu",
        -6.965363068962612
      ],
      [
        "ene",
        -6.968989179057335
      ],
      [
        "mia",
        -6.979382935142359
      ],
      [
        "g",
        -7.003935431473366
      ],
      [
        "mali",
        -7.017649680329306
      ],
      [
        "sia",
        -7.0430368512788935
      ],
      [
        "gbɔ",
        -7.049075446353127
      ],
      [
        "nso",
        -7.055971417958622
      ],
      [
        "bena",
        -7.059901277477007
      ],
      [
        "Awura",
        -7.0637400347039705
      ],
      [
        "asase",
        -7.133895193340077
      ],
      [
        "Yesu",
        -7.168492020307582
      ],
      [
        "w",
        -7.169908341150061
      ],
      [
        "iriba",
        -7.182509062967361
      ],
      [
        "kpe",
        -7.19368149180089
      ],
      [
        "shɛm",
        -7.200568441055298
      ],
      [
        "Ey",
        -7.22658669961247
      ],
      [
        "vi",
        -7.230566729135473
      ],
      [
        "saha",
        -7.258657199643912
      ],
      [
        "fa",
        -7.259629731098361
      ],
      [
        "elabe",
        -7.268222069961119
      ],
      [
        "Ke",
        -7.281661682204625
      ],
      [
        "ye",
        -7.285223749983581
      ],
      [
        "pa",
        -7.316682881100299
      ],
      [
        "nyanko",
        -7.321707916445034
      ],
      [
        "chaŋ",
        -7.325407273016788
      ],
      [
        "soɔ",
        -7.326828851048514
      ],
      [
        "du",
        -7.330512438912567
      ],
      [
        "anyigba",
        -7.336733900299908
      ],
      [
        "yɛl",
        -7.339995706815971
      ],
      [
        "nsa",
        -7.367595950132435
      ],
      [
        "ase",
        -7.368335523945889
      ],
      [
        "gba",
        -7.381308870941028
      ],
      [
        "sani",
        -7.389859635022384
      ],
      [
        "kam",
        -7.392592882399839
      ],
      [
        "kpɔ",
        -7.410852482159903
      ],
      [
        "tɔ",
        -7.413397642919861
      ],
      [
        "M",
        -7.42683473314151
      ],
      [
        "vuɣ",
        -7.431411211005184
      ],
      [
        "yanko",
        -7.439860674852882
      ],
      [
        "ɛfiri",
        -7.4440112203880595
      ],
      [
        "Yuda",
        -7.446435377955744
      ],
      [
        "shɛb",
        -7.454818769325261
      ],
      [
        "r",
        -7.464881648888641
      ],
      [
        "nti",
        -7.4676666003704195
      ],
      [
        "Bɛ",
        -7.480650800511503
      ],
      [
        "pam",
        -7.48092358954006
      ],
      [
        "dome",
        -7.552931150029592
      ],
      [
        "kaman",
        -7.553630432115515
      ],
      [
        "Y",
        -7.569288009518802
      ],
      [
        "wu",
        -7.56952586259596
      ],
      [
        "wɔde",
        -7.570018347287435
      ],
      [
        "ɖeka",
        -7.572333746343915
      ],
      [
        "asɛm",
        -7.595022057616156
      ],
      [
        "firi",
        -7.601163551433755
      ],
      [
        "anim",
        -7.602835298414142
      ],
      [
        "nkyɛn",
        -7.60707617900111
      ],
      [
        "Mose",
        -7.611989196569427
      ],
      [
        "kul",
        -7.621729905245257
      ],
      [
        "T",
        -7.646947942419517
      ],
      [
        "afi",
        -7.652175128487581
      ],
      [
        "ƒo",
        -7.654928698418224
      ],
      [
        "shɛŋa",
        -7.656470698699231
      ],
      [
        "berɛ",
        -7.666241301724137
      ],
      [
        "dze",
        -7.666933930515729
      ],
      [
        "Yerusalem",
        -7.670698997368298
      ],
      [
        "xɔ",
        -7.671200209060439
      ],
      [
        "tum",
        -7.676614367572299
      ],
      [
        "Sɛ",
        -7.7089206360351135
      ],
      [
        "ɔde",
        -7.71141729607297
      ],
      [
        "Ame",
        -7.712556826369182
      ],
      [
        "esi",
        -7.713102219054562
      ],
      [
        "f",
        -7.718321856981532
      ],
      [
        "dukɔ",
        -7.719182331598471
      ],
      [
        "Wo",
        -7.726257789126997
      ],
      [
        "mía",
        -7.727573901288485
      ],
      [
        "bɔne",
        -7.73755957763478
      ],
      [
        "nnipa",
        -7.745497466606233
      ],
      [
        "anyi",
        -7.751280169630322
      ],
      [
        "tsi",
        -7.75712062482379
      ],
      [
        "dama",
        -7.762778121447683
      ],
      [
        "too",
        -7.762961649888936
      ],
      [
        "z",
        -7.764058550641272
      ],
      [
        "Esi",
        -7.769954997286316
      ],
      [
        "Dawi",
        -7.781262555421506
      ],
      [
        "ŋuti",
        -7.78694205320469
      ],
      [
        "fie",
        -7.796765182822874
      ],
      [
        "ŋutɔ",
        -7.8002668237074655
      ],
      [
        "viwo",
        -7.800892067087281
      ],
      [
        "Ale",
        -7.81030060379139
      ],
      [
        "hyɛ",
        -7.8180408311546525
      ],
      [
        "hwɛ",
        -7.841297724604948
      ],
      [
        "eŋu",
        -7.842687315389014
      ],
      [
        "dzo",
        -7.855080064165429
      ],
      [
        "alo",
        -7.8986172365643235
      ],
      [
        "suhu",
        -7.903788165842602
      ],
      [
        "zuliya",
        -7.905858480116249
      ],
      [
        "ɛyɛ",
        -7.916141062213448
      ],
      [
        "mele",
        -7.916936571231011
      ],
      [
        "vɔ",
        -7.917591535724263
      ],
      [
        "hene",
        -7.927986368983497
      ],
      [
        "hal",
        -7.930443417921074
      ],
      [
        "Izraɛlnim",
        -7.932929321093752
      ],
      [
        "min",
        -7.933033318519422
      ],
      [
        "ŋ",
        -7.937072833706091
      ],
      [
        "ete",
        -7.94149249350753
      ],
      [
        "Yisa",
        -7.943921954583775
      ],
      [
        "tsɔ",
        -7.95597747758634
      ],
      [
        "mí",
        -7.960682082117982
      ],
      [
        "ƒu",
        -7.968217666342957
      ],
      [
        "ɔyɛ",
        -7.9706373930763
      ],
      [
        "tumi",
        -7.979368712626727
      ],
      [
        "bɔ",
        -7.980683272322346
      ],
      [
        "nim",
        -7.982905160733624
      ],
      [
        "ɔhene",
        -7.986192680555816
      ],
      [
        "ŋku",
        -7.987752986414359
      ],
      [
        "sara",
        -7.998417141487865
      ],
      [
        "Kristo",
        -8.003665141484095
      ],
      [
        "polo",
        -8.007343964548266
      ],
      [
        "kɔɔ",
        -8.024805880281155
      ],
      [
        "bahi",
        -8.032319752559903
      ],
      [
        "mede",
        -8.03324659553494
      ],
      [
        "eve",
        -8.033806613830558
      ],
      [
        "zu",
        -8.034964832329955
      ],
      [
        "agbe",
        -8.045268252106933
      ],
      [
        "nom",
        -8.04727564699701
      ],
      [
        "Ɛ",
        -8.049846728998675
      ],
      [
        "siawo",
        -8.05109988444692
      ],
      [
        "Ama",
        -8.052619574682897
      ],
      [
        "kuro",
        -8.057654728968764
      ],
      [
        "firii",
        -8.067419482576035
      ],
      [
        "Le",
        -8.067445519045076
      ],
      [
        "bia",
        -8.076825890118638
      ],
      [
        "puuni",
        -8.078605894887316
      ],
      [
        "ŋkeke",
        -8.083638110236203
      ],
      [
        "blibo",
        -8.087109278616794
      ],
      [
        "Elabe",
        -8.089124817893829
      ],
      [
        "baako",
        -8.098330315489466
      ],
      [
        "nanso",
        -8.101294930153166
      ],
      [
        "amesi",
        -8.105014301184717
      ],
      [
        "bubu",
        -8.105594216273122
      ],
      [
        "fam",
        -8.11069206913941
      ],
      [
        "aɖeke",
        -8.112490714318806
      ],
      [
        "obi",
        -8.128462865043959
      ],
      [
        "doli",
        -8.135701964453423
      ],
      [
        "ŋkɔ",
        -8.138611785640485
      ],
      [
        "Me",
        -8.158410976527119
      ],
      [
        "yɛtɔɣ",
        -8.165264044469826
      ],
      [
        "tiŋgbɔŋ",
        -8.166457638699226
      ],
      [
        "fu",
        -8.173606226287518
      ],
      [
        "kum",
        -8.174783671495941
      ],
      [
        "wɔwɔ",
        -8.178217816792339
      ],
      [
        "kwan",
        -8.185280820693725
      ],
      [
        "wum",
        -8.19229729270321
      ],
      [
        "ade",
        -8.202330313196434
      ],
      [
        "mienu",
        -8.206276523410878
      ],
      [
        "enti",
        -8.22395397542049
      ],
      [
        "vɔ̃",
        -8.236209455709478
      ],
      [
        "afe",
        -8.238303101670372
      ],
      [
        "megbe",
        -8.260215079818874
      ],
      [
        "ri",
        -8.261064200265716
      ],
      [
        "kɛseɛ",
        -8.276994647898753
      ],
      [
        "pɛ",
        -8.277540216278533
      ],
      [
        "bihi",
        -8.278453106984937
      ],
      [
        "menye",
        -8.282954697532947
      ],
      [
        "ava",
        -8.28866162518781
      ],
      [
        "Yakob",
        -8.288942908156983
      ],
      [
        "Saul",
        -8.300861767652997
      ],
      [
        "shee",
        -8.302382721219493
      ],
      [
        "ɔman",
        -8.31291995504619
      ],
      [
        "ekema",
        -8.31844567691375
      ],
      [
        "afiri",
        -8.321076130324634
      ],
      [
        "zali",
        -8.322101823262086
      ],
      [
        "paɣ",
        -8.325655046753194
      ],
      [
        "tiŋgban",
        -8.331713570415417
      ],
      [
        "dua",
        -8.340403195064606
      ],
      [
        "go",
        -8.345511574074681
      ],
      [
        "nsɛm",
        -8.348394248077886
      ],
      [
        "tuhi",
        -8.353920865670805
      ],
      [
        "B",
        -8.360040758108473
      ],
      [
        "onipa",
        -8.365199488632403
      ],
      [
        "tiŋ",
        -8.369644411507963
      ],
      [
        "Ɛnn",
        -8.373468304680618
      ],
      [
        "nyaaŋ",
        -8.377018030998723
      ],
      [
        "duu",
        -8.381335858377156
      ],
      [
        "teƒe",
        -8.382193661785564
      ],
      [
        "ŋutsu",
        -8.387256481810837
      ],
      [
        "pahi",
        -8.39507759749496
      ],
      [
        "nkwa",
        -8.397818077917547
      ],
      [
        "ʋu",
        -8.398224871013628
      ],
      [
        "kronkron",
        -8.416864205375873
      ],
      [
        "yuli",
        -8.422600726685065
      ],
      [
        "ɛwɔ",
        -8.422752373560526
      ],
      [
        "agya",
        -8.423207626410797
      ],
      [
        "Duuma",
        -8.429652553320784
      ],
      [
        "Nye",
        -8.435242385409236
      ],
      [
        "akpe",
        -8.440268655482672
      ],
      [
        "Misraim",
        -8.448381797515687
      ],
      [
        "esime",
        -8.449664469305898
      ],
      [
        "sika",
        -8.451627641893552
      ],
      [
        "afɔde",
        -8.452056818487648
      ],
      [
        "kpi",
        -8.454175441838808
      ],
      [
        "edzi",
        -8.454922160886941
      ],
      [
        "teɛ",
        -8.459349804194083
      ],
      [
        "uda",
        -8.461818828134339
      ],
      [
        "amewo",
        -8.466359872890198
      ],
      [
        "zi",
        -8.468009617675088
      ],
      [
        "hunuu",
        -8.471990368937712
      ],
      [
        "pii",
        -8.475392090363894
      ],
      [
        "mmara",
        -8.47621721850328
      ],
      [
        "tuma",
        -8.482186386388552
      ],
      [
        "boŋ",
        -8.486448237625677
      ],
      [
        "paai",
        -8.494101512344145
      ],
      [
        "Afe",
        -8.49410304927281
      ],
      [
        "Ti",
        -8.499215730481742
      ],
      [
        "ŋusẽ",
        -8.501048511948415
      ],
      [
        "ʒi",
        -8.504909519616898
      ],
      [
        "Dama",
        -8.509718457483855
      ],
      [
        "vid",
        -8.511695036885577
      ],
      [
        "jɛmb",
        -8.520581648563983
      ],
      [
        "Yei",
        -8.524061489020688
      ],
      [
        "fi",
        -8.527760922838505
      ],
      [
        "buɣim",
        -8.5294024113972
      ],
      [
        "mmarima",
        -8.531460962663852
      ],
      [
        "bɔɔ",
        -8.532610689933058
      ],
      [
        "miaƒ",
        -8.53417377068357
      ],
      [
        "daŋ",
        -8.54053024845768
      ],
      [
        "gã",
        -8.541793238081567
      ],
      [
        "ɖeke",
        -8.548716413947778
      ],
      [
        "gari",
        -8.549660515874141
      ],
      [
        "tiri",
        -8.54981654377707
      ],
      [
        "yiɣisi",
        -8.555917712789292
      ],
      [
        "lã",
        -8.558337387089601
      ],
      [
        "Egipte",
        -8.562619750787489
      ],
      [
        "nuu",
        -8.567065722390208
      ],
      [
        "Azɔ",
        -8.572238252035582
      ],
      [
        "ɔno",
        -8.572498130578769
      ],
      [
        "dali",
        -8.574091419458247
      ],
      [
        "aʋa",
        -8.574099496086207
      ],
      [
        "Ɖe",
        -8.576194077095847
      ],
      [
        "dometɔ",
        -8.581440905420594
      ],
      [
        "bɔri",
        -8.58435483536745
      ],
      [
        "nimaani",
        -8.58682937969594
      ],
      [
        "simdi",
        -8.587171123940703
      ],
      [
        "akyi",
        -8.589323839774849
      ],
      [
        "akɔ",
        -8.593364698018476
      ],
      [
        "seɛ",
        -8.593387581980881
      ],
      [
        "wotsɔ",
        -8.605341112946434
      ],
      [
        "tɔwo",
        -8.609585073417353
      ],
      [
        "hafi",
        -8.613622929267923
      ],
      [
        "wuhi",
        -8.614372488461406
      ],
      [
        "sɔŋ",
        -8.61713532305064
      ],
      [
        "p",
        -8.617153980760422
      ],
      [
        "luɣ",
        -8.619866872821405
      ],
      [
        "baŋ",
        -8.623327257181352
      ],
      [
        "kpa",
        -8.62845962367171
      ],
      [
        "foforɔ",
        -8.628737151565488
      ],
      [
        "nko",
        -8.629599821587757
      ],
      [
        "ɣi",
        -8.630218486785445
      ],
      [
        "ŋkume",
        -8.634148026764766
      ],
      [
        "asafo",
        -8.636186429798643
      ],
      [
        "zaɣ",
        -8.638542746092757
      ],
      [
        "gye",
        -8.639549227257888
      ],
      [
        "kasa",
        -8.642601614850033
      ],
      [
        "wɔyɛ",
        -8.643068691553111
      ],
      [
        "ŋgɔ",
        -8.64624440993672
      ],
      [
        "sene",
        -8.647975522399204
      ],
      [
        "nsuo",
        -8.651160710090728
      ],
      [
        "bɛyɛ",
        -8.652741505502366
      ],
      [
        "pun",
        -8.65561963198709
      ],
      [
        "tee",
        -8.658495791136135
      ],
      [
        "gake",
        -8.659167932526216
      ],
      [
        "barima",
        -8.659812846339161
      ],
      [
        "yini",
        -8.661061495110781
      ],
      [
        "dunia",
        -8.663047036599464
      ],
      [
        "S",
        -8.665031534681344
      ],
      [
        "alafa",
        -8.668744864709236
      ],
      [
        "dɔm",
        -8.679760861358034
      ],
      [
        "Mus",
        -8.681208980600669
      ],
      [
        "mfiri",
        -8.683249244082024
      ],
      [
        "nyɔnu",
        -8.684338873025197
      ],
      [
        "Mo",
        -8.690739980731749
      ],
      [
        "ɔma",
        -8.695341587768521
      ],
      [
        "wode",
        -8.696363400584248
      ],
      [
        "K",
        -8.704323908535834
      ],
      [
        "P",
        -8.708562960791747
      ],
      [
        "Mi",
        -8.717999854861045
      ],
      [
        "aseɛ",
        -8.71839283672249
      ],
      [
        "ahyɛ",
        -8.720632457264845
      ],
      [
        "fɔ",
        -8.724735728474379
      ],
      [
        "ɖu",
        -8.7294391069153
      ],
      [
        "biɛhi",
        -8.732607067463109
      ],
      [
        "toon",
        -8.73723318162806
      ],
      [
        "wole",
        -8.740294607170055
      ],
      [
        "abɔ",
        -8.740694021487258
      ],
      [
        "animuonyam",
        -8.746266427283981
      ],
      [
        "kuo",
        -8.747928042550827
      ],
      [
        "pɔ",
        -8.74940465243262
      ],
      [
        "azɔ",
        -8.751973501916902
      ],
      [
        "lé",
        -8.752071736219456
      ],
      [
        "ntam",
        -8.753649735222968
      ],
      [
        "ɣ",
        -8.760374967886381
      ],
      [
        "Izraɛl",
        -8.761270532036898
      ],
      [
        "etɔ̃",
        -8.761308728438841
      ],
      [
        "akoma",
        -8.762657349462403
      ],
      [
        "wògblɔ",
        -8.765089214157895
      ],
      [
        "kom",
        -8.76516576641577
      ],
      [
        "Yose",
        -8.772891170835962
      ],
      [
        "afɔ",
        -8.774274474321096
      ],
      [
        "Hwɛ",
        -8.780841250091111
      ],
      [
        "Israelviwo",
        -8.782632114388658
      ],
      [
        "Abraham",
        -8.783163756854547
      ],
      [
        "Kpɔ",
        -8.784115297745936
      ],
      [
        "kuku",
        -8.787916991920234
      ],
      [
        "nsam",
        -8.787937128578694
      ],
      [
        "soli",
        -8.788334691587039
      ],
      [
        "Ab",
        -8.79069398568041
      ],
      [
        "tam",
        -8.790937658410773
      ],
      [
        "mpo",
        -8.79344819675589
      ],
      [
        "nyigba",
        -8.797400341845606
      ],
      [
        "kra",
        -8.802921957538203
      ],
      [
        "nneɛ",
        -8.803039212319955
      ],
      [
        "abusua",
        -8.80356856588714
      ],
      [
        "bɔŋɔ",
        -8.807295283924326
      ],
      [
        "yihi",
        -8.80734482756596
      ],
      [
        "aduane",
        -8.807937787122894
      ],
      [
        "nyui",
        -8.808255966290012
      ],
      [
        "kpakpl",
        -8.811004993916807
      ],
      [
        "dziƒo",
        -8.81114355469194
      ],
      [
        "Saa",
        -8.812052999206584
      ],
      [
        "Din",
        -8.814198592604257
      ],
      [
        "ɛtɔ",
        -8.81609909476565
      ],
      [
        "awu",
        -8.82142943342467
      ],
      [
        "dɛn",
        -8.822407658791896
      ],
      [
        "ako",
        -8.826740485098771
      ],
      [
        "oli",
        -8.827057926221146
      ],
      [
        "mfa",
        -8.828026432076461
      ],
      [
        "biɛri",
        -8.830287737645403
      ],
      [
        "nenema",
        -8.835016013720985
      ],
      [
        "biɛɣu",
        -8.83736945099153
      ],
      [
        "tenenee",
        -8.839984896791634
      ],
      [
        "Salom",
        -8.840267062323345
      ],
      [
        "nyo",
        -8.840634200160736
      ],
      [
        "ɛda",
        -8.847408813491764
      ],
      [
        "dzidzɔ",
        -8.847453421402928
      ],
      [
        "nir",
        -8.848059376628772
      ],
      [
        "zaligu",
        -8.855057763563414
      ],
      [
        "inzuɣu",
        -8.855605354271148
      ],
      [
        "Deɛ",
        -8.856201196854919
      ],
      [
        "mmom",
        -8.857580787479193
      ],
      [
        "viɛl",
        -8.8647670871898
      ],
      [
        "sane",
        -8.865197180322102
      ],
      [
        "Fia",
        -8.867019265782321
      ],
      [
        "biribi",
        -8.868773110768103
      ],
      [
        "ʒe",
        -8.870321023844983
      ],
      [
        "wura",
        -8.872604872496474
      ],
      [
        "asɔfo",
        -8.873223061907193
      ],
      [
        "nuano",
        -8.87479320600573
      ],
      [
        "bebre",
        -8.877587264487904
      ],
      [
        "alesi",
        -8.880143535077192
      ],
      [
        "Ŋun",
        -8.881339005097065
      ],
      [
        "Eya",
        -8.883132004350973
      ],
      [
        "dɔla",
        -8.885207530667417
      ],
      [
        "sanna",
        -8.886588377707767
      ],
      [
        "ubu",
        -8.88911130521646
      ],
      [
        "nkurɔfo",
        -8.889620302014213
      ],
      [
        "Wɔn",
        -8.890605903632032
      ],
      [
        "ɔsoro",
        -8.891522457230373
      ],
      [
        "kari",
        -8.894798313130941
      ],
      [
        "hunu",
        -8.89823604721174
      ],
      [
        "kpalim",
        -8.899968368104137
      ],
      [
        "kɔsi",
        -8.90506044429577
      ],
      [
        "ɛnyɛ",
        -8.90558346746176
      ],
      [
        "tsitre",
        -8.907789961309554
      ],
      [
        "bɔhi",
        -8.908427425214072
      ],
      [
        "honhom",
        -8.90892503806144
      ],
      [
        "kpli",
        -8.91071597404431
      ],
      [
        "amanaman",
        -8.91597460229395
      ],
      [
        "dzɔ",
        -8.917201402484217
      ],
      [
        "kplɔ",
        -8.919769981976078
      ],
      [
        "adwuma",
        -8.924176025016932
      ],
      [
        "ukyi",
        -8.924441033355262
      ],
      [
        "laɣim",
        -8.924814201938835
      ],
      [
        "Jɛrusalɛm",
        -8.927080700957111
      ],
      [
        "nipa",
        -8.927543743547872
      ],
      [
        "Fara",
        -8.927762013546044
      ],
      [
        "Lewi",
        -8.927883457758085
      ],
      [
        "bidibis",
        -8.932134486860857
      ],
      [
        "abarima",
        -8.932261329558182
      ],
      [
        "Yos",
        -8.93535390371935
      ],
      [
        "Wɔ",
        -8.936410674057694
      ],
      [
        "trɔ",
        -8.937383956503975
      ],
      [
        "maligu",
        -8.939355865577507
      ],
      [
        "mmoa",
        -8.943091065235397
      ],
      [
        "nokorɛ",
        -8.943743289862873
      ],
      [
        "Ɔ",
        -8.945946082550687
      ],
      [
        "niŋdi",
        -8.949354576871077
      ],
      [
        "aduonu",
        -8.95199296575922
      ],
      [
        "tiligi",
        -8.953383468189983
      ],
      [
        "daba",
        -8.95447389313534
      ],
      [
        "eɖokui",
        -8.954788203955568
      ],
      [
        "ogya",
        -8.95716579007582
      ],
      [
        "wònye",
        -8.958355228491042
      ],
      [
        "yino",
        -8.960874590777845
      ],
      [
        "wòle",
        -8.963573467922874
      ],
      [
        "wain",
        -8.964319213727096
      ],
      [
        "bisa",
        -8.970227848605765
      ],
      [
        "afɔreb",
        -8.971353848286835
      ],
      [
        "nunɔla",
        -8.97529568367822
      ],
      [
        "ŋmani",
        -8.980815072735549
      ],
      [
        "atam",
        -8.989026897458782
      ],
      [
        "faa",
        -8.990163383576325
      ],
      [
        "ɔbaa",
        -8.994977223713427
      ],
      [
        "kɔkɔe",
        -8.997633358202414
      ],
      [
        "dzɔdzɔe",
        -9.001350308490505
      ],
      [
        "nkuro",
        -9.002830761000862
      ],
      [
        "nini",
        -9.004971697219844
      ],
      [
        "ŋunye",
        -9.008850656943313
      ],
      [
        "ahunu",
        -9.013813158357635
      ],
      [
        "zuɣusaa",
        -9.014959830985802
      ],
      [
        "Wò",
        -9.017566148682452
      ],
      [
        "woawo",
        -9.019033605977873
      ],
      [
        "tumdi",
        -9.022616056130207
      ],
      [
        "j",
        -9.02335959214949
      ],
      [
        "yom",
        -9.023894455822385
      ],
      [
        "booni",
        -9.0276014196474
      ],
      [
        "ɔka",
        -9.03529994564505
      ],
      [
        "Masia",
        -9.035839268716916
      ],
      [
        "jilima",
        -9.039106848737315
      ],
      [
        "tim",
        -9.039417518654684
      ],
      [
        "korɔ",
        -9.04028832529698
      ],
      [
        "yoli",
        -9.04160984467635
      ],
      [
        "yere",
        -9.042378491064412
      ],
      [
        "ɣli",
        -9.043071218637875
      ],
      [
        "geɖe",
        -9.0447262150096
      ],
      [
        "Paulo",
        -9.046422755074008
      ],
      [
        "srɔ̃",
        -9.048238038811547
      ],
      [
        "mfe",
        -9.048977913000275
      ],
      [
        "mate",
        -9.04983664299924
      ],
      [
        "ɔwɔ",
        -9.056611327633975
      ],
      [
        "gbɔgbɔ",
        -9.057832179711944
      ],
      [
        "mogya",
        -9.059778676866117
      ],
      [
        "Juda",
        -9.06133749172547
      ],
      [
        "shɛl",
        -9.06202515163901
      ],
      [
        "bɛba",
        -9.06533899723336
      ],
      [
        "mpanim",
        -9.067136755474255
      ],
      [
        "zani",
        -9.07302577803834
      ],
      [
        "Samu",
        -9.075815100442169
      ],
      [
        "yɛda",
        -9.076207221736883
      ],
      [
        "dukɔwo",
        -9.080983858744204
      ],
      [
        "alahichi",
        -9.08341070005948
      ],
      [
        "mani",
        -9.084320589820146
      ],
      [
        "ɔse",
        -9.084915847804089
      ],
      [
        "etro",
        -9.08554519912595
      ],
      [
        "zã",
        -9.085761757412593
      ],
      [
        "bepɔ",
        -9.087957882868183
      ],
      [
        "Ijipti",
        -9.097894163406924
      ],
      [
        "taali",
        -9.09876581391468
      ],
      [
        "vɔsamlekpui",
        -9.10001970401094
      ],
      [
        "nusi",
        -9.10786509252121
      ],
      [
        "gɔ̃",
        -9.10790017388521
      ],
      [
        "esia",
        -9.109291941588683
      ],
      [
        "agbo",
        -9.11035311887906
      ],
      [
        "H",
        -9.112994537736792
      ],
      [
        "ɖokui",
        -9.11507385179052
      ],
      [
        "atifi",
        -9.117563508701055
      ],
      [
        "mmiɛ",
        -9.123135972305825
      ],
      [
        "zaŋdi",
        -9.123726396998316
      ],
      [
        "kpamba",
        -9.126056179215784
      ],
      [
        "tena",
        -9.128686103345592
      ],
      [
        "miya",
        -9.130255341320202
      ],
      [
        "akyiri",
        -9.13272215777692
      ],
      [
        "gɔme",
        -9.133480429328912
      ],
      [
        "frɛ",
        -9.133643314752394
      ],
      [
        "dɔɣi",
        -9.13481731755186
      ],
      [
        "dabisi",
        -9.138388302888655
      ],
      [
        "atɔ̃",
        -9.139321013867228
      ],
      [
        "x",
        -9.142688388448189
      ],
      [
        "tɔbbih",
        -9.143242197220529
      ],
      [
        "kana",
        -9.143312862393014
      ],
      [
        "dada",
        -9.145592528559629
      ],
      [
        "nyuie",
        -9.1458123662992
      ],
      [
        "Aro",
        -9.151319994599367
      ],
      [
        "gblɔe",
        -9.15155655023406
      ],
      [
        "yome",
        -9.15381539146096
      ],
      [
        "geɖewo",
        -9.154701659224154
      ],
      [
        "nuwo",
        -9.154730840778637
      ],
      [
        "bɛma",
        -9.158333337146384
      ],
      [
        "mekpɔ",
        -9.160298140429624
      ],
      [
        "Moab",
        -9.16273246329192
      ],
      [
        "yɛri",
        -9.165250961764002
      ],
      [
        "kuli",
        -9.165750924115647
      ],
      [
        "bili",
        -9.178796963350724
      ],
      [
        "dabiɛm",
        -9.179176058753452
      ],
      [
        "suhupiɛlli",
        -9.179222022705018
      ],
      [
        "tuu",
        -9.181026780524872
      ],
      [
        "yɔri",
        -9.184530932079252
      ],
      [
        "aɖewo",
        -9.186670923970343
      ],
      [
        "zaɣisi",
        -9.187647017147665
      ],
      [
        "miawo",
        -9.187906924090743
      ],
      [
        "ɔfiri",
        -9.18801648109688
      ],
      [
        "inom",
        -9.18824247076221
      ],
      [
        "tete",
        -9.188844860285506
      ],
      [
        "brɛ",
        -9.193550250385837
      ],
      [
        "akpa",
        -9.193736317742644
      ],
      [
        "ɛho",
        -9.194236576672196
      ],
      [
        "ŋuwò",
        -9.194958363867029
      ],
      [
        "susu",
        -9.196412859350472
      ],
      [
        "guu",
        -9.206747902537757
      ],
      [
        "ŋmaligi",
        -9.209388869504052
      ],
      [
        "aron",
        -9.213969933938277
      ],
      [
        "nyateƒe",
        -9.21530864356889
      ],
      [
        "sesẽ",
        -9.215499952585748
      ],
      [
        "Benyamin",
        -9.216163282306653
      ],
      [
        "Ɔhene",
        -9.21726096280436
      ],
      [
        "gbɔna",
        -9.218418789579452
      ],
      [
        "ɣeyiɣi",
        -9.220390537886695
      ],
      [
        "vevie",
        -9.222858324642395
      ],
      [
        "agbadɔ",
        -9.223476845069092
      ],
      [
        "nanim",
        -9.224204242077896
      ],
      [
        "dwetɛ",
        -9.225212392448954
      ],
      [
        "Filisti",
        -9.226293161848211
      ],
      [
        "nyansa",
        -9.228172895633914
      ],
      [
        "gbegbe",
        -9.229229876293816
      ],
      [
        "vɔ̃ɖi",
        -9.229841558228577
      ],
      [
        "nnwan",
        -9.23274550792068
      ],
      [
        "wowɔ",
        -9.23288715917062
      ],
      [
        "gbedoxɔ",
        -9.234578734311246
      ],
      [
        "Esia",
        -9.234998244436268
      ],
      [
        "nnua",
        -9.235202742784171
      ],
      [
        "gome",
        -9.236211465838595
      ],
      [
        "asomdwoeɛ",
        -9.237413257546716
      ],
      [
        "mmra",
        -9.238728548436104
      ],
      [
        "taba",
        -9.24275929322992
      ],
      [
        "yuun",
        -9.24367545337623
      ],
      [
        "mama",
        -9.243975239607288
      ],
      [
        "yiŋ",
        -9.245071629004173
      ],
      [
        "garigi",
        -9.246764599654137
      ],
      [
        "dodoɔ",
        -9.25000710431368
      ],
      [
        "míaƒ",
        -9.251817487180702
      ],
      [
        "woatsɔ",
        -9.252295413380732
      ],
      [
        "baabi",
        -9.252474555333343
      ],
      [
        "ahenni",
        -9.254552558353652
      ],
      [
        "dol",
        -9.255099315125335
      ],
      [
        "Samaria",
        -9.255652638856686
      ],
      [
        "mmusua",
        -9.25635259611204
      ],
      [
        "mmammarima",
        -9.258110530928192
      ],
      [
        "pumpɔ",
        -9.258387565118934
      ],
      [
        "tuun",
        -9.264377594082344
      ],
      [
        "nuɖuɖu",
        -9.26481032242622
      ],
      [
        "Bɔ",
        -9.264925858313983
      ],
      [
        "nuvɔ̃",
        -9.267832630847842
      ],
      [
        "zɔri",
        -9.26826737231093
      ],
      [
        "miele",
        -9.268787131653456
      ],
      [
        "alikauli",
        -9.269451154297968
      ],
      [
        "Asiria",
        -9.27050554543787
      ],
      [
        "yili",
        -9.271676966875658
      ],
      [
        "bɔh",
        -9.271835091197543
      ],
      [
        "Yudatɔwo",
        -9.272686981183622
      ],
      [
        "bimbin",
        -9.272708171839524
      ],
      [
        "yuri",
        -9.273083941325956
      ],
      [
        "paɣib",
        -9.276343831989395
      ],
      [
        "shiri",
        -9.277497741657688
      ],
      [
        "vase",
        -9.27822845683646
      ],
      [
        "boli",
        -9.27895334023773
      ],
      [
        "Yordan",
        -9.281128143532715
      ],
      [
        "tre",
        -9.281769737223655
      ],
      [
        "akyire",
        -9.28382822444548
      ],
      [
        "nkoa",
        -9.288226685344938
      ],
      [
        "yiko",
        -9.289860089033422
      ],
      [
        "maligumaani",
        -9.290859807992044
      ],
      [
        "ɛbɛyɛ",
        -9.291498759780715
      ],
      [
        "salim",
        -9.298077466882074
      ],
      [
        "ayopɔin",
        -9.2990273973357
      ],
      [
        "dɔmedzoe",
        -9.303237622660156
      ],
      [
        "sum",
        -9.305352305878486
      ],
      [
        "doo",
        -9.30568707863716
      ],
      [
        "Isak",
        -9.306036797226971
      ],
      [
        "Nya",
        -9.306594404596988
      ],
      [
        "yɛlimaŋli",
        -9.30764013088342
      ],
      [
        "gili",
        -9.32016184378745
      ],
      [
        "sɔre",
        -9.320199239317208
      ],
      [
        "aha",
        -9.320850968967044
      ],
      [
        "tarig",
        -9.3214650908147
      ],
      [
        "yɛliy",
        -9.321834390150247
      ],
      [
        "mese",
        -9.322203484469028
      ],
      [
        "wòtsɔ",
        -9.323007905601578
      ],
      [
        "xlã",
        -9.3246566886426
      ],
      [
        "Ɛfiri",
        -9.324704832335003
      ],
      [
        "mita",
        -9.325764166498084
      ],
      [
        "tab",
        -9.329453509493952
      ],
      [
        "nyin",
        -9.330686770988711
      ],
      [
        "ɔhyɛ",
        -9.332159661090811
      ],
      [
        "ahoɔden",
        -9.332946807453329
      ],
      [
        "hyeɛ",
        -9.33460121019043
      ],
      [
        "nyɛvili",
        -9.335856489215985
      ],
      [
        "reba",
        -9.336288519634556
      ],
      [
        "chani",
        -9.336681429751632
      ],
      [
        "amumuyɛ",
        -9.337858413491142
      ],
      [
        "didi",
        -9.33855010439834
      ],
      [
        "nkɔ",
        -9.338743885228274
      ],
      [
        "yaha",
        -9.339496231293612
      ],
      [
        "Manase",
        -9.34086827331648
      ],
      [
        "aman",
        -9.344757132801348
      ],
      [
        "yɛr",
        -9.347334749324242
      ],
      [
        "fukumsi",
        -9.349930675327869
      ],
      [
        "Yohane",
        -9.351278879093975
      ],
      [
        "agu",
        -9.351921009203847
      ],
      [
        "Ɛno",
        -9.35197407525876
      ],
      [
        "galisi",
        -9.35249748184531
      ],
      [
        "Jɔ",
        -9.354152931560732
      ],
      [
        "akpɔ",
        -9.357148126678013
      ],
      [
        "ɔsɔfo",
        -9.358683058048111
      ],
      [
        "mawu",
        -9.359788197231474
      ],
      [
        "sunsu",
        -9.36215836502139
      ],
      [
        "Baal",
        -9.362886722010156
      ],
      [
        "ntomadan",
        -9.363416413632567
      ],
      [
        "hena",
        -9.36385615002964
      ],
      [
        "ɔte",
        -9.364154282896628
      ],
      [
        "aɖu",
        -9.369641414381912
      ],
      [
        "Babel",
        -9.370658974046608
      ],
      [
        "soro",
        -9.371126162130128
      ],
      [
        "gyina",
        -9.371746930019237
      ],
      [
        "wòwɔ",
        -9.37200923464987
      ],
      [
        "keke",
        -9.374256461469956
      ],
      [
        "ra",
        -9.374595376472984
      ],
      [
        "Gbɔgbɔ",
        -9.376272253401709
      ],
      [
        "tɔɣisi",
        -9.37680269351479
      ],
      [
        "baanu",
        -9.37787076580262
      ],
      [
        "ɛserɛ",
        -9.381077654213376
      ],
      [
        "alibarika",
        -9.38132444174108
      ],
      [
        "ŋutilã",
        -9.381353367062584
      ],
      [
        "mpem",
        -9.381963321714393
      ],
      [
        "Yoab",
        -9.382934367216674
      ],
      [
        "ameawo",
        -9.383233598831168
      ],
      [
        "tali",
        -9.387955849371188
      ],
      [
        "panin",
        -9.389209400882688
      ],
      [
        "naneke",
        -9.389273950722332
      ],
      [
        "dimnim",
        -9.390708025956384
      ],
      [
        "kura",
        -9.3919513463606
      ],
      [
        "ɛkwan",
        -9.392232578674856
      ],
      [
        "lɔ̃",
        -9.395017578106016
      ],
      [
        "ɔkaa",
        -9.395168127232388
      ],
      [
        "binshɛɣu",
        -9.396461962128516
      ],
      [
        "dom",
        -9.39881891923992
      ],
      [
        "mmerɛ",
        -9.400851671827018
      ],
      [
        "evelia",
        -9.40364387242635
      ],
      [
        "nwoma",
        -9.406019749916869
      ],
      [
        "lɔlɔ̃",
        -9.408317490480632
      ],
      [
        "suro",
        -9.4086123432282
      ],
      [
        "wui",
        -9.412461113593205
      ],
      [
        "lihi",
        -9.41480855979336
      ],
      [
        "adwene",
        -9.416982556726532
      ],
      [
        "futɔwo",
        -9.417003873770318
      ],
      [
        "boɔ",
        -9.41701425689192
      ],
      [
        "anadwo",
        -9.418342823225846
      ],
      [
        "dzidzimeviwo",
        -9.425829769103387
      ],
      [
        "adre",
        -9.427198912156369
      ],
      [
        "aƒetɔ",
        -9.427272264675237
      ],
      [
        "tɔsisi",
        -9.428015904495576
      ],
      [
        "gbã",
        -9.42821298957816
      ],
      [
        "ɖoɖo",
        -9.428486554035596
      ],
      [
        "yaannim",
        -9.431146706342576
      ],
      [
        "Soo",
        -9.43297572522502
      ],
      [
        "tahi",
        -9.43432376282646
      ],
      [
        "miri",
        -9.435848770641236
      ],
      [
        "Bet",
        -9.43608450562884
      ],
      [
        "saria",
        -9.437571691320574
      ],
      [
        "yina",
        -9.438259808870226
      ],
      [
        "Yɛhudianim",
        -9.438615826364142
      ],
      [
        "atɛn",
        -9.440766477837116
      ],
      [
        "Yaak",
        -9.442271424865304
      ],
      [
        "saɣim",
        -9.44379233476536
      ],
      [
        "wɔfiri",
        -9.44601672908876
      ],
      [
        "hwan",
        -9.44619894163024
      ],
      [
        "diri",
        -9.4473975940707
      ],
      [
        "egbe",
        -9.44810930820778
      ],
      [
        "salom",
        -9.450068876889596
      ],
      [
        "wɔmfa",
        -9.452045533265231
      ],
      [
        "gyidi",
        -9.452478640186184
      ],
      [
        "pal",
        -9.452850422247778
      ],
      [
        "nunɔlawo",
        -9.45616480997742
      ],
      [
        "maligumaan",
        -9.459179470891137
      ],
      [
        "binshɛli",
        -9.459851290677753
      ],
      [
        "siane",
        -9.460665887066456
      ],
      [
        "ɔdi",
        -9.461907932162587
      ],
      [
        "werɛ",
        -9.463695277402415
      ],
      [
        "twa",
        -9.463753763610972
      ],
      [
        "kasi",
        -9.463806638197305
      ],
      [
        "asaɖa",
        -9.464105370989111
      ],
      [
        "nɔewo",
        -9.466597268433048
      ],
      [
        "pali",
        -9.473574694092337
      ],
      [
        "ʒini",
        -9.47380733374736
      ],
      [
        "ŋutsuwo",
        -9.478939564364792
      ],
      [
        "Ada",
        -9.48046313900002
      ],
      [
        "bubuwo",
        -9.484555434243164
      ],
      [
        "kpɔm",
        -9.487219872174109
      ],
      [
        "ameha",
        -9.489313507292596
      ],
      [
        "hwee",
        -9.489625640737485
      ],
      [
        "mewɔ",
        -9.49699515450454
      ],
      [
        "ntɛm",
        -9.499824238312147
      ],
      [
        "ɔhyeɛ",
        -9.500343302786757
      ],
      [
        "nunya",
        -9.501686751055775
      ],
      [
        "gya",
        -9.505032231964886
      ],
      [
        "dum",
        -9.506143943780064
      ],
      [
        "ngo",
        -9.509881590490084
      ],
      [
        "bindiri",
        -9.510428344403165
      ],
      [
        "ɛsɛ",
        -9.510474569821632
      ],
      [
        "gblɔm",
        -9.51140887435665
      ],
      [
        "atemmu",
        -9.511499691254896
      ],
      [
        "wodo",
        -9.513589702685277
      ],
      [
        "diyifoɔ",
        -9.514247108334452
      ],
      [
        "Babilonia",
        -9.5145902740243
      ],
      [
        "kuɣ",
        -9.515862469276968
      ],
      [
        "wiee",
        -9.51704233424864
      ],
      [
        "teeku",
        -9.518416422447206
      ],
      [
        "beni",
        -9.519910756068583
      ],
      [
        "Yona",
        -9.52291891133613
      ],
      [
        "ƒome",
        -9.523257640607344
      ],
      [
        "nyaandoli",
        -9.526173466778427
      ],
      [
        "ʋɔnu",
        -9.526421566713148
      ],
      [
        "dziku",
        -9.528299505961428
      ],
      [
        "pah",
        -9.530093347263644
      ],
      [
        "kpuɣi",
        -9.530360619212328
      ],
      [
        "tegbee",
        -9.531222121896215
      ],
      [
        "wɔte",
        -9.531994880042648
      ],
      [
        "hyia",
        -9.53309753997852
      ],
      [
        "kpiɔŋ",
        -9.534683130443756
      ],
      [
        "adanse",
        -9.5354049653046
      ],
      [
        "hodo",
        -9.536292518086793
      ],
      [
        "wɔtwe",
        -9.53667311611813
      ],
      [
        "hyira",
        -9.538483432701744
      ],
      [
        "metsɔ",
        -9.538680593722464
      ],
      [
        "nyu",
        -9.540551894222618
      ],
      [
        "woɖo",
        -9.54101569139268
      ],
      [
        "daɣiri",
        -9.541548781297696
      ],
      [
        "viŋutsuwo",
        -9.54171644261471
      ],
      [
        "mmɔ",
        -9.543500864516432
      ],
      [
        "Ekem",
        -9.5442513156202
      ],
      [
        "kɔŋk",
        -9.546895612452545
      ],
      [
        "mɔɣu",
        -9.547378233934865
      ],
      [
        "momfa",
        -9.548684373557222
      ],
      [
        "ahi",
        -9.549702453734078
      ],
      [
        "wogblɔ",
        -9.55284350735036
      ],
      [
        "ɛpo",
        -9.555080101740836
      ],
      [
        "Edom",
        -9.555164776480003
      ],
      [
        "Kanaan",
        -9.555884600543978
      ],
      [
        "gbahi",
        -9.556254660777908
      ],
      [
        "xa",
        -9.556433412486085
      ],
      [
        "kalin",
        -9.558026472087864
      ],
      [
        "Efraim",
        -9.562657545760867
      ],
      [
        "V",
        -9.563818822358936
      ],
      [
        "anaas",
        -9.567652582967506
      ],
      [
        "efie",
        -9.56830210157797
      ],
      [
        "agbalẽ",
        -9.56887587128323
      ],
      [
        "hemfo",
        -9.568890105037744
      ],
      [
        "afima",
        -9.57144306718966
      ],
      [
        "abolo",
        -9.573428598432889
      ],
      [
        "Ele",
        -9.574622783965587
      ],
      [
        "matsɔ",
        -9.575981012057628
      ],
      [
        "Gak",
        -9.580216311203028
      ],
      [
        "Agya",
        -9.5809796603827
      ],
      [
        "babaa",
        -9.581595182507533
      ],
      [
        "fat",
        -9.582926323140978
      ],
      [
        "azu",
        -9.583117495731216
      ],
      [
        "wɔre",
        -9.583181352968168
      ],
      [
        "Amon",
        -9.584579059441255
      ],
      [
        "amegã",
        -9.586800959437628
      ],
      [
        "viŋutsu",
        -9.58707655403851
      ],
      [
        "nkaeɛ",
        -9.58801451079703
      ],
      [
        "Ibra",
        -9.590836715644697
      ],
      [
        "atsɔ",
        -9.591392479492209
      ],
      [
        "adze",
        -9.591616713761947
      ],
      [
        "ŋutikɔkɔe",
        -9.592192248559291
      ],
      [
        "wuhiri",
        -9.592306768366342
      ],
      [
        "Elisa",
        -9.592372217052198
      ],
      [
        "kani",
        -9.592948845079633
      ],
      [
        "ɔre",
        -9.594116448304868
      ],
      [
        "tabili",
        -9.595688273695584
      ],
      [
        "wɔka",
        -9.600178223690968
      ],
      [
        "nyaŋ",
        -9.60142980928078
      ],
      [
        "eteƒe",
        -9.6017697134807
      ],
      [
        "koraa",
        -9.602023445556204
      ],
      [
        "ɔbɔ",
        -9.605173517840864
      ],
      [
        "hwehwɛ",
        -9.605667314535264
      ],
      [
        "gblẽ",
        -9.605916013797476
      ],
      [
        "nkasa",
        -9.606610159607802
      ],
      [
        "mɛma",
        -9.60759310396861
      ],
      [
        "gbãtɔ",
        -9.608361802472317
      ],
      [
        "zɔ",
        -9.60894971710646
      ],
      [
        "tihi",
        -9.609046197277468
      ],
      [
        "abili",
        -9.610914651732628
      ],
      [
        "klosalo",
        -9.611865576439127
      ],
      [
        "aboɔ",
        -9.613199094631952
      ],
      [
        "mabihi",
        -9.613712305398732
      ],
      [
        "mode",
        -9.61414639054577
      ],
      [
        "dɔlawo",
        -9.614821730405602
      ],
      [
        "biŋkɔbir",
        -9.614947200871976
      ],
      [
        "Gilead",
        -9.617818203530142
      ],
      [
        "duruu",
        -9.620377646198172
      ],
      [
        "dzudzɔ",
        -9.62047192767247
      ],
      [
        "ɔba",
        -9.626567348998863
      ],
      [
        "anigye",
        -9.628980664453003
      ],
      [
        "saɣi",
        -9.630307640069478
      ],
      [
        "wurim",
        -9.630427422700324
      ],
      [
        "kpam",
        -9.63140246317925
      ],
      [
        "woawɔ",
        -9.63223781745038
      ],
      [
        "afa",
        -9.632963050764268
      ],
      [
        "gbɔgblɔ",
        -9.634527538166946
      ],
      [
        "nusrɔ̃lawo",
        -9.636439029362762
      ],
      [
        "foro",
        -9.637420595443931
      ],
      [
        "suŋ",
        -9.640625672135656
      ],
      [
        "wòdo",
        -9.642077297476046
      ],
      [
        "niŋgbuŋ",
        -9.642315448866508
      ],
      [
        "bala",
        -9.643752505789806
      ],
      [
        "viɛnyɛl",
        -9.64570830910305
      ],
      [
        "Honhom",
        -9.64743338476097
      ],
      [
        "maani",
        -9.647589183467192
      ],
      [
        "Chɛ",
        -9.651062473040954
      ],
      [
        "Adu",
        -9.65184381868212
      ],
      [
        "buɣ",
        -9.654605112201647
      ],
      [
        "ŋutifafa",
        -9.65528150782222
      ],
      [
        "kpo",
        -9.655577002157596
      ],
      [
        "gbɔnye",
        -9.658027914326576
      ],
      [
        "Obi",
        -9.658241224072704
      ],
      [
        "meɖo",
        -9.65889001801412
      ],
      [
        "tame",
        -9.65976123824893
      ],
      [
        "gli",
        -9.660140400576726
      ],
      [
        "nyawo",
        -9.662517137186708
      ],
      [
        "egbɔ",
        -9.66368021334612
      ],
      [
        "xoxo",
        -9.664041344533995
      ],
      [
        "jɛm",
        -9.66655878617831
      ],
      [
        "So",
        -9.666830514288272
      ],
      [
        "iŋga",
        -9.666853137621908
      ],
      [
        "ɔredan",
        -9.668478473523928
      ],
      [
        "gbeƒã",
        -9.668542286595548
      ],
      [
        "kɔsii",
        -9.669571179263215
      ],
      [
        "Filistitɔwo",
        -9.672021818215116
      ],
      [
        "atwa",
        -9.672141337159736
      ],
      [
        "atu",
        -9.672163007563883
      ],
      [
        "amegãwo",
        -9.672943906225465
      ],
      [
        "vlo",
        -9.672986589665555
      ],
      [
        "yewo",
        -9.674696575028833
      ],
      [
        "nagya",
        -9.674973333843234
      ],
      [
        "Fa",
        -9.675286565405628
      ],
      [
        "yuŋ",
        -9.675547455268532
      ],
      [
        "duwo",
        -9.675876247555284
      ],
      [
        "pala",
        -9.676027796217738
      ],
      [
        "aʋakɔ",
        -9.676287607001278
      ],
      [
        "wòna",
        -9.676431379480276
      ],
      [
        "fofoa",
        -9.676823629552525
      ],
      [
        "Eyata",
        -9.67857225258622
      ],
      [
        "daalahichi",
        -9.67932162285794
      ],
      [
        "gyee",
        -9.683227815953511
      ],
      [
        "bindir",
        -9.68399431256404
      ],
      [
        "Bala",
        -9.684448124291432
      ],
      [
        "amenuveve",
        -9.6845599448879
      ],
      [
        "apono",
        -9.685364143230917
      ],
      [
        "zaligunim",
        -9.68778567702334
      ],
      [
        "adaka",
        -9.690924706415222
      ],
      [
        "anyame",
        -9.692768680806424
      ],
      [
        "wula",
        -9.693473409669323
      ],
      [
        "amegbetɔ",
        -9.6946073180244
      ],
      [
        "yurilim",
        -9.694729478190409
      ],
      [
        "basa",
        -9.69478157212307
      ],
      [
        "Asa",
        -9.695203909704684
      ],
      [
        "Babilɔn",
        -9.696165066028827
      ],
      [
        "woŋlɔ",
        -9.696852542907134
      ],
      [
        "tiŋgbɔn",
        -9.697158978053544
      ],
      [
        "fiaɖuƒe",
        -9.69733875728392
      ],
      [
        "bɔbɔ",
        -9.697511564195176
      ],
      [
        "hona",
        -9.698357891456432
      ],
      [
        "bobe",
        -9.699181805271358
      ],
      [
        "mpaeɛ",
        -9.69947609165078
      ],
      [
        "tɔɣisiri",
        -9.699679841817956
      ],
      [
        "Mele",
        -9.700851762055096
      ],
      [
        "I",
        -9.702437144747837
      ],
      [
        "asuafo",
        -9.702933720456016
      ],
      [
        "tɔbu",
        -9.704621662139823
      ],
      [
        "wɔfrɛ",
        -9.70531318467885
      ],
      [
        "meli",
        -9.70597887082635
      ],
      [
        "mavɔ",
        -9.70777426684316
      ],
      [
        "nifa",
        -9.708187605310153
      ],
      [
        "aboa",
        -9.709180348366578
      ],
      [
        "dɔni",
        -9.710203183982506
      ],
      [
        "ɣedzeƒe",
        -9.71051023722312
      ],
      [
        "Yerob",
        -9.71063089012212
      ],
      [
        "nyitsu",
        -9.712257755359202
      ],
      [
        "nyini",
        -9.718654990523346
      ],
      [
        "pia",
        -9.7195122391064
      ],
      [
        "ɣleti",
        -9.722841908114932
      ],
      [
        "kplii",
        -9.722990220508764
      ],
      [
        "Hwan",
        -9.726027063012008
      ],
      [
        "fiawo",
        -9.7285276516345
      ],
      [
        "ɛpono",
        -9.729161913860032
      ],
      [
        "izand",
        -9.730037336576803
      ],
      [
        "nyari",
        -9.730657756271505
      ],
      [
        "anabi",
        -9.73436152232907
      ],
      [
        "nɔƒe",
        -9.736822574375283
      ],
      [
        "sabi",
        -9.739621394975426
      ],
      [
        "afɔrebɔ",
        -9.745685094705204
      ],
      [
        "nnum",
        -9.746356477821909
      ],
      [
        "dari",
        -9.74676630575804
      ],
      [
        "ɔha",
        -9.747073516314009
      ],
      [
        "ɖuɖu",
        -9.749029627219256
      ],
      [
        "sɔɣi",
        -9.750460767335207
      ],
      [
        "Yisi",
        -9.75046254136479
      ],
      [
        "sesĩe",
        -9.7506153799365
      ],
      [
        "xɔse",
        -9.75102742226569
      ],
      [
        "Esau",
        -9.75235721151687
      ],
      [
        "Man",
        -9.753028391192569
      ],
      [
        "fofo",
        -9.755072113059128
      ],
      [
        "godoo",
        -9.755349156616925
      ],
      [
        "Hal",
        -9.755756801631003
      ],
      [
        "Sule",
        -9.756392930555826
      ],
      [
        "abufu",
        -9.75648743820171
      ],
      [
        "nɔvi",
        -9.756721740481872
      ],
      [
        "towo",
        -9.757470364843142
      ],
      [
        "kyɛ",
        -9.758650567622112
      ],
      [
        "gbini",
        -9.760920827219453
      ],
      [
        "wɔnni",
        -9.76124249965564
      ],
      [
        "nudiri",
        -9.763516305913695
      ],
      [
        "ŋga",
        -9.76380838492704
      ],
      [
        "yuu",
        -9.764187809863724
      ],
      [
        "nuhi",
        -9.76421477762797
      ],
      [
        "Elia",
        -9.765573301959275
      ],
      [
        "wiase",
        -9.766257361241312
      ],
      [
        "ɔsom",
        -9.767602120881945
      ],
      [
        "mmamma",
        -9.767888909521565
      ],
      [
        "wòany",
        -9.768998587311106
      ],
      [
        "dɔɔ",
        -9.769577552554772
      ],
      [
        "mete",
        -9.77109967511331
      ],
      [
        "numak",
        -9.77278914777332
      ],
      [
        "G",
        -9.773194381287876
      ],
      [
        "rantɛ",
        -9.773461313575188
      ],
      [
        "yuma",
        -9.77372076876539
      ],
      [
        "nèle",
        -9.77500211268048
      ],
      [
        "bosom",
        -9.776264467124529
      ],
      [
        "omaŋ",
        -9.776691039043955
      ],
      [
        "Judanim",
        -9.777929227705249
      ],
      [
        "Vi",
        -9.77802661467543
      ],
      [
        "dam",
        -9.778224334948462
      ],
      [
        "tɛhi",
        -9.77862032496544
      ],
      [
        "menya",
        -9.77959493821023
      ],
      [
        "wokpɔ",
        -9.782737539917996
      ],
      [
        "Dimbɔŋɔ",
        -9.783091483200389
      ],
      [
        "wova",
        -9.787111252837189
      ],
      [
        "anantwi",
        -9.787247789721023
      ],
      [
        "wòɖo",
        -9.788394967022636
      ],
      [
        "nsraban",
        -9.788714374096976
      ],
      [
        "Shia",
        -9.789294809424984
      ],
      [
        "pono",
        -9.789614801728918
      ],
      [
        "Wɔde",
        -9.791146208626143
      ],
      [
        "Ɛyɛ",
        -9.791721805483244
      ],
      [
        "kɔkɔɔ",
        -9.793173891103326
      ],
      [
        "Gad",
        -9.794809037445829
      ],
      [
        "Yeremia",
        -9.795671027276017
      ],
      [
        "mawɔ",
        -9.796074030322778
      ],
      [
        "Nyam",
        -9.7960926810051
      ],
      [
        "bipuɣi",
        -9.799573924697876
      ],
      [
        "ɔbu",
        -9.8011648040985
      ],
      [
        "moyɛ",
        -9.805360006863564
      ],
      [
        "wonye",
        -9.80549390058626
      ],
      [
        "Tɔb",
        -9.808012239654056
      ],
      [
        "himm",
        -9.811052538749369
      ],
      [
        "siesie",
        -9.81236204330206
      ],
      [
        "ntoma",
        -9.812470779615058
      ],
      [
        "susɔ",
        -9.813330890742112
      ],
      [
        "afã",
        -9.813354088860182
      ],
      [
        "dwom",
        -9.81352686953883
      ],
      [
        "ɛte",
        -9.81413147337506
      ],
      [
        "Egblɔ",
        -9.81758877396107
      ],
      [
        "megblɔ",
        -9.819122091166406
      ],
      [
        "zim",
        -9.820307027599547
      ],
      [
        "kwa",
        -9.822491091217938
      ],
      [
        "ʒim",
        -9.829479777406068
      ],
      [
        "wɔdi",
        -9.829670654092066
      ],
      [
        "binyɛr",
        -9.830069712739494
      ],
      [
        "gbibi",
        -9.83088611512744
      ],
      [
        "Gbe",
        -9.831073332805644
      ],
      [
        "kakra",
        -9.831741002899422
      ],
      [
        "eveawo",
        -9.833340586779592
      ],
      [
        "anomu",
        -9.83380206275907
      ],
      [
        "kaeɛ",
        -9.834367413720113
      ],
      [
        "pɔri",
        -9.835277092922317
      ],
      [
        "Yinim",
        -9.835601679926135
      ],
      [
        "balibu",
        -9.838590773409765
      ],
      [
        "apueeɛ",
        -9.840388687986248
      ],
      [
        "tutu",
        -9.840397472712969
      ],
      [
        "Mɔɣil",
        -9.840660352877272
      ],
      [
        "ʒiɛman",
        -9.841700199495484
      ],
      [
        "dzesi",
        -9.843200154266455
      ],
      [
        "Mede",
        -9.845191305775842
      ],
      [
        "hiã",
        -9.846165589875428
      ],
      [
        "bɛhunu",
        -9.846761054883617
      ],
      [
        "vɔ̃ɖiwo",
        -9.847118227334008
      ],
      [
        "ʒiri",
        -9.84720582411945
      ],
      [
        "yinim",
        -9.847958695106891
      ],
      [
        "titir",
        -9.84827252101891
      ],
      [
        "tsã",
        -9.84835764466672
      ],
      [
        "ntade",
        -9.84885339553716
      ],
      [
        "anahi",
        -9.850187434848696
      ],
      [
        "wòɖe",
        -9.850228603289922
      ],
      [
        "ŋdi",
        -9.850923521321349
      ],
      [
        "sẽ",
        -9.851253082038852
      ],
      [
        "dzoe",
        -9.85215158172633
      ],
      [
        "nɔvia",
        -9.85313872077553
      ],
      [
        "tenabe",
        -9.853706466360642
      ],
      [
        "ɛkɔ",
        -9.85790792399119
      ],
      [
        "wanim",
        -9.857931321166443
      ],
      [
        "wònɔ",
        -9.86081151108803
      ],
      [
        "ɛhɔ",
        -9.86174644146811
      ],
      [
        "twerɛ",
        -9.861831802451787
      ],
      [
        "Siria",
        -9.86396027927975
      ],
      [
        "jɛmdi",
        -9.864366759436397
      ],
      [
        "ahyia",
        -9.86568901906227
      ],
      [
        "Ɛdeɛ",
        -9.86585595903606
      ],
      [
        "vɔ̃wo",
        -9.867653802952244
      ],
      [
        "wòva",
        -9.86859647220049
      ],
      [
        "zaani",
        -9.86916724405518
      ],
      [
        "suhudoo",
        -9.87018806096898
      ],
      [
        "Te",
        -9.874354382868551
      ],
      [
        "turo",
        -9.874540245057588
      ],
      [
        "Ahi",
        -9.87684890108242
      ],
      [
        "kuhi",
        -9.878273787971082
      ],
      [
        "Lɛvinim",
        -9.878839918156212
      ],
      [
        "dzidzime",
        -9.879803484389178
      ],
      [
        "ɔdii",
        -9.882196015455284
      ],
      [
        "ɛdi",
        -9.883996551405176
      ],
      [
        "titali",
        -9.886246393967271
      ],
      [
        "Lala",
        -9.886732472587552
      ],
      [
        "hann",
        -9.886928544050026
      ],
      [
        "ƒã",
        -9.888625407513356
      ],
      [
        "aban",
        -9.889057344755988
      ],
      [
        "mayɛ",
        -9.889577566953117
      ],
      [
        "wani",
        -9.89176623848137
      ],
      [
        "awoɔ",
        -9.89305092829283
      ],
      [
        "ɔmfa",
        -9.893279243339377
      ],
      [
        "agble",
        -9.893640196730466
      ],
      [
        "chi",
        -9.896223618697398
      ],
      [
        "puhi",
        -9.89670162566285
      ],
      [
        "owuo",
        -9.899608372092196
      ],
      [
        "suhi",
        -9.899670727964324
      ],
      [
        "wahala",
        -9.899866961848868
      ],
      [
        "nnwuma",
        -9.900354651361056
      ],
      [
        "biɛla",
        -9.901283638333354
      ],
      [
        "dunol",
        -9.901583319809376
      ],
      [
        "xexea",
        -9.90331622187646
      ],
      [
        "Z",
        -9.90411114079606
      ],
      [
        "suɣil",
        -9.904767902509867
      ],
      [
        "Fira",
        -9.906958816793264
      ],
      [
        "tuumbiɛri",
        -9.907738887922845
      ],
      [
        "duas",
        -9.907947675676688
      ],
      [
        "Ruben",
        -9.907990486893423
      ],
      [
        "manɔ",
        -9.9083377185708
      ],
      [
        "viawo",
        -9.915176322674832
      ],
      [
        "Kronkron",
        -9.916548197439113
      ],
      [
        "wuntaŋ",
        -9.916548399537351
      ],
      [
        "tinsi",
        -9.916843684858335
      ],
      [
        "yiri",
        -9.918840589429497
      ],
      [
        "Ɔno",
        -9.91903513648655
      ],
      [
        "ɔtɔ",
        -9.919397400196011
      ],
      [
        "luʋɔ",
        -9.920333427317782
      ],
      [
        "natan",
        -9.920637078024196
      ],
      [
        "ŋukpe",
        -9.92081405567732
      ],
      [
        "iŋbu",
        -9.923211231794234
      ],
      [
        "Bia",
        -9.923833593398957
      ],
      [
        "ɣu",
        -9.924926307043034
      ],
      [
        "za",
        -9.925331770893433
      ],
      [
        "fasuo",
        -9.926302144963593
      ],
      [
        "ninni",
        -9.927042823158851
      ],
      [
        "Mani",
        -9.927625490168566
      ],
      [
        "fiazikpui",
        -9.928835719741652
      ],
      [
        "Yɛn",
        -9.931650974000044
      ],
      [
        "wowu",
        -9.931839769711
      ],
      [
        "yadeɛ",
        -9.932392063586947
      ],
      [
        "godo",
        -9.932512976508974
      ],
      [
        "dzɔdzɔenyenye",
        -9.933903310408471
      ],
      [
        "nsase",
        -9.934419984253918
      ],
      [
        "fofowo",
        -9.937478171735602
      ],
      [
        "meyɛ",
        -9.93794882802444
      ],
      [
        "Pa",
        -9.938511495335533
      ],
      [
        "bɛkɔ",
        -9.938653910059026
      ],
      [
        "momma",
        -9.939093676327456
      ],
      [
        "viviti",
        -9.940337579349215
      ],
      [
        "ɖokuiwò",
        -9.941491761387391
      ],
      [
        "ɔnni",
        -9.94164234009047
      ],
      [
        "wun",
        -9.942601678075125
      ],
      [
        "iriya",
        -9.94482323405818
      ],
      [
        "adrẽ",
        -9.944964851332337
      ],
      [
        "menɔ",
        -9.94568785915112
      ],
      [
        "gale",
        -9.949447752330254
      ],
      [
        "kpaŋ",
        -9.950081767964395
      ],
      [
        "Maria",
        -9.951022916832072
      ],
      [
        "ɔdɔ",
        -9.95123817555834
      ],
      [
        "atsiaƒu",
        -9.951248815299843
      ],
      [
        "shi",
        -9.951284039356192
      ],
      [
        "Wotsɔ",
        -9.951636690352425
      ],
      [
        "Kasi",
        -9.952006657952364
      ],
      [
        "yɔnko",
        -9.953071662002293
      ],
      [
        "Pool",
        -9.95344467294102
      ],
      [
        "vinyɔnu",
        -9.954784862908255
      ],
      [
        "wɔatwerɛ",
        -9.956628826396669
      ],
      [
        "mfirinhyia",
        -9.957143201336567
      ],
      [
        "nublanui",
        -9.958621876229188
      ],
      [
        "Eli",
        -9.9601738251312
      ],
      [
        "bra",
        -9.961047371885137
      ],
      [
        "nubabla",
        -9.961060693257672
      ],
      [
        "Zion",
        -9.962496237141584
      ],
      [
        "fũu",
        -9.965709366881969
      ],
      [
        "Mika",
        -9.966121563736936
      ],
      [
        "Sio",
        -9.967007644191614
      ],
      [
        "bɔɣu",
        -9.96808712084388
      ],
      [
        "papa",
        -9.968326012772216
      ],
      [
        "dimbɔŋɔ",
        -9.9683783466577
      ],
      [
        "domenyinu",
        -9.96874277856268
      ],
      [
        "mere",
        -9.9704586861765
      ],
      [
        "gbegblẽ",
        -9.972858109118269
      ],
      [
        "chɛliy",
        -9.973850910776235
      ],
      [
        "dahi",
        -9.97421454207528
      ],
      [
        "ɛnam",
        -9.976544949845454
      ],
      [
        "monni",
        -9.977123602141038
      ],
      [
        "tsyɔ",
        -9.97714377902022
      ],
      [
        "nsɛnkyerɛnne",
        -9.977375793549704
      ],
      [
        "malaika",
        -9.978571085368944
      ],
      [
        "akoa",
        -9.979124759866984
      ],
      [
        "tulaal",
        -9.981384501887671
      ],
      [
        "ɔbba",
        -9.981612676545495
      ],
      [
        "W",
        -9.98484150565794
      ],
      [
        "vɔvɔ̃",
        -9.985436998485902
      ],
      [
        "yuya",
        -9.98562596749191
      ],
      [
        "kɔkɔ",
        -9.986233970417288
      ],
      [
        "kɔŋ",
        -9.98789595818132
      ],
      [
        "míel",
        -9.988213198526008
      ],
      [
        "woaɖe",
        -9.989401151062149
      ],
      [
        "wòkpɔ",
        -9.990114228580742
      ],
      [
        "gbinn",
        -9.990550562046394
      ],
      [
        "dzra",
        -9.991227489724544
      ],
      [
        "ŋkuwo",
        -9.99136072795573
      ],
      [
        "mframa",
        -9.99528807706642
      ],
      [
        "nkwagye",
        -9.997026599449883
      ],
      [
        "Jɔsh",
        -9.997603578715356
      ],
      [
        "puu",
        -9.999553911885933
      ],
      [
        "mabia",
        -10.00213861449904
      ],
      [
        "kunu",
        -10.003746971799616
      ],
      [
        "darigi",
        -10.005297740101058
      ],
      [
        "bali",
        -10.006952024175572
      ],
      [
        "R",
        -10.007297892587111
      ],
      [
        "ninsalinim",
        -10.00744032207724
      ],
      [
        "ŋlɔ",
        -10.008844418723946
      ],
      [
        "ɖekakpui",
        -10.01052790256698
      ],
      [
        "yaɣ",
        -10.010772320260743
      ],
      [
        "gbɔwò",
        -10.011236418705984
      ],
      [
        "wòatsɔ",
        -10.013653117552078
      ],
      [
        "labisi",
        -10.014484021106096
      ],
      [
        "puhil",
        -10.014836276109389
      ],
      [
        "pinaay",
        -10.01516171654754
      ],
      [
        "suhuyiɣisili",
        -10.01536324978188
      ],
      [
        "amane",
        -10.016138309536938
      ],
      [
        "liƒo",
        -10.016638895065146
      ],
      [
        "trɛ",
        -10.016694236127377
      ],
      [
        "ntoatoa",
        -10.016902269916612
      ],
      [
        "Eɖo",
        -10.0180387528989
      ],
      [
        "Fofo",
        -10.018089312013586
      ],
      [
        "Yehu",
        -10.018651561157927
      ],
      [
        "adɔeɛ",
        -10.019938778375348
      ],
      [
        "srɛ",
        -10.020552972921324
      ],
      [
        "wadi",
        -10.020824996490589
      ],
      [
        "Ɔde",
        -10.02222530515315
      ],
      [
        "aboyo",
        -10.02318962723242
      ],
      [
        "bɛsi",
        -10.02565807935398
      ],
      [
        "anammɔn",
        -10.025972132664824
      ],
      [
        "maɖe",
        -10.027455886473472
      ],
      [
        "adom",
        -10.027957232987752
      ],
      [
        "bol",
        -10.028331870611954
      ],
      [
        "etsɔ",
        -10.02846776922228
      ],
      [
        "ŋugbe",
        -10.029766162534738
      ],
      [
        "Tso",
        -10.03037804715839
      ],
      [
        "mfi",
        -10.03064881371245
      ],
      [
        "liri",
        -10.031342113789352
      ],
      [
        "ananmu",
        -10.031352317184911
      ],
      [
        "kilo",
        -10.032138963257088
      ],
      [
        "kekeli",
        -10.032238849659636
      ],
      [
        "ram",
        -10.03406130201368
      ],
      [
        "nantwi",
        -10.034103462265415
      ],
      [
        "Ŋutsu",
        -10.036729255781726
      ],
      [
        "kɔbiga",
        -10.037649827210664
      ],
      [
        "dzɔgbevɔ̃e",
        -10.03942574421449
      ],
      [
        "Nnipa",
        -10.039485004470308
      ],
      [
        "kpɛm",
        -10.039876362111045
      ],
      [
        "Min",
        -10.040113639703115
      ],
      [
        "piɛr",
        -10.040196320976047
      ],
      [
        "nimdeɛ",
        -10.040447434767486
      ],
      [
        "Amesi",
        -10.041168601307705
      ],
      [
        "Ɛda",
        -10.041221647225113
      ],
      [
        "bɛtena",
        -10.042098553596938
      ],
      [
        "Pit",
        -10.043189545917503
      ],
      [
        "ɛnnɛ",
        -10.044141826773512
      ],
      [
        "Nyin",
        -10.046269560496391
      ],
      [
        "Galilea",
        -10.047009317256707
      ],
      [
        "dodo",
        -10.049239916987688
      ],
      [
        "fifia",
        -10.049905161671289
      ],
      [
        "takɔbi",
        -10.050556227273498
      ],
      [
        "chan",
        -10.05079654908196
      ],
      [
        "bɛdi",
        -10.050991044342185
      ],
      [
        "Etsɔ",
        -10.05167160774985
      ],
      [
        "bene",
        -10.055402252428742
      ],
      [
        "owia",
        -10.05651329253744
      ],
      [
        "srɔ̃a",
        -10.05727396867759
      ],
      [
        "bɛto",
        -10.058605807451045
      ],
      [
        "Tsɔ",
        -10.05911810346334
      ],
      [
        "nyuitɔ",
        -10.059445737490446
      ],
      [
        "medo",
        -10.060199599600717
      ],
      [
        "nteaseɛnam",
        -10.060465975364618
      ],
      [
        "kɔduru",
        -10.060550332737035
      ],
      [
        "ƒom",
        -10.06091525701237
      ],
      [
        "Levi",
        -10.06108297645907
      ],
      [
        "nhyira",
        -10.062419952928249
      ],
      [
        "xe",
        -10.063148786759154
      ],
      [
        "ɛsiane",
        -10.065975886302516
      ],
      [
        "monyɛ",
        -10.066401268255923
      ],
      [
        "wulim",
        -10.06732017670025
      ],
      [
        "Hi",
        -10.07006205646462
      ],
      [
        "ŋutsuvi",
        -10.07054250653104
      ],
      [
        "Afi",
        -10.07139894510706
      ],
      [
        "zal",
        -10.07152839495887
      ],
      [
        "ɔbere",
        -10.071791616219157
      ],
      [
        "zuɣulan",
        -10.073038519150366
      ],
      [
        "wòde",
        -10.073604254382204
      ],
      [
        "fiẽ",
        -10.073767542530282
      ],
      [
        "Nenema",
        -10.074980641103789
      ],
      [
        "zahim",
        -10.075707714574245
      ],
      [
        "nà",
        -10.075918374506196
      ],
      [
        "tsrɔ̃",
        -10.07622636425401
      ],
      [
        "bidibi",
        -10.07809933864236
      ],
      [
        "maŋmaŋ",
        -10.08028561744744
      ],
      [
        "ninsal",
        -10.082652267800048
      ],
      [
        "Filistianim",
        -10.082667588542645
      ],
      [
        "tɛha",
        -10.0828816862046
      ],
      [
        "wonɔ",
        -10.08372545683346
      ],
      [
        "bɛbɔ",
        -10.087005560734225
      ],
      [
        "pu",
        -10.087014207120278
      ],
      [
        "Naftali",
        -10.0871214467758
      ],
      [
        "dab",
        -10.08716135354923
      ],
      [
        "gbib",
        -10.087707983929215
      ],
      [
        "xaxa",
        -10.087892500781424
      ],
      [
        "gyap",
        -10.088570806524332
      ],
      [
        "ahanu",
        -10.090984911194903
      ],
      [
        "kɔkɔeƒe",
        -10.09222394338595
      ],
      [
        "nuku",
        -10.09382837750093
      ],
      [
        "yeye",
        -10.095913314425244
      ],
      [
        "tire",
        -10.09743490938099
      ],
      [
        "Momma",
        -10.098789938649915
      ],
      [
        "ɖoɖowo",
        -10.0989285188204
      ],
      [
        "lãwo",
        -10.100407061283546
      ],
      [
        "nunana",
        -10.100888743815457
      ],
      [
        "shɛhira",
        -10.101019341700674
      ],
      [
        "„",
        -10.101526971256796
      ],
      [
        "kpɛhi",
        -10.101656832455143
      ],
      [
        "Miga",
        -10.102176663806482
      ],
      [
        "Hadad",
        -10.102821890036086
      ],
      [
        "tututu",
        -10.103369137115587
      ],
      [
        "bipuɣins",
        -10.106102824359713
      ],
      [
        "zuɣulaannim",
        -10.107373396059074
      ],
      [
        "mmɔbɔ",
        -10.10841465312238
      ],
      [
        "gbugbɔ",
        -10.112057395121692
      ],
      [
        "ɖevi",
        -10.112238599501058
      ],
      [
        "mekɔ",
        -10.112242952702587
      ],
      [
        "akyirikyiri",
        -10.113245364262784
      ],
      [
        "kuri",
        -10.113634810472526
      ],
      [
        "medze",
        -10.114450804754645
      ],
      [
        "ɔgye",
        -10.114910027003226
      ],
      [
        "sra",
        -10.115013616910868
      ],
      [
        "Yɛlimaŋli",
        -10.116153828374236
      ],
      [
        "Ahab",
        -10.116632160172951
      ],
      [
        "gbaŋ",
        -10.11684144357592
      ],
      [
        "iɣiri",
        -10.117740995987466
      ],
      [
        "Seba",
        -10.118920269197584
      ],
      [
        "L",
        -10.120627907422849
      ],
      [
        "akyiwade",
        -10.121957572454054
      ],
      [
        "sar",
        -10.123077175949124
      ],
      [
        "sagban",
        -10.123654098782314
      ],
      [
        "awia",
        -10.124427345117198
      ],
      [
        "anwu",
        -10.1262250745768
      ],
      [
        "bɛmaŋ",
        -10.127145593484602
      ],
      [
        "nèwɔ",
        -10.12881921007604
      ],
      [
        "keŋkeŋ",
        -10.130998763330616
      ],
      [
        "sapashin",
        -10.131481383388868
      ],
      [
        "ɔko",
        -10.13213152711928
      ],
      [
        "Abimele",
        -10.132802591364833
      ],
      [
        "agye",
        -10.133065003755087
      ],
      [
        "—",
        -10.133978172813032
      ],
      [
        "sewo",
        -10.134723643315118
      ],
      [
        "duro",
        -10.13659767425942
      ],
      [
        "ŋɔdzi",
        -10.13704260954771
      ],
      [
        "maŋli",
        -10.138840444444613
      ],
      [
        "omaŋmaŋ",
        -10.138881259476214
      ],
      [
        "eyata",
        -10.139201173442162
      ],
      [
        "miewɔ",
        -10.139217966420189
      ],
      [
        "Anabi",
        -10.14021580967255
      ],
      [
        "dzinye",
        -10.140401187913184
      ],
      [
        "akplɔ",
        -10.141362978245326
      ],
      [
        "Egiptetɔ",
        -10.142097400144015
      ],
      [
        "soma",
        -10.143267544578546
      ],
      [
        "ɔnam",
        -10.147687676866337
      ],
      [
        "Ilai",
        -10.148341152564743
      ],
      [
        "hyehyɛ",
        -10.148418428013828
      ],
      [
        "asiwò",
        -10.148482280088468
      ],
      [
        "nyɔnuwo",
        -10.149205008423523
      ],
      [
        "kyɛf",
        -10.150565970973036
      ],
      [
        "hegblɔ",
        -10.15064202052346
      ],
      [
        "Menye",
        -10.151152908972556
      ],
      [
        "kɔtena",
        -10.151667652462995
      ],
      [
        "nyagblɔɖila",
        -10.152779138985624
      ],
      [
        "bɔrɔbɔro",
        -10.152786851693136
      ],
      [
        "sɔɔ",
        -10.152840560482188
      ],
      [
        "nhunu",
        -10.15370209680427
      ],
      [
        "klo",
        -10.153721895715265
      ],
      [
        "apɔnkɔ",
        -10.153902310598944
      ],
      [
        "ntwe",
        -10.1545564115881
      ],
      [
        "Mon",
        -10.15467752739983
      ],
      [
        "goon",
        -10.15557377026812
      ],
      [
        "nkyɛ",
        -10.15589998724906
      ],
      [
        "naɣila",
        -10.155964049475962
      ],
      [
        "ʒiishe",
        -10.157078639320936
      ],
      [
        "woɖu",
        -10.157187750775238
      ],
      [
        "Pila",
        -10.157272935424022
      ],
      [
        "nuvɔ̃ɖi",
        -10.157890419536947
      ],
      [
        "bɛhyɛ",
        -10.158561897701937
      ],
      [
        "hyiaeɛ",
        -10.162277887223055
      ],
      [
        "vɔsa",
        -10.16281230708229
      ],
      [
        "infa",
        -10.163394090738706
      ],
      [
        "kunkum",
        -10.16351094367399
      ],
      [
        "Abram",
        -10.16467661721174
      ],
      [
        "wòdze",
        -10.165359958054436
      ],
      [
        "goe",
        -10.165689774263242
      ],
      [
        "luhi",
        -10.166477069627431
      ],
      [
        "nʼ",
        -10.166633453861635
      ],
      [
        "akɔsi",
        -10.168025749512196
      ],
      [
        "ahoni",
        -10.169948164494516
      ],
      [
        "nɔnɔ",
        -10.170940843636233
      ],
      [
        "Ɔsɔfo",
        -10.174528761885968
      ],
      [
        "nkɔm",
        -10.174694597273565
      ],
      [
        "ɔfra",
        -10.174972524876404
      ],
      [
        "Miri",
        -10.174981618971726
      ],
      [
        "anɔpa",
        -10.177439704706678
      ],
      [
        "mpata",
        -10.17781418477348
      ],
      [
        "etɔ̃lia",
        -10.1793284359175
      ],
      [
        "aduɔ",
        -10.179655652432857
      ],
      [
        "negbe",
        -10.18205280067656
      ],
      [
        "amesiame",
        -10.183533752706264
      ],
      [
        "we",
        -10.18378579713734
      ],
      [
        "duru",
        -10.185989277518347
      ],
      [
        "nenye",
        -10.186071439113896
      ],
      [
        "wuh",
        -10.18609283024195
      ],
      [
        "Heseki",
        -10.1862982138535
      ],
      [
        "Dani",
        -10.187006565952608
      ],
      [
        "kye",
        -10.18798417669908
      ],
      [
        "wodze",
        -10.193122847126585
      ],
      [
        "shili",
        -10.19333261111464
      ],
      [
        "hele",
        -10.193634522259584
      ],
      [
        "Gblɔ",
        -10.195822143283614
      ],
      [
        "dende",
        -10.195963034514952
      ],
      [
        "riba",
        -10.196385963077546
      ],
      [
        "Nuka",
        -10.197442328945751
      ],
      [
        "Alo",
        -10.198784241830229
      ],
      [
        "gbeɖe",
        -10.19888915137942
      ],
      [
        "mfrafraeɛ",
        -10.1990169030114
      ],
      [
        "Yoa",
        -10.199147201774478
      ],
      [
        "wòzu",
        -10.200715260769623
      ],
      [
        "kukuwo",
        -10.202676692418525
      ],
      [
        "makpɔ",
        -10.204756657417589
      ],
      [
        "bobɔ",
        -10.20481678589623
      ],
      [
        "amanehunu",
        -10.205321680333114
      ],
      [
        "naanyi",
        -10.208660588633895
      ],
      [
        "Yehosa",
        -10.208973409562198
      ],
      [
        "ƒomevi",
        -10.209294815690871
      ],
      [
        "hlɔ̃",
        -10.210099653926022
      ],
      [
        "kpl",
        -10.21256066632651
      ],
      [
        "naɣ",
        -10.213619237626013
      ],
      [
        "tuumba",
        -10.213942257216098
      ],
      [
        "avɔ",
        -10.214452993641345
      ],
      [
        "kuruwa",
        -10.215732196075075
      ],
      [
        "Ami",
        -10.216587683104084
      ],
      [
        "mayi",
        -10.216705039853466
      ],
      [
        "tiɣi",
        -10.218822168525936
      ],
      [
        "wòaɖe",
        -10.219955594286596
      ],
      [
        "nneyɛ",
        -10.220252771504745
      ],
      [
        "duli",
        -10.221444178054478
      ],
      [
        "tibisi",
        -10.222199340064265
      ],
      [
        "wuieve",
        -10.222512266739962
      ],
      [
        "ahemf",
        -10.223113987291445
      ],
      [
        "jam",
        -10.224681610256084
      ],
      [
        "nɔviawo",
        -10.22596625041972
      ],
      [
        "odiyifoɔ",
        -10.227186238180876
      ],
      [
        "tahim",
        -10.22922712438798
      ],
      [
        "pirigi",
        -10.2307563874826
      ],
      [
        "gaxɔ",
        -10.230767254804483
      ],
      [
        "kɔka",
        -10.231434235363812
      ],
      [
        "Simo",
        -10.232741914653456
      ],
      [
        "ɔsoma",
        -10.23411938691783
      ],
      [
        "ɖase",
        -10.235002002488248
      ],
      [
        "pirigili",
        -10.23526556905961
      ],
      [
        "awɛ",
        -10.235424541190325
      ],
      [
        "wayɛ",
        -10.235845520740844
      ],
      [
        "subɔ",
        -10.236097125398985
      ],
      [
        "woawu",
        -10.236658643974842
      ],
      [
        "twene",
        -10.2380056450213
      ],
      [
        "wɔbɔ",
        -10.238072006868908
      ],
      [
        "pina",
        -10.238517334513368
      ],
      [
        "ɔfasuo",
        -10.238792914032777
      ],
      [
        "heyi",
        -10.241274436367515
      ],
      [
        "ura",
        -10.241377936523952
      ],
      [
        "Momfa",
        -10.242329709954486
      ],
      [
        "ɖiɖi",
        -10.242772428538489
      ],
      [
        "blaetɔ̃",
        -10.246270430521657
      ],
      [
        "nuza",
        -10.247602100620938
      ],
      [
        "yɔdo",
        -10.248385612153122
      ],
      [
        "asɛmpa",
        -10.249367566186471
      ],
      [
        "Nso",
        -10.250456158526076
      ],
      [
        "neesi",
        -10.252718650182455
      ],
      [
        "ɔpɛ",
        -10.253228554012168
      ],
      [
        "wɔayɛ",
        -10.254040984000213
      ],
      [
        "wiram",
        -10.254606484230514
      ],
      [
        "natsɔ",
        -10.254864084299514
      ],
      [
        "paɣi",
        -10.25552783318378
      ],
      [
        "paanoo",
        -10.256330333395828
      ],
      [
        "míawo",
        -10.256589796825503
      ],
      [
        "ɔdɛn",
        -10.256920871868797
      ],
      [
        "ɔyii",
        -10.256983438084712
      ],
      [
        "Uri",
        -10.258824904116745
      ],
      [
        "salo",
        -10.259208909614651
      ],
      [
        "bɛgye",
        -10.262502682201134
      ],
      [
        "nʼa",
        -10.262745864257855
      ],
      [
        "bubuawo",
        -10.26282647847721
      ],
      [
        "nʼagya",
        -10.26326912994332
      ],
      [
        "Zol",
        -10.263286517221273
      ],
      [
        "guli",
        -10.263853773543568
      ],
      [
        "wɔba",
        -10.264180020038246
      ],
      [
        "ɛfa",
        -10.26491739558993
      ],
      [
        "kplɔ̃",
        -10.266557061832684
      ],
      [
        "ɖeɖe",
        -10.267610695185189
      ],
      [
        "akɔbli",
        -10.26774877610545
      ],
      [
        "mawudɔla",
        -10.268559589135752
      ],
      [
        "ɖokuinye",
        -10.269042923911272
      ],
      [
        "dimbɔŋɔnim",
        -10.269093220650849
      ],
      [
        "chuɣ",
        -10.269797704883665
      ],
      [
        "alẽvi",
        -10.27026180885471
      ],
      [
        "alahizib",
        -10.271090706489884
      ],
      [
        "taɣi",
        -10.272235718758504
      ],
      [
        "suhigu",
        -10.273314614973138
      ],
      [
        "wagya",
        -10.274414904695014
      ],
      [
        "fiasã",
        -10.27540659034262
      ],
      [
        "Damasko",
        -10.275467308848697
      ],
      [
        "tra",
        -10.27588797020588
      ],
      [
        "Sams",
        -10.277789113631822
      ],
      [
        "mɔri",
        -10.278149177330942
      ],
      [
        "asinye",
        -10.279984968146492
      ],
      [
        "Mana",
        -10.280171949510414
      ],
      [
        "mpa",
        -10.281057832109834
      ],
      [
        "ɔkɔɔ",
        -10.281599154952794
      ],
      [
        "Yis",
        -10.28329872522562
      ],
      [
        "biri",
        -10.283839753476627
      ],
      [
        "kaba",
        -10.28534837642288
      ],
      [
        "kpẽ",
        -10.285408209335037
      ],
      [
        "Basan",
        -10.286822331268484
      ],
      [
        "nɔviwò",
        -10.287573846512377
      ],
      [
        "wɔhyɛ",
        -10.28976081207378
      ],
      [
        "birigi",
        -10.29005451797772
      ],
      [
        "Betel",
        -10.290524050304604
      ],
      [
        "Asafo",
        -10.29137912351559
      ],
      [
        "Asɛm",
        -10.292926224870442
      ],
      [
        "avu",
        -10.293637305741314
      ],
      [
        "Yesa",
        -10.294816763531218
      ],
      [
        "pahir",
        -10.295235165944923
      ],
      [
        "mawuwo",
        -10.29555725861654
      ],
      [
        "Aram",
        -10.29620388197674
      ],
      [
        "maɖo",
        -10.298005611673188
      ],
      [
        "kumm",
        -10.29808544118583
      ],
      [
        "nsim",
        -10.299918603972486
      ],
      [
        "mɛyɛ",
        -10.301472612089643
      ],
      [
        "ŋma",
        -10.302016245966024
      ],
      [
        "Efrayim",
        -10.30214280026414
      ],
      [
        "gbedzi",
        -10.302958333099864
      ],
      [
        "nubablaɖaka",
        -10.304833888372444
      ],
      [
        "Lab",
        -10.304857403065956
      ],
      [
        "bɛsane",
        -10.304941756952
      ],
      [
        "mɔne",
        -10.306139340676758
      ],
      [
        "wote",
        -10.310519378817965
      ],
      [
        "meva",
        -10.311266651190929
      ],
      [
        "è",
        -10.311309358634237
      ],
      [
        "anwanwadeɛ",
        -10.31164443901999
      ],
      [
        "puri",
        -10.311905573164488
      ],
      [
        "futɔ",
        -10.31241570117939
      ],
      [
        "Tiro",
        -10.313813716031431
      ],
      [
        "mienya",
        -10.313929393205107
      ],
      [
        "xlẽ",
        -10.31393991435015
      ],
      [
        "twaa",
        -10.314192610886844
      ],
      [
        "nsane",
        -10.314361834606917
      ],
      [
        "Sina",
        -10.314370095854985
      ],
      [
        "wokplɔ",
        -10.31540439188818
      ],
      [
        "Woawo",
        -10.315454494942362
      ],
      [
        "manim",
        -10.315564589578106
      ],
      [
        "monn",
        -10.317457409139791
      ],
      [
        "ahurisi",
        -10.31798036534942
      ],
      [
        "amedzro",
        -10.318264805160464
      ],
      [
        "mmrɛ",
        -10.31939384373175
      ],
      [
        "lahibal",
        -10.319436255566991
      ],
      [
        "wama",
        -10.319641809383944
      ],
      [
        "Bil",
        -10.32062456461927
      ],
      [
        "wɔdii",
        -10.320722976198612
      ],
      [
        "aduan",
        -10.322006670657114
      ],
      [
        "aʋawɔla",
        -10.322128954068384
      ],
      [
        "hekpe",
        -10.32263875386984
      ],
      [
        "dwane",
        -10.324248442426782
      ],
      [
        "legbawo",
        -10.325179012629226
      ],
      [
        "dziwò",
        -10.325731755178204
      ],
      [
        "alẽ",
        -10.32735309761584
      ],
      [
        "tɔ́a",
        -10.328226496886012
      ],
      [
        "afisi",
        -10.328421461451969
      ],
      [
        "woate",
        -10.328438971891956
      ],
      [
        "boaboa",
        -10.32869878799356
      ],
      [
        "mlɔ",
        -10.330291885318688
      ],
      [
        "daeɛ",
        -10.33032735950198
      ],
      [
        "ɔsɛe",
        -10.33044999089472
      ],
      [
        "Simeon",
        -10.330647604326147
      ],
      [
        "galim",
        -10.33096147670962
      ],
      [
        "nènye",
        -10.331505315361454
      ],
      [
        "gbagbe",
        -10.331575460263696
      ],
      [
        "hɔho",
        -10.331970543040576
      ],
      [
        "dzro",
        -10.331983880901925
      ],
      [
        "anabinim",
        -10.332522464559062
      ],
      [
        "leeg",
        -10.332851673255467
      ],
      [
        "nɔlawo",
        -10.334666340529708
      ],
      [
        "blave",
        -10.336132018570575
      ],
      [
        "Lebanon",
        -10.336188194063904
      ],
      [
        "woyɛ",
        -10.336252401969404
      ],
      [
        "buɣisi",
        -10.336464167794784
      ],
      [
        "pɔhim",
        -10.338179468691717
      ],
      [
        "naani",
        -10.33843165722843
      ],
      [
        "lihiri",
        -10.33859000655011
      ],
      [
        "ampa",
        -10.339302068533428
      ],
      [
        "ayɛyɛ",
        -10.340094813367536
      ],
      [
        "dzodzro",
        -10.340216583198076
      ],
      [
        "Ismael",
        -10.341179012912736
      ],
      [
        "toɔ",
        -10.341448699596906
      ],
      [
        "suhir",
        -10.341783392147931
      ],
      [
        "akofena",
        -10.342370751497024
      ],
      [
        "Jɔa",
        -10.343253722002776
      ],
      [
        "Ɛn",
        -10.344067093719826
      ],
      [
        "ɖum",
        -10.344451312565194
      ],
      [
        "Yerem",
        -10.34454069290802
      ],
      [
        "buchi",
        -10.344945442483947
      ],
      [
        "asuo",
        -10.344987218630411
      ],
      [
        "yimaŋ",
        -10.345620168000346
      ],
      [
        "mehunuu",
        -10.346894187189871
      ],
      [
        "egɔme",
        -10.347150931320648
      ],
      [
        "nirilim",
        -10.347481345123215
      ],
      [
        "miekpɔ",
        -10.347505207938749
      ],
      [
        "Eliya",
        -10.347607153742423
      ],
      [
        "anhunu",
        -10.34774680428663
      ],
      [
        "Cham",
        -10.348023684980106
      ],
      [
        "bɛfiri",
        -10.348244679884182
      ],
      [
        "aseye",
        -10.349385077011824
      ],
      [
        "awerɛhoɔ",
        -10.350173877424687
      ],
      [
        "ɣetoɖoƒe",
        -10.350770261347424
      ],
      [
        "kplim",
        -10.351308623898472
      ],
      [
        "Ijiptinim",
        -10.352098542507946
      ],
      [
        "nkyerɛkyerɛ",
        -10.35218207379684
      ],
      [
        "paɣiri",
        -10.353561526547752
      ],
      [
        "Farisi",
        -10.357011313469188
      ],
      [
        "vuri",
        -10.357792062856838
      ],
      [
        "Gideon",
        -10.358408647631553
      ],
      [
        "tumtumdib",
        -10.358901229143754
      ],
      [
        "wɔkɔɔ",
        -10.359525382276232
      ],
      [
        "wɔnam",
        -10.35979798511765
      ],
      [
        "meta",
        -10.360222973977624
      ],
      [
        "woyɔ",
        -10.361623256092496
      ],
      [
        "Midian",
        -10.362021242897494
      ],
      [
        "zoli",
        -10.362026859942375
      ],
      [
        "apem",
        -10.362321250712007
      ],
      [
        "asiba",
        -10.36276822151399
      ],
      [
        "wɔadi",
        -10.363416213778972
      ],
      [
        "Dabisi",
        -10.365094256177889
      ],
      [
        "shihi",
        -10.36511975712253
      ],
      [
        "vudo",
        -10.365280087242674
      ],
      [
        "afahyɛ",
        -10.365454309162375
      ],
      [
        "atɔe",
        -10.366300936905652
      ],
      [
        "fɔntinsi",
        -10.366965764056935
      ],
      [
        "ntena",
        -10.367846234950866
      ],
      [
        "yidan",
        -10.368965986223234
      ],
      [
        "alɔ̃",
        -10.368989948566703
      ],
      [
        "aduhwam",
        -10.369229581746191
      ],
      [
        "niŋgbun",
        -10.369570174198715
      ],
      [
        "ŋariŋ",
        -10.369699073700858
      ],
      [
        "Togb",
        -10.370759471579426
      ],
      [
        "gali",
        -10.370926652564943
      ],
      [
        "hame",
        -10.37150848301554
      ],
      [
        "dilan",
        -10.37289820431124
      ],
      [
        "ansarisi",
        -10.372943274655274
      ],
      [
        "wose",
        -10.37547623860998
      ],
      [
        "adane",
        -10.375510210250392
      ],
      [
        "ŋkekewo",
        -10.37672757011643
      ],
      [
        "rekɔ",
        -10.377918729057392
      ],
      [
        "nwanwa",
        -10.379310518922097
      ],
      [
        "dabis",
        -10.380023747449204
      ],
      [
        "binyar",
        -10.38035087355579
      ],
      [
        "ɛde",
        -10.380611353721855
      ],
      [
        "míenye",
        -10.382931919531575
      ],
      [
        "pini",
        -10.38379068953085
      ],
      [
        "mɔwo",
        -10.384166191023208
      ],
      [
        "kpɛma",
        -10.38547190001504
      ],
      [
        "baŋsim",
        -10.385495239520411
      ],
      [
        "homeda",
        -10.38582202699756
      ],
      [
        "agakpe",
        -10.38618981573624
      ],
      [
        "Yosi",
        -10.386444830033216
      ],
      [
        "nɔnɔme",
        -10.386449540122989
      ],
      [
        "Neny",
        -10.38652224443302
      ],
      [
        "ɔbɛyɛ",
        -10.389342843187574
      ],
      [
        "Ɛsɛ",
        -10.389418830660148
      ],
      [
        "amegbetɔwo",
        -10.39019133280928
      ],
      [
        "miawɔ",
        -10.390623445706836
      ],
      [
        "awuwo",
        -10.392176391041795
      ],
      [
        "bonhwa",
        -10.392609284665898
      ],
      [
        "zibisim",
        -10.392617398697412
      ],
      [
        "bɔr",
        -10.393757428529476
      ],
      [
        "Nebukadne",
        -10.397053750899415
      ],
      [
        "nyagblɔɖilawo",
        -10.397069989703915
      ],
      [
        "luɣili",
        -10.397123795109124
      ],
      [
        "Mma",
        -10.397604150063998
      ],
      [
        "Ben",
        -10.399835145748234
      ],
      [
        "Daadam",
        -10.400055725411256
      ],
      [
        "vavã",
        -10.402237913033426
      ],
      [
        "agyina",
        -10.402958281504516
      ],
      [
        "blaatɔ̃",
        -10.403691898970028
      ],
      [
        "situr",
        -10.404240047103446
      ],
      [
        "ketewa",
        -10.404466994529896
      ],
      [
        "anida",
        -10.404831758090795
      ],
      [
        "adwa",
        -10.404935805102788
      ],
      [
        "kesinɔnuwo",
        -10.405392886314292
      ],
      [
        "imba",
        -10.40584733950913
      ],
      [
        "litaafi",
        -10.408332576336974
      ],
      [
        "Dukɔ",
        -10.408816070828086
      ],
      [
        "wɔkaa",
        -10.410033933212024
      ],
      [
        "eyome",
        -10.41012911328291
      ],
      [
        "tɔgbuiwo",
        -10.41019782781932
      ],
      [
        "ɖokuiwo",
        -10.41153132667352
      ],
      [
        "mpanin",
        -10.41309298147284
      ],
      [
        "Zi",
        -10.41323130885183
      ],
      [
        "kpahi",
        -10.414547066868142
      ],
      [
        "ɔbaako",
        -10.415157454019068
      ],
      [
        "tease",
        -10.416131124239076
      ],
      [
        "lolo",
        -10.416297521674537
      ],
      [
        "Ɣe",
        -10.416818520924316
      ],
      [
        "tasiaɖam",
        -10.41698013823428
      ],
      [
        "woɖi",
        -10.417365379718904
      ],
      [
        "emegbe",
        -10.41836971517886
      ],
      [
        "mmɛn",
        -10.418494388352098
      ],
      [
        "woaɖu",
        -10.41967281642997
      ],
      [
        "koko",
        -10.419735553580654
      ],
      [
        "dunɔdal",
        -10.42007899451716
      ],
      [
        "suo",
        -10.420180295934127
      ],
      [
        "ɛdan",
        -10.421314855549053
      ],
      [
        "afena",
        -10.424553054372964
      ],
      [
        "mɔkpɔkpɔ",
        -10.425607453460884
      ],
      [
        "nuwuwu",
        -10.425693957166471
      ],
      [
        "kpuɣ",
        -10.427028493715316
      ],
      [
        "Kɔkɔe",
        -10.427957782888177
      ],
      [
        "ƒè",
        -10.428188829380844
      ],
      [
        "nadab",
        -10.43005239186957
      ],
      [
        "Filip",
        -10.430506059932242
      ],
      [
        "ɛza",
        -10.431505876643715
      ],
      [
        "adan",
        -10.431511492547362
      ],
      [
        "fra",
        -10.4319213976712
      ],
      [
        "osua",
        -10.432013407011162
      ],
      [
        "gbedodoɖa",
        -10.432210335816809
      ],
      [
        "Solomo",
        -10.432210579834996
      ],
      [
        "mununkum",
        -10.43436100273349
      ],
      [
        "atorɔ",
        -10.434595604239192
      ],
      [
        "wako",
        -10.434627156747482
      ],
      [
        "nkonim",
        -10.434714294351426
      ],
      [
        "mapɔ",
        -10.43596975920535
      ],
      [
        "mmirika",
        -10.436809475233694
      ],
      [
        "ayra",
        -10.43711161572103
      ],
      [
        "veve",
        -10.438099403845104
      ],
      [
        "magya",
        -10.43894643758305
      ],
      [
        "alẽwo",
        -10.440016513030468
      ],
      [
        "nʼani",
        -10.440710322674768
      ],
      [
        "wʼ",
        -10.445768869110909
      ],
      [
        "wòana",
        -10.445968150670708
      ],
      [
        "chirigi",
        -10.446109165238898
      ],
      [
        "Uzi",
        -10.44799610060031
      ],
      [
        "Natan",
        -10.448101106971585
      ],
      [
        "Chɛliy",
        -10.448704704984763
      ],
      [
        "mfu",
        -10.449480567738371
      ],
      [
        "yɛde",
        -10.450523108354044
      ],
      [
        "Jɛrim",
        -10.45066844585029
      ],
      [
        "mmaak",
        -10.454491279411249
      ],
      [
        "ɔhwɛ",
        -10.454778740597636
      ],
      [
        "vuhim",
        -10.455461081457354
      ],
      [
        "tɔb",
        -10.455646152179009
      ],
      [
        "duri",
        -10.456708926490997
      ],
      [
        "ã",
        -10.459070942744347
      ],
      [
        "nuvɔ̃wo",
        -10.459474441472274
      ],
      [
        "Amegbetɔ",
        -10.460727607744516
      ],
      [
        "Odiyifoɔ",
        -10.460820397904577
      ],
      [
        "lãnyiƒe",
        -10.460919602443964
      ],
      [
        "hetsɔ",
        -10.463162708080969
      ],
      [
        "suli",
        -10.464371552772835
      ],
      [
        "ahohora",
        -10.464988664490958
      ],
      [
        "ɔklugu",
        -10.46506980944923
      ],
      [
        "pihinu",
        -10.465353655072086
      ],
      [
        "kutsetse",
        -10.466311348333406
      ],
      [
        "ɔfaa",
        -10.466948314206128
      ],
      [
        "lɔƒ",
        -10.467258363672242
      ],
      [
        "Atwerɛ",
        -10.467484297829865
      ],
      [
        "dura",
        -10.46753860916478
      ],
      [
        "ɔkwan",
        -10.46787819023526
      ],
      [
        "Woɖo",
        -10.46933029741018
      ],
      [
        "tuhili",
        -10.470342049156791
      ],
      [
        "agyan",
        -10.473321330576375
      ],
      [
        "buni",
        -10.473642931989112
      ],
      [
        "wuiɛ",
        -10.473936255517796
      ],
      [
        "ʋuʋu",
        -10.474233193988884
      ],
      [
        "vinye",
        -10.474534749837655
      ],
      [
        "ewiase",
        -10.474944996599898
      ],
      [
        "Gibea",
        -10.478547898994291
      ],
      [
        "Yɛlim",
        -10.478622186897136
      ],
      [
        "woƒo",
        -10.47964553428926
      ],
      [
        "gbeƒãɖela",
        -10.479929150313978
      ],
      [
        "Hama",
        -10.481135280306662
      ],
      [
        "tinim",
        -10.481926929654714
      ],
      [
        "maƒo",
        -10.482052543606503
      ],
      [
        "kara",
        -10.482390099640632
      ],
      [
        "lita",
        -10.483156069886636
      ],
      [
        "kpui",
        -10.48353930799295
      ],
      [
        "koro",
        -10.48362636530608
      ],
      [
        "nè",
        -10.48401563854824
      ],
      [
        "Ampa",
        -10.484200280232365
      ],
      [
        "enelia",
        -10.485009550683628
      ],
      [
        "Zeba",
        -10.485364312271049
      ],
      [
        "nsã",
        -10.486027303578908
      ],
      [
        "Mikpɔ",
        -10.486031322974274
      ],
      [
        "tirim",
        -10.487225582242065
      ],
      [
        "ɔhaw",
        -10.487362155265007
      ],
      [
        "magblɔ",
        -10.487459991870123
      ],
      [
        "xexlẽme",
        -10.487560869152814
      ],
      [
        "woakpɔ",
        -10.488336711017302
      ],
      [
        "tɔʋu",
        -10.4886696460706
      ],
      [
        "fini",
        -10.490084795747606
      ],
      [
        "kɛse",
        -10.490125343142768
      ],
      [
        "nɔviwo",
        -10.490978400957667
      ],
      [
        "wɔbɛ",
        -10.491344484392668
      ],
      [
        "nira",
        -10.49331801167025
      ],
      [
        "wuntizɔr",
        -10.493362154886432
      ],
      [
        "wɔtete",
        -10.493813242101316
      ],
      [
        "danee",
        -10.494120483055909
      ],
      [
        "Sela",
        -10.49437180174948
      ],
      [
        "nsu",
        -10.494556960652424
      ],
      [
        "twitwa",
        -10.494593387856384
      ],
      [
        "gãwo",
        -10.495767297265472
      ],
      [
        "gbo",
        -10.496496043691796
      ],
      [
        "Dabi",
        -10.496554727277614
      ],
      [
        "kluvi",
        -10.49700558124304
      ],
      [
        "Rama",
        -10.49707219588643
      ],
      [
        "wɔbu",
        -10.497248529865962
      ],
      [
        "Anyigba",
        -10.497568285455404
      ],
      [
        "yur",
        -10.497647612098564
      ],
      [
        "nnaadaa",
        -10.498136019120722
      ],
      [
        "dzinu",
        -10.498950681187091
      ],
      [
        "tiatia",
        -10.499829620410786
      ],
      [
        "yra",
        -10.49997398202244
      ],
      [
        "titina",
        -10.500443284517246
      ],
      [
        "Esiawo",
        -10.500521055635538
      ],
      [
        "xɔasi",
        -10.501349651142307
      ],
      [
        "nètsɔ",
        -10.50139940265464
      ],
      [
        "legba",
        -10.50207622455283
      ],
      [
        "sɔɣ",
        -10.503108076655472
      ],
      [
        "bɛhyia",
        -10.50458551897202
      ],
      [
        "pɛpɛ",
        -10.50666191801593
      ],
      [
        "wɔlawo",
        -10.506753380371052
      ],
      [
        "Yudatɔ",
        -10.507002148647324
      ],
      [
        "enum",
        -10.507493022852367
      ],
      [
        "ɖetugbi",
        -10.507568545182432
      ],
      [
        "pili",
        -10.50780243394108
      ],
      [
        "kokoko",
        -10.507892628944552
      ],
      [
        "ahyiaeɛ",
        -10.508024585177134
      ],
      [
        "wɔtu",
        -10.508434804402118
      ],
      [
        "Aser",
        -10.50866217376964
      ],
      [
        "abrɛ",
        -10.509860108052472
      ],
      [
        "Ɛhɔ",
        -10.510177185789724
      ],
      [
        "ɛzɛk",
        -10.51035052239494
      ],
      [
        "wuhibu",
        -10.51041287515194
      ],
      [
        "xɔxɔnu",
        -10.510810361569003
      ],
      [
        "piɛla",
        -10.511565548858574
      ],
      [
        "wɔɣili",
        -10.511842228990734
      ],
      [
        "Sodom",
        -10.51230114364078
      ],
      [
        "kɔkɔewo",
        -10.512963385961756
      ],
      [
        "kokoɔ",
        -10.513411355859311
      ],
      [
        "mexɔ",
        -10.513560948558814
      ],
      [
        "wadeɛ",
        -10.514810533232584
      ],
      [
        "home",
        -10.51583862948944
      ],
      [
        "Sime",
        -10.516303062496728
      ],
      [
        "nuaba",
        -10.516713550738348
      ],
      [
        "ahaku",
        -10.517281728267807
      ],
      [
        "yayra",
        -10.517613662441253
      ],
      [
        "mahyɛ",
        -10.517696722298089
      ],
      [
        "Nunɔla",
        -10.517781099038883
      ],
      [
        "bɛmaŋmaŋ",
        -10.518269029589607
      ],
      [
        "nàtsɔ",
        -10.51844229326492
      ],
      [
        "gil",
        -10.518974193427717
      ],
      [
        "atsyɔ̃",
        -10.519092868151128
      ],
      [
        "nsuro",
        -10.51926350529798
      ],
      [
        "atsrɔ̃",
        -10.519480055911169
      ],
      [
        "Sara",
        -10.52018655076981
      ],
      [
        "wòkplɔ",
        -10.520285502329251
      ],
      [
        "katua",
        -10.520843970303003
      ],
      [
        "ɔbisa",
        -10.52159690884677
      ],
      [
        "ƒle",
        -10.522122382117018
      ],
      [
        "mado",
        -10.522537332289431
      ],
      [
        "nanom",
        -10.523479956678433
      ],
      [
        "zaawun",
        -10.52417095956394
      ],
      [
        "kyerɛkyerɛ",
        -10.524355315100768
      ],
      [
        "Ifriim",
        -10.52491793752823
      ],
      [
        "saml",
        -10.52509532409377
      ],
      [
        "uhim",
        -10.52746051718858
      ],
      [
        "dedie",
        -10.527797253947105
      ],
      [
        "gyata",
        -10.527841954969489
      ],
      [
        "blaeve",
        -10.528528773900334
      ],
      [
        "labin",
        -10.528837274607984
      ],
      [
        "wòxɔ",
        -10.531381783855082
      ],
      [
        "ɛre",
        -10.531451406179004
      ],
      [
        "homa",
        -10.533186490189683
      ],
      [
        "niɣi",
        -10.533370854642616
      ],
      [
        "Mor",
        -10.53439035853207
      ],
      [
        "nnomp",
        -10.534688345415848
      ],
      [
        "mahe",
        -10.53610961713106
      ],
      [
        "pɛɛ",
        -10.536188355449646
      ],
      [
        "nuto",
        -10.536371422145503
      ],
      [
        "Jɛr",
        -10.53785030790912
      ],
      [
        "nyɔnuvi",
        -10.537997735541374
      ],
      [
        "tahiri",
        -10.539295150800172
      ],
      [
        "yuuni",
        -10.539774485519358
      ],
      [
        "dwuma",
        -10.541011230518134
      ],
      [
        "viwò",
        -10.542680536292718
      ],
      [
        "Yudea",
        -10.54320083190392
      ],
      [
        "asraafoɔ",
        -10.544544922155549
      ],
      [
        "Jɛrusalɛmnim",
        -10.545109781053547
      ],
      [
        "abufuhyeɛ",
        -10.545535984476755
      ],
      [
        "ewolia",
        -10.545954146449713
      ],
      [
        "atrɔ",
        -10.549111279548889
      ],
      [
        "Ɔka",
        -10.549553567508948
      ],
      [
        "alé",
        -10.549809111825049
      ],
      [
        "biŋkɔb",
        -10.549889857864096
      ],
      [
        "nyaɣisim",
        -10.551217015859354
      ],
      [
        "melɔ̃",
        -10.551472853890898
      ],
      [
        "nnommum",
        -10.551620826228948
      ],
      [
        "baɣa",
        -10.552692371592162
      ],
      [
        "nusiawo",
        -10.553802611588331
      ],
      [
        "dunoy",
        -10.554361038853797
      ],
      [
        "ɔkɔ",
        -10.554782360248463
      ],
      [
        "woxɔ",
        -10.55484531267777
      ],
      [
        "vodada",
        -10.55549930903867
      ],
      [
        "Sekem",
        -10.555799718214914
      ],
      [
        "wotso",
        -10.556518853593689
      ],
      [
        "Lot",
        -10.557006525254565
      ],
      [
        "Ahaz",
        -10.557322331211092
      ],
      [
        "eyama",
        -10.55750296021234
      ],
      [
        "miatsɔ",
        -10.557909291171589
      ],
      [
        "bɛdii",
        -10.558561367587425
      ],
      [
        "kɔto",
        -10.558725247459536
      ],
      [
        "nkwasea",
        -10.558968554157063
      ],
      [
        "sí",
        -10.560403427820846
      ],
      [
        "numevɔsa",
        -10.561345814160337
      ],
      [
        "Ram",
        -10.561914666464997
      ],
      [
        "ɛdeɛ",
        -10.562035330376332
      ],
      [
        "Fiagã",
        -10.562489601047396
      ],
      [
        "tomadan",
        -10.5635865043818
      ],
      [
        "makɔmakɔ",
        -10.564545316349976
      ],
      [
        "woyɔn",
        -10.5645934812155
      ],
      [
        "Ðe",
        -10.56487644955473
      ],
      [
        "Gat",
        -10.566295627526092
      ],
      [
        "dziehe",
        -10.566815739987394
      ],
      [
        "kyee",
        -10.567518800358682
      ],
      [
        "ʒii",
        -10.568525224436328
      ],
      [
        "tatɔ",
        -10.569315236794171
      ],
      [
        "Asaf",
        -10.56937238714692
      ],
      [
        "wɔbɛka",
        -10.56961682131896
      ],
      [
        "ahantan",
        -10.56971228835276
      ],
      [
        "Hebron",
        -10.57065979010245
      ],
      [
        "Gibeon",
        -10.570938281326477
      ],
      [
        "ʋɔnudrɔ̃la",
        -10.570997443153695
      ],
      [
        "suhiri",
        -10.571129070558976
      ],
      [
        "lɔri",
        -10.571167031744713
      ],
      [
        "ahonya",
        -10.571247417832986
      ],
      [
        "anyiehe",
        -10.57267183969372
      ],
      [
        "Herode",
        -10.57488748993795
      ],
      [
        "Wòe",
        -10.575171807194272
      ],
      [
        "fita",
        -10.576893372284763
      ],
      [
        "more",
        -10.577125496511838
      ],
      [
        "pete",
        -10.57739451801834
      ],
      [
        "nnomaa",
        -10.57812395543338
      ],
      [
        "kesinɔnu",
        -10.578782359163617
      ],
      [
        "ayɔbu",
        -10.579249707820066
      ],
      [
        "xexe",
        -10.57929456596587
      ],
      [
        "gbedadaƒo",
        -10.579985682129555
      ],
      [
        "tinzun",
        -10.580039744043448
      ],
      [
        "Ziɔn",
        -10.580105106662462
      ],
      [
        "abosom",
        -10.580942881209626
      ],
      [
        "Zad",
        -10.581037207999133
      ],
      [
        "wɔse",
        -10.58143962946076
      ],
      [
        "henɔ",
        -10.581823793181716
      ],
      [
        "kariti",
        -10.581853482939769
      ],
      [
        "adegbe",
        -10.582811371955437
      ],
      [
        "ɔtoo",
        -10.584261911429405
      ],
      [
        "nyɛviya",
        -10.584313809668672
      ],
      [
        "sɔrefie",
        -10.584573669213691
      ],
      [
        "vivi",
        -10.584686127278438
      ],
      [
        "Satan",
        -10.584692785981243
      ],
      [
        "wuli",
        -10.585178071001728
      ],
      [
        "bini",
        -10.58587776316612
      ],
      [
        "yaɣi",
        -10.586369809869408
      ],
      [
        "alɔb",
        -10.58822480003874
      ],
      [
        "aganɔ",
        -10.58886158635228
      ],
      [
        "Mía",
        -10.589302088630555
      ],
      [
        "Xizk",
        -10.589395490918609
      ],
      [
        "waazu",
        -10.589650011531887
      ],
      [
        "tuuli",
        -10.590946701035262
      ],
      [
        "adidibe",
        -10.59192084581364
      ],
      [
        "fidie",
        -10.592141903074896
      ],
      [
        "ewie",
        -10.5930740326926
      ],
      [
        "vevi",
        -10.593442698156643
      ],
      [
        "nʼanim",
        -10.593529231263616
      ],
      [
        "mmerante",
        -10.593661088135988
      ],
      [
        "Betlehem",
        -10.594134821245294
      ],
      [
        "Pumpɔ",
        -10.594145994753545
      ],
      [
        "Dziƒoʋakɔ",
        -10.594284958092643
      ],
      [
        "chihiri",
        -10.594550377099893
      ],
      [
        "ntuano",
        -10.59469997191066
      ],
      [
        "sɔwo",
        -10.596390310880258
      ],
      [
        "komm",
        -10.59708381109566
      ],
      [
        "nkron",
        -10.597116889347198
      ],
      [
        "Kaldea",
        -10.59746815468354
      ],
      [
        "hwa",
        -10.598689310897
      ],
      [
        "fifi",
        -10.599527124997875
      ],
      [
        "Wogblɔ",
        -10.599574962883098
      ],
      [
        "woaxɔ",
        -10.600746026195909
      ],
      [
        "luri",
        -10.60087838058839
      ],
      [
        "bɛgyina",
        -10.601784400753584
      ],
      [
        "Bee",
        -10.601947558239258
      ],
      [
        "Bɛna",
        -10.602883879753827
      ],
      [
        "tɔ́",
        -10.60344233714362
      ],
      [
        "biŋkɔbigu",
        -10.60371119076236
      ],
      [
        "ɔbɛma",
        -10.60374264393718
      ],
      [
        "nukunu",
        -10.6037561538939
      ],
      [
        "menni",
        -10.603870100746486
      ],
      [
        "yɔɣu",
        -10.604868357430185
      ],
      [
        "dumegã",
        -10.605449678809522
      ],
      [
        "Tama",
        -10.606015318296963
      ],
      [
        "tene",
        -10.608387422036351
      ],
      [
        "Aʋakɔwokplɔla",
        -10.608489165718463
      ],
      [
        "wòan",
        -10.609145213779325
      ],
      [
        "srade",
        -10.609220639316211
      ],
      [
        "suma",
        -10.60995066686916
      ],
      [
        "Zaŋmiy",
        -10.6102640153334
      ],
      [
        "sesẽwo",
        -10.611269300213635
      ],
      [
        "katiŋ",
        -10.612214007407248
      ],
      [
        "Yeriko",
        -10.613329967299451
      ],
      [
        "yɛyɛ",
        -10.614254041568346
      ],
      [
        "montie",
        -10.614267867230923
      ],
      [
        "kanea",
        -10.614373186208969
      ],
      [
        "tɔbutuhiri",
        -10.615389214381054
      ],
      [
        "ɔtena",
        -10.616278999199055
      ],
      [
        "Kerubi",
        -10.616289631874931
      ],
      [
        "ster",
        -10.61674512532167
      ],
      [
        "mawunya",
        -10.616982725497037
      ],
      [
        "pisi",
        -10.617010834024391
      ],
      [
        "wisi",
        -10.617645844697796
      ],
      [
        "wuwu",
        -10.617830704613894
      ],
      [
        "xɔxɔ",
        -10.617890910509589
      ],
      [
        "tiŋkpan",
        -10.618062155824862
      ],
      [
        "aɖaka",
        -10.618112773493792
      ],
      [
        "Beer",
        -10.618931140105872
      ],
      [
        "atwerɛ",
        -10.619607606472716
      ],
      [
        "chɛchɛbun",
        -10.6200187354443
      ],
      [
        "èle",
        -10.621177112238314
      ],
      [
        "wòawɔ",
        -10.62209002773869
      ],
      [
        "Ewɔ",
        -10.62304186216262
      ],
      [
        "Mia",
        -10.626182624523736
      ],
      [
        "Monn",
        -10.626784728231264
      ],
      [
        "ʒiɛm",
        -10.627677465969835
      ],
      [
        "lɔlɔ̃nu",
        -10.628205109921872
      ],
      [
        "guui",
        -10.630261112833738
      ],
      [
        "uhili",
        -10.630800387576487
      ],
      [
        "Jɔn",
        -10.631744706946748
      ],
      [
        "nuka",
        -10.63238083241076
      ],
      [
        "Ɛha",
        -10.634024299307274
      ],
      [
        "Jɛhɔ",
        -10.635083522895044
      ],
      [
        "nuwɔwɔ",
        -10.635269028156058
      ],
      [
        "Is",
        -10.635585366448392
      ],
      [
        "awie",
        -10.635936326142248
      ],
      [
        "nyɔ",
        -10.63637221231832
      ],
      [
        "ɖeko",
        -10.636414114499544
      ],
      [
        "amaŋ",
        -10.636831596281358
      ],
      [
        "alizin",
        -10.6370594309522
      ],
      [
        "kahigi",
        -10.638187455825886
      ],
      [
        "Azar",
        -10.638630483251298
      ],
      [
        "fofowò",
        -10.638659728045184
      ],
      [
        "vava",
        -10.638916960749166
      ],
      [
        "wɔkɔ",
        -10.638968597678137
      ],
      [
        "ɛnan",
        -10.639086752002523
      ],
      [
        "dziɖuɖu",
        -10.639319385276377
      ],
      [
        "Ŋ",
        -10.639616490503258
      ],
      [
        "nava",
        -10.63962982472297
      ],
      [
        "wòlé",
        -10.639663021146262
      ],
      [
        "chandi",
        -10.640112344589577
      ],
      [
        "asɛnnua",
        -10.64078701760511
      ],
      [
        "afunumu",
        -10.641699455928602
      ],
      [
        "dɔwuame",
        -10.643183343025171
      ],
      [
        "darigib",
        -10.644611021995336
      ],
      [
        "Amoritɔ",
        -10.644854748523487
      ],
      [
        "yaaŋ",
        -10.645859154294998
      ],
      [
        "wokɔ",
        -10.647234418225022
      ],
      [
        "ʒili",
        -10.64732952535296
      ],
      [
        "bɛduru",
        -10.647615214136229
      ],
      [
        "deeri",
        -10.64853296208458
      ],
      [
        "aɖaŋu",
        -10.648903606164502
      ],
      [
        "Twa",
        -10.649085021306911
      ],
      [
        "gol",
        -10.649175203864171
      ],
      [
        "sorɔnsorɔ",
        -10.649701205254011
      ],
      [
        "wakoma",
        -10.649773780223004
      ],
      [
        "alakpa",
        -10.650120373153785
      ],
      [
        "piligi",
        -10.65027813102396
      ],
      [
        "aduru",
        -10.650508749506116
      ],
      [
        "nante",
        -10.650577097211038
      ],
      [
        "dz",
        -10.651098775275132
      ],
      [
        "gbɔ̃tsu",
        -10.652853008788885
      ],
      [
        "dihi",
        -10.652859401050849
      ],
      [
        "kpambalib",
        -10.65290310514228
      ],
      [
        "wɔhunu",
        -10.653171113424534
      ],
      [
        "mieɖo",
        -10.654106823473573
      ],
      [
        "amena",
        -10.654616312326986
      ],
      [
        "Yef",
        -10.655525556720708
      ],
      [
        "Matsɔ",
        -10.656061170802928
      ],
      [
        "metsi",
        -10.657340647340169
      ],
      [
        "aƒedo",
        -10.658278841601016
      ],
      [
        "womekpɔ",
        -10.659261022775173
      ],
      [
        "wòtso",
        -10.659433906076815
      ],
      [
        "duhi",
        -10.660213324892972
      ],
      [
        "wuo",
        -10.660989168334236
      ],
      [
        "nyoo",
        -10.661113010835043
      ],
      [
        "ŋunyɔnu",
        -10.661340680783455
      ],
      [
        "siɣi",
        -10.661867285956635
      ],
      [
        "nhunumu",
        -10.662142603055257
      ],
      [
        "manya",
        -10.662452760606095
      ],
      [
        "fetu",
        -10.663079089015604
      ],
      [
        "kpihim",
        -10.663362248302782
      ],
      [
        "Amorifoɔ",
        -10.663372702583828
      ],
      [
        "dzata",
        -10.66409940027942
      ],
      [
        "tedzi",
        -10.664306419956986
      ],
      [
        "keŋ",
        -10.664328700818372
      ],
      [
        "tsitsiwo",
        -10.66444856983214
      ],
      [
        "Aleke",
        -10.664883437559924
      ],
      [
        "reka",
        -10.665208581305873
      ],
      [
        "Wode",
        -10.667875472870495
      ],
      [
        "gom",
        -10.66820495605904
      ],
      [
        "woado",
        -10.66980397945526
      ],
      [
        "drɔ̃e",
        -10.66989614946884
      ],
      [
        "Nyɔnu",
        -10.670740126435255
      ],
      [
        "ɔsane",
        -10.67074841134951
      ],
      [
        "ɛkan",
        -10.671293229809113
      ],
      [
        "aglã",
        -10.67236482896286
      ],
      [
        "ŋkekenyui",
        -10.672693412608876
      ],
      [
        "suɣ",
        -10.672841350350197
      ],
      [
        "ʋɔnudɔdrɔ̃",
        -10.673194901925296
      ],
      [
        "Gilga",
        -10.673351844407335
      ],
      [
        "dɔwɔwɔ",
        -10.673488576137952
      ],
      [
        "Rehobo",
        -10.673724363225611
      ],
      [
        "afiase",
        -10.673951424483349
      ],
      [
        "poma",
        -10.674115701251456
      ],
      [
        "Gaa",
        -10.67441889678201
      ],
      [
        "akora",
        -10.67670326051418
      ],
      [
        "ŋutega",
        -10.677802270791672
      ],
      [
        "dzɔdzɔewo",
        -10.67856278564826
      ],
      [
        "Seir",
        -10.678678773088368
      ],
      [
        "abakan",
        -10.679179712296609
      ],
      [
        "sɔree",
        -10.67924371842463
      ],
      [
        "nɛli",
        -10.679250623012706
      ],
      [
        "adzɔge",
        -10.679762394300642
      ],
      [
        "gar",
        -10.680036179711216
      ],
      [
        "ɛtwa",
        -10.681164089546172
      ],
      [
        "Via",
        -10.681395487068515
      ],
      [
        "Men",
        -10.68291205832729
      ],
      [
        "ɛtene",
        -10.683420723229322
      ],
      [
        "kplɔla",
        -10.683487620676214
      ],
      [
        "baasa",
        -10.684071799417456
      ],
      [
        "nunɔlagã",
        -10.684465570303429
      ],
      [
        "makoma",
        -10.685157735205047
      ],
      [
        "mɛbu",
        -10.685722396075144
      ],
      [
        "vovovowo",
        -10.686072346591978
      ],
      [
        "benkum",
        -10.686867903403058
      ],
      [
        "woaɖo",
        -10.686976967339277
      ],
      [
        "agbagba",
        -10.687263872992991
      ],
      [
        "dahewo",
        -10.687922162001067
      ],
      [
        "Ahas",
        -10.688080573582337
      ],
      [
        "Monhw",
        -10.688520748609427
      ],
      [
        "Wol",
        -10.689049636925285
      ],
      [
        "anwea",
        -10.689520788212874
      ],
      [
        "ɔhunu",
        -10.689875485465034
      ],
      [
        "yihiri",
        -10.690209250466047
      ],
      [
        "afɔwo",
        -10.69123663740719
      ],
      [
        "kɔfa",
        -10.692001591802947
      ],
      [
        "odoɔ",
        -10.692481019180615
      ],
      [
        "ʒiɛ",
        -10.692498050302708
      ],
      [
        "ɖagblɔ",
        -10.693094346743177
      ],
      [
        "tɔxɛ",
        -10.693667437647834
      ],
      [
        "mamlɛawo",
        -10.693715517902778
      ],
      [
        "tampi",
        -10.69407512806356
      ],
      [
        "Kaleb",
        -10.694209622708488
      ],
      [
        "rema",
        -10.69433755693264
      ],
      [
        "ɔfrɛ",
        -10.694471200276586
      ],
      [
        "lɔɣu",
        -10.695405450804104
      ],
      [
        "yiŋnim",
        -10.69562254486642
      ],
      [
        "woayɛ",
        -10.696016493231324
      ],
      [
        "ɔsɔ",
        -10.696058115693535
      ],
      [
        "piti",
        -10.696348584546485
      ],
      [
        "laɣiŋgu",
        -10.69715601666313
      ],
      [
        "woda",
        -10.697185211300594
      ],
      [
        "ŋkɔwo",
        -10.698167358776036
      ],
      [
        "mienye",
        -10.698709243786372
      ],
      [
        "Nyagblɔɖila",
        -10.699360234364542
      ],
      [
        "daadam",
        -10.699688299368916
      ],
      [
        "tɔɔ",
        -10.699827610357016
      ],
      [
        "ŋɔli",
        -10.700086220250007
      ],
      [
        "mfunumu",
        -10.700589864705696
      ],
      [
        "wuntia",
        -10.701056365844074
      ],
      [
        "Bena",
        -10.701698305120557
      ],
      [
        "animtia",
        -10.702312023062298
      ],
      [
        "subɔla",
        -10.702737985953076
      ],
      [
        "momm",
        -10.703522551818766
      ],
      [
        "ŋkuwò",
        -10.703667056442908
      ],
      [
        "safohe",
        -10.70371616575424
      ],
      [
        "Zaŋm",
        -10.703960889398536
      ],
      [
        "Lɛvi",
        -10.704155293218736
      ],
      [
        "nimdi",
        -10.704161317682882
      ],
      [
        "kilɔgiram",
        -10.704522234712538
      ],
      [
        "nusrɔ̃la",
        -10.704546352417175
      ],
      [
        "Baba",
        -10.704931293655136
      ],
      [
        "zoo",
        -10.70610945987864
      ],
      [
        "wotu",
        -10.707581500773935
      ],
      [
        "ahɔho",
        -10.708728332140538
      ],
      [
        "aʋala",
        -10.70918644952715
      ],
      [
        "adwumayɛ",
        -10.70919523694732
      ],
      [
        "poo",
        -10.710406906687613
      ],
      [
        "haɖe",
        -10.710580949435649
      ],
      [
        "Adoni",
        -10.710650488227122
      ],
      [
        "nhyehyɛ",
        -10.710711692853868
      ],
      [
        "hɔ̃",
        -10.710715604791044
      ],
      [
        "hwie",
        -10.71100744832189
      ],
      [
        "hye",
        -10.71329584158481
      ],
      [
        "Mitsɔ",
        -10.713830367630685
      ],
      [
        "kɔma",
        -10.714810940942511
      ],
      [
        "bemi",
        -10.715558556236498
      ],
      [
        "ɛnni",
        -10.716016048084334
      ],
      [
        "diiɛ",
        -10.716674179305318
      ],
      [
        "mietsɔ",
        -10.716861121019845
      ],
      [
        "bɛfa",
        -10.717388991172196
      ],
      [
        "wolé",
        -10.717456667663344
      ],
      [
        "Elea",
        -10.718024718135634
      ],
      [
        "kɔba",
        -10.718043859214896
      ],
      [
        "wotsi",
        -10.71862372458861
      ],
      [
        "wòtrɔ",
        -10.71891871319713
      ],
      [
        "Timot",
        -10.719164622477864
      ],
      [
        "atena",
        -10.719218615200028
      ],
      [
        "nado",
        -10.719245545199207
      ],
      [
        "adagya",
        -10.719707758863144
      ],
      [
        "ahohiahia",
        -10.720703119926014
      ],
      [
        "pilig",
        -10.72077467385699
      ],
      [
        "kar",
        -10.72081612828692
      ],
      [
        "Asase",
        -10.721144522181392
      ],
      [
        "asomfo",
        -10.721391513920857
      ],
      [
        "hini",
        -10.72167049260022
      ],
      [
        "nnans",
        -10.721687315312192
      ],
      [
        "tibi",
        -10.722915098503298
      ],
      [
        "kpɛ",
        -10.723254915066477
      ],
      [
        "Miawo",
        -10.723353015532997
      ],
      [
        "akafu",
        -10.723394749754595
      ],
      [
        "nàwɔ",
        -10.723518947894974
      ],
      [
        "kɔre",
        -10.723949318788396
      ],
      [
        "kafukafu",
        -10.724328013421143
      ],
      [
        "abur",
        -10.72475193892744
      ],
      [
        "nnwetɛ",
        -10.725971334806395
      ],
      [
        "tɛkyerɛma",
        -10.725973303088695
      ],
      [
        "Rebeka",
        -10.725977603993442
      ],
      [
        "atenaeɛ",
        -10.726532699159776
      ],
      [
        "monhw",
        -10.726618933685224
      ],
      [
        "botan",
        -10.726743094796568
      ],
      [
        "funu",
        -10.726786366697588
      ],
      [
        "mpoano",
        -10.727350474563988
      ],
      [
        "nunye",
        -10.727933574596934
      ],
      [
        "tir",
        -10.728211021085915
      ],
      [
        "Sɔr",
        -10.72832493810516
      ],
      [
        "adwen",
        -10.728872851500512
      ],
      [
        "hoahoa",
        -10.729838759245586
      ],
      [
        "mehyɛ",
        -10.729954214822506
      ],
      [
        "nyuri",
        -10.73042583105889
      ],
      [
        "akpoxɔnu",
        -10.731383467874211
      ],
      [
        "mɔnu",
        -10.73207559187945
      ],
      [
        "yopɔin",
        -10.732273547650092
      ],
      [
        "Ɛli",
        -10.73263205526144
      ],
      [
        "kpɛri",
        -10.73447981973046
      ],
      [
        "kɔbisi",
        -10.735542639280144
      ],
      [
        "nantwinini",
        -10.73607804933036
      ],
      [
        "nuɖusi",
        -10.736663919715188
      ],
      [
        "mpaebɔ",
        -10.736945145567107
      ],
      [
        "esiawo",
        -10.737269683314173
      ],
      [
        "nnɔbae",
        -10.737622124480117
      ],
      [
        "eneawo",
        -10.7381832640622
      ],
      [
        "taril",
        -10.738512361888596
      ],
      [
        "abɔnefo",
        -10.738646750295974
      ],
      [
        "wɔayi",
        -10.738844194613977
      ],
      [
        "miakpɔ",
        -10.739021633424258
      ],
      [
        "adzɔ",
        -10.739226654095129
      ],
      [
        "ŋkunye",
        -10.74066600614747
      ],
      [
        "Sidon",
        -10.741703763094874
      ],
      [
        "sisii",
        -10.742333248199888
      ],
      [
        "kotoku",
        -10.74318883149043
      ],
      [
        "wòbia",
        -10.743364393612088
      ],
      [
        "mitsɔ",
        -10.746097399967471
      ],
      [
        "rentu",
        -10.74633908555171
      ],
      [
        "aʋafia",
        -10.746345323466318
      ],
      [
        "Silo",
        -10.746358079524818
      ],
      [
        "kɔm",
        -10.746858942247377
      ],
      [
        "mmarato",
        -10.747397159881354
      ],
      [
        "wɔbɛyɛ",
        -10.74841947416661
      ],
      [
        "dane",
        -10.748693589079956
      ],
      [
        "kɔbili",
        -10.74871661077998
      ],
      [
        "kwata",
        -10.748813191727107
      ],
      [
        "woagblɔ",
        -10.750216818925937
      ],
      [
        "enyi",
        -10.750303152419534
      ],
      [
        "Yora",
        -10.750360846016862
      ],
      [
        "niŋmi",
        -10.750677644007006
      ],
      [
        "woanye",
        -10.750862504946442
      ],
      [
        "fire",
        -10.75095031390982
      ],
      [
        "dɔte",
        -10.751308971578908
      ],
      [
        "pihita",
        -10.75134691081618
      ],
      [
        "Rah",
        -10.75212363225181
      ],
      [
        "Levitɔwo",
        -10.752767611061842
      ],
      [
        "Adam",
        -10.753402899977395
      ],
      [
        "dɔɣ",
        -10.753598637233951
      ],
      [
        "nkoto",
        -10.754358954780365
      ],
      [
        "wɔtwa",
        -10.75493070366972
      ],
      [
        "wore",
        -10.755643247132586
      ],
      [
        "Mekpɔ",
        -10.756869456043624
      ],
      [
        "Ɔyɛ",
        -10.758974709801333
      ],
      [
        "ɖaseɖiɖi",
        -10.759074703434884
      ],
      [
        "sidzedze",
        -10.759413470737517
      ],
      [
        "dzogoe",
        -10.759909593952576
      ],
      [
        "ɛdɔm",
        -10.762368418047345
      ],
      [
        "tsitsi",
        -10.76308615560319
      ],
      [
        "adum",
        -10.764099946542387
      ],
      [
        "toto",
        -10.764368888452264
      ],
      [
        "osu",
        -10.764794040824984
      ],
      [
        "bereɛ",
        -10.765064369894604
      ],
      [
        "goli",
        -10.765136773754158
      ],
      [
        "Gomna",
        -10.76543920082318
      ],
      [
        "wɔatwa",
        -10.76663840339959
      ],
      [
        "uɣili",
        -10.766641958147908
      ],
      [
        "Eleaza",
        -10.767545769229775
      ],
      [
        "nuɖuvɔsa",
        -10.767696530864171
      ],
      [
        "tasiaɖamwo",
        -10.767846136978688
      ],
      [
        "zahindi",
        -10.768760978631155
      ],
      [
        "Kora",
        -10.769405963702813
      ],
      [
        "atabo",
        -10.769750311389872
      ],
      [
        "bara",
        -10.769818653836136
      ],
      [
        "biɛɣ",
        -10.770114877407307
      ],
      [
        "nnebɔneyɛ",
        -10.770326887306592
      ],
      [
        "rebɔ",
        -10.770653932973662
      ],
      [
        "Anaa",
        -10.771643007991065
      ],
      [
        "Tɔ́",
        -10.77260275256756
      ],
      [
        "mobɛ",
        -10.772765965724998
      ],
      [
        "kluviwo",
        -10.772964135253345
      ],
      [
        "mʼ",
        -10.775045100465318
      ],
      [
        "nenem",
        -10.77526152619127
      ],
      [
        "pihinahi",
        -10.775772558047384
      ],
      [
        "wogblẽ",
        -10.776918822562433
      ],
      [
        "wòyi",
        -10.778525037973552
      ],
      [
        "melé",
        -10.778684479418304
      ],
      [
        "wɔfaa",
        -10.778743618660725
      ],
      [
        "aleke",
        -10.77921291921107
      ],
      [
        "mmua",
        -10.780034702104754
      ],
      [
        "wɔpɛ",
        -10.781644747577674
      ],
      [
        "gindi",
        -10.782346154364465
      ],
      [
        "ɔbɔne",
        -10.783365264195446
      ],
      [
        "Mixa",
        -10.78349306814204
      ],
      [
        "bɛnya",
        -10.78445660954382
      ],
      [
        "wein",
        -10.785495716153155
      ],
      [
        "kukoli",
        -10.785687521236744
      ],
      [
        "paŋ",
        -10.7859574485808
      ],
      [
        "yinsi",
        -10.78614270751433
      ],
      [
        "ayuo",
        -10.78680899896728
      ],
      [
        "kesinɔtɔ",
        -10.787443019816124
      ],
      [
        "Merari",
        -10.787467784324033
      ],
      [
        "Miɖo",
        -10.787733286839597
      ],
      [
        "yonyeme",
        -10.787809247240748
      ],
      [
        "woana",
        -10.788822947320922
      ],
      [
        "wunu",
        -10.789355303797688
      ],
      [
        "dahe",
        -10.789407596043674
      ],
      [
        "paligi",
        -10.78942851047109
      ],
      [
        "kafu",
        -10.790180375110577
      ],
      [
        "akuaku",
        -10.790923028515852
      ],
      [
        "kplɔlawo",
        -10.791285679161165
      ],
      [
        "miaɖu",
        -10.791611290386465
      ],
      [
        "à",
        -10.79288218893794
      ],
      [
        "ɔbɛdi",
        -10.794068794415494
      ],
      [
        "Tsi",
        -10.79423364281578
      ],
      [
        "miɖo",
        -10.795086763759404
      ],
      [
        "wɔkum",
        -10.795173432701668
      ],
      [
        "kpɔkpɔ",
        -10.796356675703342
      ],
      [
        "nokwa",
        -10.797336453495642
      ],
      [
        "gagblɔ",
        -10.797891369144892
      ],
      [
        "suh",
        -10.79826383956738
      ],
      [
        "afuo",
        -10.798628675498753
      ],
      [
        "Ŋkeke",
        -10.798774483309916
      ],
      [
        "nayili",
        -10.80075994493277
      ],
      [
        "drɔ̃",
        -10.801012319556529
      ],
      [
        "meƒo",
        -10.802107298687304
      ],
      [
        "fofonye",
        -10.80300862794551
      ],
      [
        "pin",
        -10.803129397976486
      ],
      [
        "xɔname",
        -10.803167631780571
      ],
      [
        "odwenn",
        -10.80382499353904
      ],
      [
        "̃",
        -10.804904105123878
      ],
      [
        "eser",
        -10.80529753561221
      ],
      [
        "kɔƒe",
        -10.805979869906912
      ],
      [
        "Ɖo",
        -10.806639940269172
      ],
      [
        "boro",
        -10.808426783847745
      ],
      [
        "agbowo",
        -10.80935551338691
      ],
      [
        "gɔmesese",
        -10.810425783068869
      ],
      [
        "zom",
        -10.811838145114292
      ],
      [
        "bometsila",
        -10.81190985605328
      ],
      [
        "Mèga",
        -10.812594205490145
      ],
      [
        "miat",
        -10.814520594864506
      ],
      [
        "seba",
        -10.816058216534266
      ],
      [
        "suhukpeen",
        -10.81667935001537
      ],
      [
        "ɖoɖoe",
        -10.816688530089197
      ],
      [
        "nhyia",
        -10.816722407651476
      ],
      [
        "Dzudzɔgbe",
        -10.816823229524164
      ],
      [
        "subɔsubɔ",
        -10.816827382840302
      ],
      [
        "alilikpo",
        -10.816930243519206
      ],
      [
        "mfomsoɔ",
        -10.817495732868906
      ],
      [
        "tohehe",
        -10.817578695618376
      ],
      [
        "adie",
        -10.818332137838304
      ],
      [
        "nandaa",
        -10.818369559374869
      ],
      [
        "asadeɛ",
        -10.819296169350253
      ],
      [
        "woatsrɔ̃",
        -10.820243799809418
      ],
      [
        "wotrɔ",
        -10.821192743098685
      ],
      [
        "tɔbbi",
        -10.821649126039537
      ],
      [
        "ware",
        -10.821661362334453
      ],
      [
        "ablɔ",
        -10.822731492289666
      ],
      [
        "amrado",
        -10.822824050426677
      ],
      [
        "dɔɣiri",
        -10.823732493197015
      ],
      [
        "wummiy",
        -10.823901486359157
      ],
      [
        "kamfo",
        -10.823946594936835
      ],
      [
        "Babilon",
        -10.82431630157599
      ],
      [
        "mprɛns",
        -10.824658755469542
      ],
      [
        "akyɛde",
        -10.824771724261453
      ],
      [
        "fukpekpe",
        -10.824928770142945
      ],
      [
        "yɛliŋ",
        -10.824958461157108
      ],
      [
        "míawɔ",
        -10.825640355514343
      ],
      [
        "wira",
        -10.825712376073657
      ],
      [
        "mfuo",
        -10.82613725172099
      ],
      [
        "gyaa",
        -10.826137880506284
      ],
      [
        "mepɛ",
        -10.826201910305164
      ],
      [
        "bɛhwɛ",
        -10.82637733061695
      ],
      [
        "tentene",
        -10.826462623141566
      ],
      [
        "Hebri",
        -10.82782102598862
      ],
      [
        "wɔsane",
        -10.827851811448529
      ],
      [
        "Asɔre",
        -10.828340374380556
      ],
      [
        "ŋugbedodo",
        -10.828803517222472
      ],
      [
        "hwire",
        -10.830530334889303
      ],
      [
        "Baas",
        -10.830916473997773
      ],
      [
        "Abe",
        -10.831238831615266
      ],
      [
        "monkɔ",
        -10.831515729611194
      ],
      [
        "odwan",
        -10.831793638563465
      ],
      [
        "dzudzɔgbe",
        -10.83196075800546
      ],
      [
        "Axa",
        -10.832273348021928
      ],
      [
        "Nyateƒe",
        -10.832281343205718
      ],
      [
        "Monkɔ",
        -10.832418156390355
      ],
      [
        "matrɔ",
        -10.832750268284853
      ],
      [
        "hwe",
        -10.832901074665685
      ],
      [
        "hiani",
        -10.83315684638236
      ],
      [
        "Hanani",
        -10.83383263996492
      ],
      [
        "Giliad",
        -10.834311157214236
      ],
      [
        "numevɔ",
        -10.834329375372276
      ],
      [
        "intani",
        -10.834498419600084
      ],
      [
        "ʋlaya",
        -10.834649744089456
      ],
      [
        "cham",
        -10.834911020491642
      ],
      [
        "mmusu",
        -10.8357835764811
      ],
      [
        "Baru",
        -10.836504481100937
      ],
      [
        "ahote",
        -10.836510925188756
      ],
      [
        "zuɣur",
        -10.837175316912912
      ],
      [
        "nuwɔna",
        -10.837529692851923
      ],
      [
        "rehwehwɛ",
        -10.838034720832324
      ],
      [
        "miese",
        -10.838228499998188
      ],
      [
        "Monka",
        -10.838486273228929
      ],
      [
        "tɔgbe",
        -10.838794943542023
      ],
      [
        "Mɛm",
        -10.83896443206211
      ],
      [
        "asubɔ",
        -10.839012695057182
      ],
      [
        "amba",
        -10.839181594368476
      ],
      [
        "tenten",
        -10.839219086109509
      ],
      [
        "ezer",
        -10.84139409542596
      ],
      [
        "wuntital",
        -10.841979566542603
      ],
      [
        "miga",
        -10.84199672845666
      ],
      [
        "wumdi",
        -10.843190064658597
      ],
      [
        "ɔnim",
        -10.843494575740102
      ],
      [
        "ahans",
        -10.844026755850948
      ],
      [
        "Naomi",
        -10.84444570759402
      ],
      [
        "kuhiri",
        -10.844867415661216
      ],
      [
        "nuxeƒe",
        -10.845717759041268
      ],
      [
        "wanten",
        -10.84626551572893
      ],
      [
        "deka",
        -10.846792276367772
      ],
      [
        "F",
        -10.847508526962065
      ],
      [
        "wɔaka",
        -10.847623032527537
      ],
      [
        "totorobɛnto",
        -10.84873145733408
      ],
      [
        "aniwa",
        -10.849380939795736
      ],
      [
        "axa",
        -10.849746112685589
      ],
      [
        "aʋawɔwɔ",
        -10.849928834480096
      ],
      [
        "dɔme",
        -10.85005747616398
      ],
      [
        "woatso",
        -10.850200885693638
      ],
      [
        "ẽ",
        -10.851259587682623
      ],
      [
        "atɔ̃lia",
        -10.85155768597448
      ],
      [
        "viɖe",
        -10.85247252893733
      ],
      [
        "gliwo",
        -10.852892201573905
      ],
      [
        "ɣaɣla",
        -10.85304107906655
      ],
      [
        "aniwu",
        -10.853150606200732
      ],
      [
        "Keenan",
        -10.853384652653146
      ],
      [
        "ɔnyɛ",
        -10.853531419112814
      ],
      [
        "hlẽ",
        -10.853670715529852
      ],
      [
        "malaikanim",
        -10.85385299158143
      ],
      [
        "hyerɛn",
        -10.853992613336766
      ],
      [
        "teaseɛnam",
        -10.855915136995868
      ],
      [
        "kɔbɔ",
        -10.856014327034474
      ],
      [
        "ɔkra",
        -10.856318260919542
      ],
      [
        "eɖany",
        -10.856908836773222
      ],
      [
        "anyigbeme",
        -10.859345067126554
      ],
      [
        "nsoromma",
        -10.859485889452138
      ],
      [
        "binnan",
        -10.85970974140671
      ],
      [
        "Asubɔnten",
        -10.859911873559916
      ],
      [
        "dzigbeme",
        -10.860384206886817
      ],
      [
        "bɛtwa",
        -10.86135495266612
      ],
      [
        "serɛ",
        -10.862026347236268
      ],
      [
        "kɔhyia",
        -10.86222260874067
      ],
      [
        "wòƒo",
        -10.862298772854505
      ],
      [
        "atokoɔ",
        -10.86231169190442
      ],
      [
        "mega",
        -10.862378626207423
      ],
      [
        "Gaw",
        -10.862693610519116
      ],
      [
        "ɔbɛka",
        -10.86281975010714
      ],
      [
        "ɔbɔam",
        -10.863353731275224
      ],
      [
        "nkontompo",
        -10.8653260301237
      ],
      [
        "konyi",
        -10.86585179170534
      ],
      [
        "sɔti",
        -10.8658684353915
      ],
      [
        "bɛbu",
        -10.866190103407284
      ],
      [
        "Israelvi",
        -10.866519449185944
      ],
      [
        "mote",
        -10.867395844551664
      ],
      [
        "mè",
        -10.867618313695182
      ],
      [
        "petee",
        -10.867875695711088
      ],
      [
        "dziƒowo",
        -10.868063272310264
      ],
      [
        "woaƒo",
        -10.86961680969507
      ],
      [
        "mmɔfra",
        -10.870551208807171
      ],
      [
        "gɔmedzedze",
        -10.871719187279906
      ],
      [
        "ɔgyina",
        -10.871724233169868
      ],
      [
        "Amaz",
        -10.872070421384102
      ],
      [
        "Montie",
        -10.872432289772023
      ],
      [
        "Mewɔ",
        -10.874320089730167
      ],
      [
        "kali",
        -10.874488284969091
      ],
      [
        "miexɔ",
        -10.875265177917909
      ],
      [
        "ɔyare",
        -10.875446199391664
      ],
      [
        "gbolo",
        -10.875864114278697
      ],
      [
        "ehu",
        -10.876113764498449
      ],
      [
        "nyuiwo",
        -10.87726925131874
      ],
      [
        "moayɛ",
        -10.87734989076497
      ],
      [
        "wòakpɔ",
        -10.87775235814265
      ],
      [
        "Nokorɛ",
        -10.877865263814224
      ],
      [
        "buɣili",
        -10.877906243614628
      ],
      [
        "ƒometɔwo",
        -10.878258266954038
      ],
      [
        "Ahit",
        -10.878967818816848
      ],
      [
        "Wul",
        -10.879376955673674
      ],
      [
        "Vinye",
        -10.87968526166944
      ],
      [
        "yiyim",
        -10.87990958069474
      ],
      [
        "ayeyi",
        -10.881259443837957
      ],
      [
        "Hamat",
        -10.881678484309209
      ],
      [
        "zaɣis",
        -10.882070506576945
      ],
      [
        "mmaŋ",
        -10.882651259180577
      ],
      [
        "kyire",
        -10.88305428393289
      ],
      [
        "ʋɔtru",
        -10.883873295710073
      ],
      [
        "ntwene",
        -10.88401764744452
      ],
      [
        "Barnaba",
        -10.884195253098008
      ],
      [
        "asaawa",
        -10.884212799614422
      ],
      [
        "ƒuƒoƒe",
        -10.884222065137916
      ],
      [
        "tɔnye",
        -10.884673095450704
      ],
      [
        "Gedal",
        -10.884755014608162
      ],
      [
        "Asur",
        -10.884764557630284
      ],
      [
        "Evɔ",
        -10.884962207057612
      ],
      [
        "akɔnnɔ",
        -10.885712960585993
      ],
      [
        "dɔwɔwɔwo",
        -10.885754842753885
      ],
      [
        "kɔtom",
        -10.886015704041998
      ],
      [
        "puhiri",
        -10.886035153698
      ],
      [
        "mapa",
        -10.88646047248305
      ],
      [
        "sansan",
        -10.887204766016945
      ],
      [
        "Salu",
        -10.887361452618972
      ],
      [
        "Meɖe",
        -10.888086042811947
      ],
      [
        "ɣisigu",
        -10.89012597385493
      ],
      [
        "woade",
        -10.891404675188095
      ],
      [
        "woligi",
        -10.891584228489336
      ],
      [
        "twee",
        -10.89217276475941
      ],
      [
        "ɔbɛtu",
        -10.892421924893132
      ],
      [
        "Farisitɔ",
        -10.892655944646318
      ],
      [
        "shihir",
        -10.892664208876338
      ],
      [
        "adrelia",
        -10.892689659362794
      ],
      [
        "nàgblɔ",
        -10.894098280423725
      ],
      [
        "pɛɛpɛ",
        -10.894171940154983
      ],
      [
        "bunu",
        -10.89535298370698
      ],
      [
        "ahye",
        -10.8956007333864
      ],
      [
        "lém",
        -10.89561388706387
      ],
      [
        "tw",
        -10.89571095049062
      ],
      [
        "lãme",
        -10.896789253216776
      ],
      [
        "Seru",
        -10.897536357217064
      ],
      [
        "Sedek",
        -10.897557159093733
      ],
      [
        "sukɔ",
        -10.897972530182928
      ],
      [
        "taŋkpaɣ",
        -10.898690099713722
      ],
      [
        "nunanawo",
        -10.89871324004249
      ],
      [
        "nyanyanya",
        -10.898771038430391
      ],
      [
        "dzedze",
        -10.89893482375447
      ],
      [
        "wɔren",
        -10.89937481271972
      ],
      [
        "makyerɛ",
        -10.902289770631558
      ],
      [
        "badwa",
        -10.902809926885348
      ],
      [
        "tuhiri",
        -10.90298329943523
      ],
      [
        "kerubi",
        -10.902992072840313
      ],
      [
        "piɛ",
        -10.903323275319696
      ],
      [
        "mmɔborɔhunu",
        -10.903530909929444
      ],
      [
        "waingble",
        -10.90374189408632
      ],
      [
        "Mɔabnim",
        -10.903783487509791
      ],
      [
        "kɔhi",
        -10.904081311254254
      ],
      [
        "nuxaxa",
        -10.904494463040752
      ],
      [
        "nnwom",
        -10.904882861748746
      ],
      [
        "leel",
        -10.905022136904323
      ],
      [
        "Abiata",
        -10.90507728141062
      ],
      [
        "Gerson",
        -10.905509776906747
      ],
      [
        "dzre",
        -10.906031043685816
      ],
      [
        "wɔabɔ",
        -10.906199929783076
      ],
      [
        "adzɔgbe",
        -10.906205377887726
      ],
      [
        "huhu",
        -10.906665286591824
      ],
      [
        "Axi",
        -10.907202228878722
      ],
      [
        "mɔ̃",
        -10.909019052945403
      ],
      [
        "míewɔ",
        -10.909328232187566
      ],
      [
        "anibereɛ",
        -10.909588697323697
      ],
      [
        "ɔbotan",
        -10.909929050431677
      ],
      [
        "wʼanim",
        -10.910449433686471
      ],
      [
        "Zal",
        -10.910975236021129
      ],
      [
        "vinvamli",
        -10.911074759022974
      ],
      [
        "ŋubi",
        -10.911462187914989
      ],
      [
        "ayeforɔ",
        -10.912302678834688
      ],
      [
        "ƒoƒo",
        -10.91276868184144
      ],
      [
        "Abi",
        -10.912916302627185
      ],
      [
        "yeatsɔ",
        -10.914712409258016
      ],
      [
        "wɔsuro",
        -10.915152696235667
      ],
      [
        "asaf",
        -10.915581390468873
      ],
      [
        "ɔboɔ",
        -10.915612572478238
      ],
      [
        "wʼani",
        -10.9158022282678
      ],
      [
        "asoma",
        -10.917070125756885
      ],
      [
        "prɛk",
        -10.917544156317769
      ],
      [
        "daazichi",
        -10.917664036653251
      ],
      [
        "ŋutinya",
        -10.91769552979027
      ],
      [
        "ɖeɖi",
        -10.917839755916235
      ],
      [
        "ɖanɔ",
        -10.918671977759322
      ],
      [
        "wɔsie",
        -10.91873037940796
      ],
      [
        "mpɛ",
        -10.918850487668594
      ],
      [
        "daalibarika",
        -10.91905407647409
      ],
      [
        "ɔgyaa",
        -10.922157582405074
      ],
      [
        "bɛda",
        -10.923174916557526
      ],
      [
        "mommma",
        -10.92343028177093
      ],
      [
        "meɖi",
        -10.923621683101077
      ],
      [
        "pintin",
        -10.923718616313035
      ],
      [
        "popo",
        -10.923834405859434
      ],
      [
        "anisoade",
        -10.924664455999912
      ],
      [
        "Rib",
        -10.926151495897944
      ],
      [
        "Dari",
        -10.926779583074712
      ],
      [
        "Iso",
        -10.92779677794698
      ],
      [
        "yih",
        -10.928293731743114
      ],
      [
        "adwamammɔ",
        -10.92892662116244
      ],
      [
        "pɛn",
        -10.92926389052272
      ],
      [
        "tari",
        -10.92947310892222
      ],
      [
        "Eyome",
        -10.929721913290305
      ],
      [
        "heva",
        -10.930002781709282
      ],
      [
        "Ɛdom",
        -10.9308108052569
      ],
      [
        "bɛdane",
        -10.931160919496012
      ],
      [
        "woma",
        -10.9324457092375
      ],
      [
        "ɔsii",
        -10.932491466708324
      ],
      [
        "jɛr",
        -10.932529163816998
      ],
      [
        "wòtsi",
        -10.932623898441172
      ],
      [
        "zaŋmiya",
        -10.93277842246268
      ],
      [
        "míakpɔ",
        -10.933858216424197
      ],
      [
        "kyekyeree",
        -10.934019651620131
      ],
      [
        "binyɛri",
        -10.934434674970742
      ],
      [
        "wɔyii",
        -10.934482425423989
      ],
      [
        "ketɔwo",
        -10.934567641398864
      ],
      [
        "wɔgye",
        -10.935358256697864
      ],
      [
        "fiƒode",
        -10.936325112549875
      ],
      [
        "helĩ",
        -10.936346244544486
      ],
      [
        "ɔbɛnya",
        -10.936376682014725
      ],
      [
        "wɔsom",
        -10.937129070703218
      ],
      [
        "tuub",
        -10.937317962233276
      ],
      [
        "Yɔdan",
        -10.937324371829964
      ],
      [
        "ahuhu",
        -10.937639484861656
      ],
      [
        "dɔr",
        -10.937784704191769
      ],
      [
        "Persia",
        -10.937871942770627
      ],
      [
        "bɛkaa",
        -10.938163747418647
      ],
      [
        "axar",
        -10.938994744824097
      ],
      [
        "nkata",
        -10.939157342565007
      ],
      [
        "wɔahyɛ",
        -10.940357695422795
      ],
      [
        "amfa",
        -10.941285675738168
      ],
      [
        "Amalek",
        -10.941789921270942
      ],
      [
        "wobu",
        -10.942383492215654
      ],
      [
        "Zedeki",
        -10.943035283958942
      ],
      [
        "ʒiɛyimtal",
        -10.943036064129284
      ],
      [
        "Ammɔnnim",
        -10.94313314413053
      ],
      [
        "akyɛ",
        -10.943967499656663
      ],
      [
        "adwaman",
        -10.945587647865237
      ],
      [
        "ʋɛ",
        -10.945619643898452
      ],
      [
        "twam",
        -10.946248804770642
      ],
      [
        "naɣilah",
        -10.947843616644946
      ],
      [
        "pol",
        -10.948233925505445
      ],
      [
        "ahwie",
        -10.948644400859564
      ],
      [
        "kposɔ",
        -10.94869831602409
      ],
      [
        "gyinagyina",
        -10.9495490971718
      ],
      [
        "ɔnhwa",
        -10.949847284199294
      ],
      [
        "Abisa",
        -10.950725184287045
      ],
      [
        "Metsɔ",
        -10.950952961231003
      ],
      [
        "mesrɛ",
        -10.951744991918387
      ],
      [
        "Kis",
        -10.952273258312829
      ],
      [
        "medɔ",
        -10.952788736260004
      ],
      [
        "yafunu",
        -10.95298636744814
      ],
      [
        "bɛgu",
        -10.953311303244917
      ],
      [
        "Sakar",
        -10.953394516076582
      ],
      [
        "wòav",
        -10.95352562800773
      ],
      [
        "Ameka",
        -10.953624373158048
      ],
      [
        "ɔtwe",
        -10.95373817320363
      ],
      [
        "mʼani",
        -10.954187566811106
      ],
      [
        "ntonto",
        -10.954199113809814
      ],
      [
        "wòɖu",
        -10.95436968160838
      ],
      [
        "wɔtee",
        -10.95491942785965
      ],
      [
        "míat",
        -10.955029753197287
      ],
      [
        "buta",
        -10.955139797972782
      ],
      [
        "fabili",
        -10.956433952469167
      ],
      [
        "megal",
        -10.956729021709794
      ],
      [
        "dzikpɔla",
        -10.956849520735553
      ],
      [
        "nàɖe",
        -10.957715625611378
      ],
      [
        "nunyala",
        -10.958405174802389
      ],
      [
        "ŋgɔgbevi",
        -10.95945349979344
      ],
      [
        "honi",
        -10.96030902966805
      ],
      [
        "nuawo",
        -10.960756755388555
      ],
      [
        "ganɔ",
        -10.961233815328576
      ],
      [
        "blaadre",
        -10.962170086703289
      ],
      [
        "barina",
        -10.962686514244606
      ],
      [
        "siɣim",
        -10.962713082639198
      ],
      [
        "ŋmɛri",
        -10.96300491608731
      ],
      [
        "Mɔab",
        -10.963147898751322
      ],
      [
        "Ɔba",
        -10.964204276521718
      ],
      [
        "woadi",
        -10.965152372587342
      ],
      [
        "yeawɔ",
        -10.965470638841689
      ],
      [
        "mawutsi",
        -10.965750145119207
      ],
      [
        "monka",
        -10.966161814214129
      ],
      [
        "È",
        -10.966580562322696
      ],
      [
        "nkasɛɛ",
        -10.966699536950037
      ],
      [
        "ƒomeawo",
        -10.967222782606656
      ],
      [
        "blema",
        -10.968551405517708
      ],
      [
        "cheechi",
        -10.969963504527431
      ],
      [
        "agblẽ",
        -10.970246129738658
      ],
      [
        "vɔvɔli",
        -10.970372734246908
      ],
      [
        "nuteƒewɔla",
        -10.971236086142769
      ],
      [
        "bɔɣil",
        -10.971919421258905
      ],
      [
        "binnyur",
        -10.972450669288268
      ],
      [
        "tɔtɔ",
        -10.97262698948738
      ],
      [
        "atua",
        -10.973975268847743
      ],
      [
        "yeƒe",
        -10.974807061680648
      ],
      [
        "tatɔwo",
        -10.975435960331907
      ],
      [
        "Ɛhe",
        -10.975598088778652
      ],
      [
        "pari",
        -10.97663367848708
      ],
      [
        "wòku",
        -10.976719731414075
      ],
      [
        "Vavã",
        -10.977284368695717
      ],
      [
        "nufiafia",
        -10.97740549728514
      ],
      [
        "fũ",
        -10.97824332677744
      ],
      [
        "naŋgbankpeen",
        -10.97875816604948
      ],
      [
        "kataa",
        -10.979134052338589
      ],
      [
        "sahene",
        -10.979243696107249
      ],
      [
        "Nɔvi",
        -10.979407562951192
      ],
      [
        "twɛn",
        -10.98008157442025
      ],
      [
        "atɛntenenee",
        -10.980186977119493
      ],
      [
        "wòyɔ",
        -10.980290831703208
      ],
      [
        "Roma",
        -10.98125843559625
      ],
      [
        "blaene",
        -10.981409351990797
      ],
      [
        "kpekpe",
        -10.981614465241435
      ],
      [
        "amedzrowo",
        -10.98401048119677
      ],
      [
        "Axaz",
        -10.984787946152082
      ],
      [
        "míekpɔ",
        -10.985069090997843
      ],
      [
        "kɔbisiyi",
        -10.9856496542171
      ],
      [
        "nnome",
        -10.985821497226368
      ],
      [
        "ahosɛpɛ",
        -10.986054136699256
      ],
      [
        "woanya",
        -10.986402127934292
      ],
      [
        "vodadawo",
        -10.98660099531591
      ],
      [
        "Nir",
        -10.987306520335574
      ],
      [
        "Yehoia",
        -10.990281394224452
      ],
      [
        "ahasi",
        -10.990380965163869
      ],
      [
        "ʋe",
        -10.990945780900208
      ],
      [
        "ƒuƒlu",
        -10.991319627480635
      ],
      [
        "nnuhwam",
        -10.991350282660497
      ],
      [
        "nandahima",
        -10.9914440418574
      ],
      [
        "mɛka",
        -10.991483393739262
      ],
      [
        "kurim",
        -10.992400412056604
      ],
      [
        "Elam",
        -10.992693209016045
      ],
      [
        "sakyera",
        -10.993239254137016
      ],
      [
        "Safa",
        -10.993707600698414
      ],
      [
        "busi",
        -10.993745253110756
      ],
      [
        "annwa",
        -10.994061628164603
      ],
      [
        "Ad",
        -10.995690451012509
      ],
      [
        "nkuraa",
        -10.996092527364748
      ],
      [
        "bah",
        -10.996216069425175
      ],
      [
        "Rub",
        -10.996989738351914
      ],
      [
        "naɖo",
        -10.99707310432888
      ],
      [
        "him",
        -10.997307416588852
      ],
      [
        "dundɔ",
        -10.997642962745177
      ],
      [
        "ɛdɛk",
        -10.997825457075455
      ],
      [
        "nwera",
        -10.99845913420241
      ],
      [
        "renyɛ",
        -10.999126992411188
      ],
      [
        "burodo",
        -10.999134066592838
      ],
      [
        "gɔhi",
        -11.001147070645429
      ],
      [
        "ʋĩ",
        -11.00180335254604
      ],
      [
        "Wowɔ",
        -11.00205500279353
      ],
      [
        "nyenye",
        -11.00396598678811
      ],
      [
        "yera",
        -11.004000057699445
      ],
      [
        "anyitsi",
        -11.004020320625704
      ],
      [
        "woayɔ",
        -11.005547978684248
      ],
      [
        "Afahyɛ",
        -11.005583584838613
      ],
      [
        "ɛnsɛ",
        -11.005633898053652
      ],
      [
        "mohunu",
        -11.005820137567714
      ],
      [
        "zabiri",
        -11.006009857198904
      ],
      [
        "subɔlawo",
        -11.006049312484745
      ],
      [
        "ɣla",
        -11.006725391867668
      ],
      [
        "kpari",
        -11.007069385356456
      ],
      [
        "dapul",
        -11.007126686731844
      ],
      [
        "nakoma",
        -11.008465781946825
      ],
      [
        "ɔtamfo",
        -11.0085593827021
      ],
      [
        "aʋatso",
        -11.008849013589936
      ],
      [
        "metrɔ",
        -11.010820201416736
      ],
      [
        "ɔgyee",
        -11.010984241895382
      ],
      [
        "Amasa",
        -11.011742478230596
      ],
      [
        "Enyo",
        -11.011982124671436
      ],
      [
        "Farisiinim",
        -11.012772303684647
      ],
      [
        "abotire",
        -11.012790680025166
      ],
      [
        "ŋmari",
        -11.013325055952896
      ],
      [
        "kuna",
        -11.013876908682484
      ],
      [
        "bɛsɛe",
        -11.013962018236535
      ],
      [
        "mfitiase",
        -11.014010475494516
      ],
      [
        "meyɔ",
        -11.01488169526086
      ],
      [
        "mèga",
        -11.01546031571574
      ],
      [
        "akyekyere",
        -11.016147778811144
      ],
      [
        "fom",
        -11.017519524061257
      ],
      [
        "gaɖo",
        -11.01775426537809
      ],
      [
        "wòadz",
        -11.017798109316242
      ],
      [
        "Asera",
        -11.018971908422404
      ],
      [
        "mihi",
        -11.019093172718517
      ],
      [
        "mido",
        -11.019347340156664
      ],
      [
        "Bin",
        -11.019396689863823
      ],
      [
        "nuteƒe",
        -11.019969253558326
      ],
      [
        "gbemelã",
        -11.021641913577977
      ],
      [
        "wɔbɛdi",
        -11.021909091679614
      ],
      [
        "pampam",
        -11.022275653257044
      ],
      [
        "guni",
        -11.023003221230365
      ],
      [
        "Ebia",
        -11.023393349656873
      ],
      [
        "likauli",
        -11.023675036254463
      ],
      [
        "vuu",
        -11.02504016373173
      ],
      [
        "sɔdola",
        -11.02585217690487
      ],
      [
        "duna",
        -11.026067993339897
      ],
      [
        "jaaŋgbe",
        -11.027294783173268
      ],
      [
        "Jɛhɔsha",
        -11.0272962783953
      ],
      [
        "gaƒoƒo",
        -11.0275380315105
      ],
      [
        "nunɔlagãwo",
        -11.027883918443894
      ],
      [
        "alẽha",
        -11.028460168698718
      ],
      [
        "fiã",
        -11.029048603718458
      ],
      [
        "Fofonye",
        -11.029309778027812
      ],
      [
        "wahyɛ",
        -11.029725301589728
      ],
      [
        "kɔri",
        -11.030162166269166
      ],
      [
        "dansi",
        -11.030792106290228
      ],
      [
        "aware",
        -11.030861520283338
      ],
      [
        "hunta",
        -11.0321567667984
      ],
      [
        "nunyalawo",
        -11.032209927540023
      ],
      [
        "yɛnnim",
        -11.032241226663237
      ],
      [
        "asieke",
        -11.032361365620009
      ],
      [
        "yɔm",
        -11.03334441978211
      ],
      [
        "kora",
        -11.033513529191213
      ],
      [
        "huru",
        -11.033658394362114
      ],
      [
        "mefrɛ",
        -11.034493157508194
      ],
      [
        "gudugudu",
        -11.034647529220866
      ],
      [
        "Sadok",
        -11.034647967368782
      ],
      [
        "Karmel",
        -11.034656547341072
      ],
      [
        "aʋakplɔla",
        -11.034747217663416
      ],
      [
        "shihiril",
        -11.0351864377872
      ],
      [
        "miadze",
        -11.035605037903236
      ],
      [
        "pahiri",
        -11.03654516795428
      ],
      [
        "binnɛ",
        -11.038067920962476
      ],
      [
        "ahyehyɛ",
        -11.038086192092376
      ],
      [
        "kalẽtɔ",
        -11.038847210124842
      ],
      [
        "aseda",
        -11.042550756749648
      ],
      [
        "borɔdɔma",
        -11.04285277627474
      ],
      [
        "fono",
        -11.04307773751382
      ],
      [
        "pasaa",
        -11.043204085496551
      ],
      [
        "didim",
        -11.044562946532622
      ],
      [
        "nɔviŋutsu",
        -11.045143124033023
      ],
      [
        "gbeƒãɖelawo",
        -11.04565708702254
      ],
      [
        "xɔlɔ̃",
        -11.046476684589493
      ],
      [
        "ŋutsuawo",
        -11.048218999562652
      ],
      [
        "Kpe",
        -11.048494794499373
      ],
      [
        "jɛmd",
        -11.049865660828717
      ],
      [
        "amamfo",
        -11.049995463531411
      ],
      [
        "tɔgbi",
        -11.050188029375551
      ],
      [
        "aimɔn",
        -11.050739692695686
      ],
      [
        "wɔrekɔ",
        -11.050806021167803
      ],
      [
        "ŋutinye",
        -11.051433114439318
      ],
      [
        "ahosi",
        -11.052141374377586
      ],
      [
        "vuvu",
        -11.052741589383796
      ],
      [
        "chɛri",
        -11.052866303739997
      ],
      [
        "Sera",
        -11.053549750221292
      ],
      [
        "maga",
        -11.053862968874782
      ],
      [
        "nuteƒewɔwɔ",
        -11.054567159609302
      ],
      [
        "Sema",
        -11.055316778570376
      ],
      [
        "gbuɣin",
        -11.05595876759357
      ],
      [
        "megali",
        -11.055988954352095
      ],
      [
        "nàkpɔ",
        -11.056074543669125
      ],
      [
        "ɖeviwo",
        -11.056090791834723
      ],
      [
        "ɖekaɖeka",
        -11.05651252772979
      ],
      [
        "dwene",
        -11.056561209644176
      ],
      [
        "wopɛ",
        -11.05660022395595
      ],
      [
        "vovo",
        -11.057043287239113
      ],
      [
        "pil",
        -11.05728012091172
      ],
      [
        "Paɣimiy",
        -11.057337922346376
      ],
      [
        "Sebulon",
        -11.0573455287997
      ],
      [
        "samban",
        -11.057406811360032
      ],
      [
        "mʼanim",
        -11.057728739896517
      ],
      [
        "yaɣili",
        -11.057743994310606
      ],
      [
        "kɔkuti",
        -11.057830183426644
      ],
      [
        "akpata",
        -11.05797570096173
      ],
      [
        "Woŋlɔ",
        -11.058384413115988
      ],
      [
        "Mmara",
        -11.058415425264943
      ],
      [
        "xexeame",
        -11.05899562804496
      ],
      [
        "kɔr",
        -11.059338885208634
      ],
      [
        "ahana",
        -11.059353334141882
      ],
      [
        "tizɔpaɣ",
        -11.0595758573921
      ],
      [
        "wòado",
        -11.059588417325878
      ],
      [
        "Xɔ",
        -11.059723754127106
      ],
      [
        "bɛsɔre",
        -11.06023930109677
      ],
      [
        "ɛbɛb",
        -11.060596410918231
      ],
      [
        "Menya",
        -11.060827632098682
      ],
      [
        "nakpɔ",
        -11.060891910556204
      ],
      [
        "ahunta",
        -11.06089548113907
      ],
      [
        "Dzi",
        -11.062001596024109
      ],
      [
        "ennwa",
        -11.062516430145278
      ],
      [
        "nwono",
        -11.063338991986637
      ],
      [
        "Saha",
        -11.064116602147184
      ],
      [
        "nyanyui",
        -11.064398384714185
      ],
      [
        "ahum",
        -11.064584925642007
      ],
      [
        "ɣemaɣ",
        -11.064615480756023
      ],
      [
        "nufosu",
        -11.06467182899138
      ],
      [
        "agbalẽfiala",
        -11.064682572239493
      ],
      [
        "sitsoƒe",
        -11.065048484477112
      ],
      [
        "gbɔ̃",
        -11.067282689018386
      ],
      [
        "nnamfo",
        -11.067388646593862
      ],
      [
        "teeg",
        -11.0674520152247
      ],
      [
        "dɔro",
        -11.068508739222729
      ],
      [
        "woama",
        -11.070405762733678
      ],
      [
        "bari",
        -11.070879115098696
      ],
      [
        "daalikauli",
        -11.070927564376362
      ],
      [
        "biɛrim",
        -11.071338635539878
      ],
      [
        "sanku",
        -11.0716243614201
      ],
      [
        "wɔama",
        -11.071979933344268
      ],
      [
        "sesa",
        -11.072192121949357
      ],
      [
        "madzɔmadzɔ",
        -11.07221676311218
      ],
      [
        "ʋeʋẽe",
        -11.072582489947122
      ],
      [
        "bata",
        -11.072750658703171
      ],
      [
        "kwaeɛ",
        -11.073499171755865
      ],
      [
        "nyɔtaɣiri",
        -11.0739124708593
      ],
      [
        "adrɔ̃",
        -11.074525159435453
      ],
      [
        "kɔnu",
        -11.075687364319366
      ],
      [
        "made",
        -11.076495092510635
      ],
      [
        "dziɖula",
        -11.076671552670463
      ],
      [
        "susɔea",
        -11.07670190256105
      ],
      [
        "ntentenso",
        -11.077122758913212
      ],
      [
        "togbɛ",
        -11.077165658328903
      ],
      [
        "notsi",
        -11.078000239090962
      ],
      [
        "maxɔ",
        -11.0795281449284
      ],
      [
        "twetia",
        -11.079882127439774
      ],
      [
        "dwoodwoo",
        -11.079938326954217
      ],
      [
        "Miɖe",
        -11.081183633722526
      ],
      [
        "akaɖi",
        -11.083090115444534
      ],
      [
        "Amo",
        -11.083687769106444
      ],
      [
        "Meka",
        -11.0838864679458
      ],
      [
        "metu",
        -11.08444515965909
      ],
      [
        "woakplɔ",
        -11.085120973159286
      ],
      [
        "asisi",
        -11.08566679799938
      ],
      [
        "kpiŋkpa",
        -11.08568560775972
      ],
      [
        "nsuwa",
        -11.086402068591884
      ],
      [
        "Jɛhu",
        -11.087715879277267
      ],
      [
        "asotwe",
        -11.08784411010699
      ],
      [
        "mieva",
        -11.087878859621146
      ],
      [
        "amehawo",
        -11.08806048780928
      ],
      [
        "hedo",
        -11.088211208207966
      ],
      [
        "bose",
        -11.088503131678785
      ],
      [
        "takɔbir",
        -11.088578940947574
      ],
      [
        "tsɔtsɔ",
        -11.088612807610229
      ],
      [
        "biɛr",
        -11.088683905824322
      ],
      [
        "kurom",
        -11.088808497814686
      ],
      [
        "Mikafu",
        -11.088856610561129
      ],
      [
        "abot",
        -11.089033180578165
      ],
      [
        "wɔhwɛ",
        -11.089629939808455
      ],
      [
        "Woɖe",
        -11.089890698508096
      ],
      [
        "Naba",
        -11.090379736928156
      ],
      [
        "akodeɛ",
        -11.09071735409112
      ],
      [
        "dunianim",
        -11.09205321030172
      ],
      [
        "aberante",
        -11.094636243706011
      ],
      [
        "Nun",
        -11.095190569754395
      ],
      [
        "vevesese",
        -11.095528989707969
      ],
      [
        "tɛtrɛtɛ",
        -11.0956067569035
      ],
      [
        "gahind",
        -11.095722680696614
      ],
      [
        "zilin",
        -11.09593647545017
      ],
      [
        "Ar",
        -11.096254677921864
      ],
      [
        "atike",
        -11.096786300579474
      ],
      [
        "asane",
        -11.09690108605658
      ],
      [
        "daantalis",
        -11.097754973425346
      ],
      [
        "bobo",
        -11.098031366150837
      ],
      [
        "Megblɔ",
        -11.098171754064694
      ],
      [
        "nʼasu",
        -11.09837657533934
      ],
      [
        "tɔŋ",
        -11.098546061447369
      ],
      [
        "wayi",
        -11.098684510791756
      ],
      [
        "Mese",
        -11.09911453750042
      ],
      [
        "Jɛ",
        -11.099184848945992
      ],
      [
        "torɔ",
        -11.099647064482896
      ],
      [
        "vinyɔnuwo",
        -11.101110918564032
      ],
      [
        "koto",
        -11.101756900220463
      ],
      [
        "fɛfɛ",
        -11.10227718440398
      ],
      [
        "hyiae",
        -11.10292950227585
      ],
      [
        "dzidada",
        -11.103043167288751
      ],
      [
        "suhugarigu",
        -11.10318310257459
      ],
      [
        "gbedeasi",
        -11.103388470360624
      ],
      [
        "Amɔrinim",
        -11.103414056021244
      ],
      [
        "woayi",
        -11.103836376592144
      ],
      [
        "Zeru",
        -11.104090770416482
      ],
      [
        "mmaŋmaŋ",
        -11.104517196528962
      ],
      [
        "fapem",
        -11.105474473563149
      ],
      [
        "ahenn",
        -11.10593762636174
      ],
      [
        "Gye",
        -11.106420065216572
      ],
      [
        "makplɔ",
        -11.10664115374028
      ],
      [
        "Pin",
        -11.106868078319124
      ],
      [
        "wɔbɛgye",
        -11.107262661671596
      ],
      [
        "mɔɣili",
        -11.10805785884202
      ],
      [
        "yɛnkɔ",
        -11.108448667475676
      ],
      [
        "ŋubiri",
        -11.108726750602404
      ],
      [
        "ɛwoɔ",
        -11.108994682753808
      ],
      [
        "Yaɣi",
        -11.109192239115757
      ],
      [
        "aʋakɔwo",
        -11.109217092019756
      ],
      [
        "Wodo",
        -11.1100998085644
      ],
      [
        "Xebron",
        -11.111313020132966
      ],
      [
        "Kohat",
        -11.111313157718772
      ],
      [
        "Kaesare",
        -11.111322296053096
      ],
      [
        "wɔnyɛ",
        -11.111580869372366
      ],
      [
        "moli",
        -11.111827150102275
      ],
      [
        "Baana",
        -11.11207443027534
      ],
      [
        "Asamando",
        -11.112252208594091
      ],
      [
        "makɔ",
        -11.113297797112043
      ],
      [
        "ahodwiri",
        -11.113747848368051
      ],
      [
        "rehyɛ",
        -11.114115785751068
      ],
      [
        "akata",
        -11.114441614269918
      ],
      [
        "tamdi",
        -11.11498608174706
      ],
      [
        "wòwu",
        -11.116044520860392
      ],
      [
        "ɛsɔ",
        -11.116091816181648
      ],
      [
        "Medi",
        -11.11647686662419
      ],
      [
        "usẽkatãtɔ",
        -11.116495910610077
      ],
      [
        "Edo",
        -11.117570998168166
      ],
      [
        "Nebukadnez",
        -11.118162532131194
      ],
      [
        "mmobɔ",
        -11.118236836188842
      ],
      [
        "wɔfa",
        -11.118702553487497
      ],
      [
        "ahohia",
        -11.118965125142932
      ],
      [
        "hĩ",
        -11.1192911626426
      ],
      [
        "kekeake",
        -11.11936370748763
      ],
      [
        "ƒuƒu",
        -11.12006363791758
      ],
      [
        "dɔvɔ̃",
        -11.120294832390712
      ],
      [
        "kɔkyere",
        -11.12042914402223
      ],
      [
        "nteaseɛ",
        -11.120726769844312
      ],
      [
        "blane",
        -11.12101151078352
      ],
      [
        "otam",
        -11.121396116527285
      ],
      [
        "kika",
        -11.122297925104208
      ],
      [
        "bɛwu",
        -11.12236218057977
      ],
      [
        "mmisa",
        -11.1229091767099
      ],
      [
        "lɔwo",
        -11.124229038827236
      ],
      [
        "Itama",
        -11.12441715114207
      ],
      [
        "tiwal",
        -11.12459473268361
      ],
      [
        "buyi",
        -11.125132961766742
      ],
      [
        "Naaman",
        -11.125513649557146
      ],
      [
        "aƒewo",
        -11.126752287597837
      ],
      [
        "Neba",
        -11.127125588475106
      ],
      [
        "tɔgbuiyɔvi",
        -11.127370932607349
      ],
      [
        "buŋ",
        -11.127414801176778
      ],
      [
        "ɛhia",
        -11.128816952198136
      ],
      [
        "Ɔma",
        -11.129164831079072
      ],
      [
        "ŋmaa",
        -11.12946143412453
      ],
      [
        "ntoto",
        -11.130922284459112
      ],
      [
        "toɖoɖo",
        -11.13129801393822
      ],
      [
        "Meɖo",
        -11.1314513721905
      ],
      [
        "Ga",
        -11.131533069903226
      ],
      [
        "fabil",
        -11.13182296331006
      ],
      [
        "piɛm",
        -11.131908752978593
      ],
      [
        "tà",
        -11.132021769394033
      ],
      [
        "wʼa",
        -11.132074507938515
      ],
      [
        "dwammaa",
        -11.132123362933232
      ],
      [
        "ʋɔ",
        -11.132143311135962
      ],
      [
        "lãhawo",
        -11.133001140981094
      ],
      [
        "èwɔ",
        -11.13538681651989
      ],
      [
        "ayera",
        -11.135559681610994
      ],
      [
        "kalẽtɔwo",
        -11.135605288637212
      ],
      [
        "baalim",
        -11.13566680470988
      ],
      [
        "kyekyere",
        -11.13626362132387
      ],
      [
        "kyere",
        -11.1368121234196
      ],
      [
        "Heti",
        -11.138082383643397
      ],
      [
        "ntaba",
        -11.13844357158725
      ],
      [
        "lifi",
        -11.138471249395955
      ],
      [
        "míenya",
        -11.139037830240012
      ],
      [
        "wedeɛ",
        -11.13966043558178
      ],
      [
        "Kus",
        -11.141268552622272
      ],
      [
        "nɔvinyɔnu",
        -11.141374051147682
      ],
      [
        "yoya",
        -11.142254380865122
      ],
      [
        "nègblɔ",
        -11.142433456402342
      ],
      [
        "metso",
        -11.14351136775378
      ],
      [
        "Hesbon",
        -11.143708876281398
      ],
      [
        "keka",
        -11.144067945468684
      ],
      [
        "ntwa",
        -11.144647585508569
      ],
      [
        "biabia",
        -11.144823799974503
      ],
      [
        "nuƒoƒo",
        -11.144845499984577
      ],
      [
        "mekaa",
        -11.144973552016364
      ],
      [
        "Lɛban",
        -11.144993263041563
      ],
      [
        "remma",
        -11.14518641849562
      ],
      [
        "tiz",
        -11.145800132646446
      ],
      [
        "abari",
        -11.14581536584492
      ],
      [
        "idie",
        -11.146706999324836
      ],
      [
        "nèdo",
        -11.147293631522022
      ],
      [
        "Mega",
        -11.14729474118118
      ],
      [
        "kplɔm",
        -11.1476180950356
      ],
      [
        "Yiɣisim",
        -11.147675308821595
      ],
      [
        "were",
        -11.14776761000053
      ],
      [
        "fewu",
        -11.148442154785844
      ],
      [
        "ʒiɛy",
        -11.148633964580863
      ],
      [
        "kpɔtɔ",
        -11.1486517632564
      ],
      [
        "ŋudzɔ",
        -11.148656368560149
      ],
      [
        "turi",
        -11.148929908813235
      ],
      [
        "bukadn",
        -11.1493822721904
      ],
      [
        "nahindi",
        -11.14944303334343
      ],
      [
        "kata",
        -11.150160453883217
      ],
      [
        "dzɔlawo",
        -11.151212362800518
      ],
      [
        "Sila",
        -11.151286100454987
      ],
      [
        "sɔŋdi",
        -11.153050819157922
      ],
      [
        "aʋawɔnu",
        -11.153644766575312
      ],
      [
        "didiƒe",
        -11.153758509202284
      ],
      [
        "Zebulon",
        -11.154237414887412
      ],
      [
        "togbɛwo",
        -11.15516555070096
      ],
      [
        "wòaɖu",
        -11.155728948994549
      ],
      [
        "Nɔvinye",
        -11.157027660920935
      ],
      [
        "Wɔka",
        -11.157182073465968
      ],
      [
        "Mesul",
        -11.157524148870165
      ],
      [
        "mmɔborɔ",
        -11.157916368972147
      ],
      [
        "Ham",
        -11.158390639238394
      ],
      [
        "ehavi",
        -11.158909962517466
      ],
      [
        "bibi",
        -11.1597485870195
      ],
      [
        "gbogbo",
        -11.159778715360702
      ],
      [
        "Galili",
        -11.15996301346021
      ],
      [
        "Hiburɔn",
        -11.160302685839486
      ],
      [
        "gbilli",
        -11.16030755450986
      ],
      [
        "nambɔzɔ",
        -11.160486094388418
      ],
      [
        "mmorɔno",
        -11.160958127336244
      ],
      [
        "nʼase",
        -11.161206754908571
      ],
      [
        "yimaŋmaŋ",
        -11.161671107891053
      ],
      [
        "dwanekɔ",
        -11.162088709084893
      ],
      [
        "ʋã",
        -11.1623000017632
      ],
      [
        "Yabes",
        -11.162608762324622
      ],
      [
        "bɛbrɛ",
        -11.162707193757983
      ],
      [
        "gogo",
        -11.163672873367345
      ],
      [
        "ɔkwasea",
        -11.163801880231691
      ],
      [
        "biŋkɔbbal",
        -11.164493119792176
      ],
      [
        "kɔhwɛ",
        -11.164543645234698
      ],
      [
        "Ah",
        -11.165576004452864
      ],
      [
        "gbarigi",
        -11.16591611030364
      ],
      [
        "hiãtɔwo",
        -11.166548438241248
      ],
      [
        "kpekpeme",
        -11.166564778451145
      ],
      [
        "ɖiɖim",
        -11.167169803197964
      ],
      [
        "wɔma",
        -11.167408867101392
      ],
      [
        "tɔhi",
        -11.167422552682211
      ],
      [
        "gbi",
        -11.167669037011107
      ],
      [
        "wuɣi",
        -11.16854953558742
      ],
      [
        "tsu",
        -11.168647607464116
      ],
      [
        "kɔbisinahi",
        -11.168821755589388
      ],
      [
        "Wɔbɛ",
        -11.16946363760918
      ],
      [
        "afotu",
        -11.169800613000206
      ],
      [
        "lɔlɔ̃tɔ",
        -11.170028566044287
      ],
      [
        "miegblɔ",
        -11.170805297951649
      ],
      [
        "Eva",
        -11.171616786880172
      ],
      [
        "wɔbɛhunu",
        -11.172039544809824
      ],
      [
        "ɔbrɛ",
        -11.17334139737457
      ],
      [
        "mpan",
        -11.173862189896852
      ],
      [
        "fali",
[...]
